node {
  name: "x"
  op: "Placeholder"
  attr {
    key: "dtype"
    value {
      type: DT_FLOAT
    }
  }
  attr {
    key: "shape"
    value {
      shape {
        dim {
          size: -1
        }
        dim {
          size: 16
        }
      }
    }
  }
}
node {
  name: "decoder/dense_2/MatMul/ReadVariableOp/resource"
  op: "Const"
  attr {
    key: "dtype"
    value {
      type: DT_FLOAT
    }
  }
  attr {
    key: "value"
    value {
      tensor {
        dtype: DT_FLOAT
        tensor_shape {
          dim {
            size: 16
          }
          dim {
            size: 16
          }
        }
        tensor_content: "\212\376)\275z\006\211>\323vU?\251!\265\276\2252\241\276\234\321g=\2046#?\336\3341?\244{7?I\241}\276b\274\207>\370c\333>z.\371\275\027v\034>\230GG\275\276\224\033\277*\"\224\276\221@v>\267D;\273\234\254\306>\242s\\>\245\202U\276{\253\224\276\213\'\023\275\0071\034>\024\200\'\276A\375G>\257\272p>\tJ\323\275\000\001\313\276sf\024\275\324\272\201\2766+\306>+\376C\277\373\350\370>{\357\232>\252\226\023\277*\351)\276R\330U\2764\271\204=\256\243!\277P\374\252>@`\000?=\366~\275H\227\227\276\366\375\021\276\200\323n>\322V\342>\3516H?\341m1=x&\016\277\005A\206\275\270Kl\276\371\034`8\024<\031?\314\346P\276\032\245\330>\023J\247\276\220\017K>(\272\255>\311\203\356\275\301\351$>\252\227]\276\020+\025?\201x\272\276\277\242N>{b\026\276.%\215\276\372\360y>\362ug><@\354>\322\232N\276\250\225\273=\233~\323\275\241S\233\273\373\3532\276\022\226\251\276g\275K\275\354\377\003?M\317\224>a\262\322\276 \310H\277-\"\325>\035\366\277\276Q\242\237\275/\323\224\276\255s\352\2768\277\036=\236\257\230\276(\273\212=n\035i\276\2420\332=\246R:>\241B\361\275\202Z\001\277:\025P?\r\365\210\276\232\205\326\276\014\264\207>/\215Z\275\206\007\354>\026\001\317>\001\222\203=\026\256\351<\272\2604=\260`\220\276\026U<>\3126\032=\257\222\235=RD\005\276\364_\246>\255\313E\276\337/B\275R\337\207>k\332\252\276A\022,>\360x\362=\177\253\000\276\324(\376\275C\0146\275\310B&>\255\t\n\276\351*\372\2742\305\247\276\n\352\313>i:\177\274O\341\247\276\362\327\303=\354\2147=u\236=\276\265Q\302\275\331\005\266>\354cK>\236\245\017>\313\303\307\275\237[\213>y\360^>\224\241Z\276\";\'\274\272\026\032>\336[\260=3\366\031>pr\224\275\324S\335\276n\244\231>\234\221\031\276\224\210\336\276\263\352\271>\331\213\361=;o\355\275\004\2605?|\032,>\261\327\027\277{)P>\034G\312>;d\220\276\014\324\327\276M\203\000?u\177\375<ru\251\276\323\031\256\276\206\201\332=e\241m\275\370\'\234>\274\336\233=\302\007\364\276\021\027\210\276\244\230\022?r\377\242=\224:\023?s\314K\276!9\003?\302\026N\276M\333\031=(t\217\276L\272\230>\227@N?f\r\320>\007Q\271>\006kl\276\351Y,?\023$N>\323\203\263=g+\243>\270\207\030?\204A\240\2764q\003?{o2\276\347f}\2759\n\347>Wy\002\277\201\200\222\275I\034\334>\343k\031?\200\243\210>\260\r\362>w\334\241<\005h\316>n\373\242>\226OQ\276b\350]\27629\211=?N\343\276/\372\353\275\206\201\276>\023p\357\274j\273S=\274\210\016>\311\307/\276E$\334>\025z\n\276\332?\275>\"\374U\276$\346g\276\332\246f\276\017\363\267=p:\231>[\274\001>\206w>\2750\037\022\276R\257\353<$+\177\276&v\252=\202\235\342=\327\362\214\276\232\265 ?l\307\002\277B\244\\>\253\262\020\277ln\337\276\270\365h\277\376D\230\276\0036\321=C\034)\277\351g\350>~\205V\276\231`\335\276Mu\022?o\200*>\255\306\264>kZ\263>\373%\034>Un\232>T/\013?&\272\327>C\013\323>\220\n\307\276\315\3639=/\244\313>\322\313\306>\236\202\022>\230\302\347>\302]\243\276pn\310\27512K>\326\201\303\276"
      }
    }
  }
}
node {
  name: "decoder/dense_2/MatMul/ReadVariableOp"
  op: "Identity"
  input: "decoder/dense_2/MatMul/ReadVariableOp/resource"
  attr {
    key: "T"
    value {
      type: DT_FLOAT
    }
  }
}
node {
  name: "decoder/dense_2/MatMul"
  op: "MatMul"
  input: "x"
  input: "decoder/dense_2/MatMul/ReadVariableOp"
  attr {
    key: "T"
    value {
      type: DT_FLOAT
    }
  }
  attr {
    key: "transpose_a"
    value {
      b: false
    }
  }
  attr {
    key: "transpose_b"
    value {
      b: false
    }
  }
}
node {
  name: "decoder/dense_2/BiasAdd/ReadVariableOp/resource"
  op: "Const"
  attr {
    key: "dtype"
    value {
      type: DT_FLOAT
    }
  }
  attr {
    key: "value"
    value {
      tensor {
        dtype: DT_FLOAT
        tensor_shape {
          dim {
            size: 16
          }
        }
        tensor_content: "\247\205\320>CJ\021?F\355\004\275\203N\204\277p\244;>\323\364\017=\230:\312\276w\255\234\274d\r\203\277e\237\300>?\245\253\275$\025\224>*\257O\274\'\014\">\013G\014>KU\325\275"
      }
    }
  }
}
node {
  name: "decoder/dense_2/BiasAdd/ReadVariableOp"
  op: "Identity"
  input: "decoder/dense_2/BiasAdd/ReadVariableOp/resource"
  attr {
    key: "T"
    value {
      type: DT_FLOAT
    }
  }
}
node {
  name: "decoder/dense_2/BiasAdd"
  op: "BiasAdd"
  input: "decoder/dense_2/MatMul"
  input: "decoder/dense_2/BiasAdd/ReadVariableOp"
  attr {
    key: "T"
    value {
      type: DT_FLOAT
    }
  }
  attr {
    key: "data_format"
    value {
      s: "NHWC"
    }
  }
}
node {
  name: "decoder/dense_2/Relu"
  op: "Relu"
  input: "decoder/dense_2/BiasAdd"
  attr {
    key: "T"
    value {
      type: DT_FLOAT
    }
  }
}
node {
  name: "decoder/dense_3/MatMul/ReadVariableOp/resource"
  op: "Const"
  attr {
    key: "dtype"
    value {
      type: DT_FLOAT
    }
  }
  attr {
    key: "value"
    value {
      tensor {
        dtype: DT_FLOAT
        tensor_shape {
          dim {
            size: 16
          }
          dim {
            size: 512
          }
        }
        tensor_content: "\264\277\202=\333M\373>\364\023\034>\256g\003>\317\347\005=$\205\t\275\300N\366;\271\227\213\276\320\241\322\275\264\370\017= \257\223\277D\211\262\275\t\302\227\275\330\246`\275S\032\333\275/#\367\273\376\364\007\276\345L\032\275\334\226\271\276\013q\327=\273\016g\274\2773\202\275 \023\033\275\317\244X>\353\346\343\275\222j\316\275?\351z\275\275\026\301\275\3033O\276K\371^=\350[v=\177U\'>\200\376H<\2366\201\274WM\201\275\354\203Y>EzA<K\276\203=(8\241\275\247S\307=\362Q\256\275c\000\376<Xep=3\333b=\365z\202=\24056\275|\321\025>\306LB\275\342\202C\275\035\346\365<\250\212\255\276\234\014\245>\335*%\275\231#\235<\217\351\000>\254\016\250\274\234LN=v\226\254>c\206\213\275\206\306\023>g\371.>\333\366\211\276\265\351\303\275\254\204\224\275\234:\231\275\310\343\006?\240K\304\275)\t\223=\251\252z=\003\200\274\275\256P7\275\2752e\2753p\210<%\310\331\275\307V\204\275<\3116\276\311F\250=Q\377\006=^)\355\275\354\246\304=- \275\275@\201\240>Q]\205\275\330\2206\275\376\274\213<\022la>\200\341\347\275\216\256\017=\217W\302\275\320\300\336\276\021 1\276r\376<\276\326Oo=\267\205O\275\014>\222\273\001\355\210>\203\223\374=\200\340\203\275dpu>1\327\027\276\023\353\030=>\352\347=\374>\216\275\3749\354<\325\037\037={\235\007\274\217\234\233\273\000\355\375<\245\245j>\017do>\274\326\241=\320P\257\275\307v\341\275?\323\276\275k\373\222=\214\251\n\2761\230!>\362\2268\274\372\230\240\275a\005\201=\006o\355\275#\0137;\300|v<W\3766>\333\324\016\274\340\243\332\275\265\263\262\274u\013\340=\256\033E\275@\0102<\037\251\245>d\276\006>y\330\241\275\317N\306=\310o\020\277\311\261w=\266\324\002\276E\002,\274+\316\356\274\237t0\274\325\037(>\224A=>\346\361K=\356L\034\2754\376\304\275\274}\301<\316\024\246\275HC\034=\305p\010=\376m+\276\222\271\002\277u\246\200\276\201\244\013?I\343\n\276\236\345\342\275\027\272\200\275\327\262\000;\022\203~\276\000\2637\273GW\253\275\211K\335\273pp$\275\205\0216=\rZ\036\276\310\265\366\276#\341\001\274\033M\351=v\264?\276\036Xy\275F\204\243\274\344Y_\275\270\312\3569\237\216\205;\200\266\014=<|\305<\304G\223=?I\271\274\232\320\035\27674\355\273RcU\275=$\357<>\335\021\275\372\346O>\341\014\345=O\326\350;\230\301I\274\013\303\241\274\037?:>,\276N>\264x\310\275\003\272\"=\036\247\021<\224\230\n\275\373\271\364\275g_\266\274\024\224!\275V\2157>\231\210\223=\316\327J\275\251\253\020\276\270G\014\276\364V\334\275\245\323\360\275\246\255\256=\247\024X\275\345\030\"=_,&\275\220\022\262=\360\325m=o\022\373\275\017\023\252\276\351\023\363\275\024\204~=P\020\336=9\372M\275\353\370\000=\373\322\004\276d\375\213\275\325\222\013\276\325\260\022\275\267\021\346< T\245\275\211\216\022\277JGe\275H\234\302\275\222\000\253\274\356\326Q\276bF;\275G\025\213=\016H\300\274Pga\275\rY\304>L\357\371\275i\334\n\274C\266\343<\261\260\277=>\377\307\275\371I\335=V7\277\2727jG>[\244:>\'\312\037>{\323\303>\000t<>\251\236\307\275\177\\q<ph5>\356\3764>\322\323\233>LW\303\275~\377|>\221\364&=l\t\252\274S`\215<mD\361=\302/\270>\030\002t\275\325\233\217=5q\036=V{z=\024\275\027=H\027\317\275\202\035?=\276\324\221\276\350~\260>N\026n=Am\220\275\004\037\205=E\216N\276\326\350\272>\224\221n=j\342\342>h\230\233>\t\335$\275\2672G=H\201\223\274`!&\275\021jE\276\334\250\034\274\200\214 <\206OX\275n\'\322=\245\301%?\3551\242\275\203\312T=\265\356\335\275a\224\014\276\314\036\254<\004$\025\2768\304<=\241\020s\275\021XE?0,\302>\001\007\207>^.*\273\271\334\350\274\035\270\220>\371\376X>\016\032/>\263\237&;\374\005\337\275\316; >\260\212e>\"\373.\276;\252~\274$(=\276;L\201>\355o\010>\345\365\240>+\\\'\276C>t>\267%\216\275\2178\262\275\005\206\332>\225\033\032<\227\315\022\276\353\004d=\234.\346\274s\240\205=l\236\235>r\241\202\275~C\277\276h\335$\274_\204\234\275\203\250F>\227\232\350>\373n\"=\026+\252>G\032\237=\370\007s\275\262\374A>\035\363\320=\346\240Z\274\032\223`\276u\262g\275F\220\224\275L\263\256;\2170\364=\374a\276\275\0014\316\275\337\222\003=f\370k=\234\326\026?\223\262\216\274\327a%\275YR{=;\201\360<d^\030\274\234\370>=\247vE<\303\321\323\275Ql\356\274$\r2\275\241\340K=\270\242Z\275c\307\322;\371X\313\275\013\035\023=\222\224\312\275\304\306>>t\3433\275\236\375\353\275\257#=>\006\375\376\276!\377q\274\336d\351=\346}U>\252\261\233<\262\2009\276\213EV<\256\221\362<V\250\367\275\217\367\004?\317\334\212\275\201\\\327>\202\205\301\276r\235\351\276(<\004\276\033\204\262\275.\021U\274/\203\360\276\315\325\261<\023~7\274\222\306J>\206\004\243<\360,P>$\263\212\276\304Ac\275\363\316\213<\260\025\262= \247\n>\t\343\250<\240K\327>\014o2\275\247\025\013?\255-Z>\266X\344=\241_\214>\367\202\276=\241\032\235\276oV\016\276S\264\t\275\023\357\000\275\236U\251\276\033\324\200\275}u\267\275\370\005\013>\017\273\023=1(\353=\257\271\223>\010\262\226\275g[l\275\222\310\006\276\020F\272\275\344p|\276\212\244\256\275M\250?\274_\251x>\204\242\032=\366\270\221=a\007\276>\237\n\204=g5\204=\320]\315<\347\310$\276\344\362\232\275\225\216x=>&\307;\367&\325=;\032?\276\317\260\332\275\2226\242;Ac\271\275\326\314\301=\344\2015=DJ\033=\260\025\241;\331\336\317\275<\005\207\275\200\331\277\274\261\204P\275\220v\232<\004\032\333\274\310ug=\376\302\312=\200)U=\340\202p=\020\337R=\030\264\374\275f\001\214\275\214\021\033\276Wh\260\274\353\236\207\275\247x\234=\347\030\006>\226\272v>\303Wl\275yhW\275jU\026>\206\357\324=\267z\304\275\241Q\321\275\322\025y=\23187<9U/\275 \361\014\275\276\262O\276\371X\342=\254A_>\371X\210\275\025\203\036>\320\271\302>\\\306\377\275\037*?=\220;\276\274\363\240\250\275tI\021\275P|\256\275a/\267\276\240\225\204\275Tz\213\274Es\t=\305\304\365>\250M\213\275\036{\003\276\224\006\230\276\006~\207\275\223\340\003\276\354\010\027=\373\302:?\204?N> \264\313>\365\003\021\275\233\371^\274:\276\014>Mv\262\275/\204\276\275t\274\021=\312\313\010\275\345+\303\275XO\250\275z+\317=\021\305e\275fl\277\275\2406\264\275&\n\253=P*\313\2734R\242\274\200\200\271<\320\341\262\274 \362\265<,W2\275q\t\\\275\203\211\306=\240Q\224=M/P>n!\373\275QJ\035\2737\005k\275\202\364\"\276\0357\016=\220\3376<\307\205\347\275,W\022=\001\005\362\275\022\304\310=\305?\231=\003ZP\274\242\304\210\274\370\020\356\275L\310\035=\036d\031=\317\261\204\275\271%B\2758%I\273j\300]=k1\001\276\263}\377\275\351-\343\274\253\243\300=\256\037\250\275\0108\324\275U\237\270=R\362\216=\'\370J=\204\345n=b\321\263\275\305\337\361\274\\!E\274\246\212\016\2752\006\206=\034\211\264\274\274\3623\275W\336\343\273\375\341P\2757\312`>\245\022\300\274\360\305\207\275\352\211\237>\006A\345=\217}\005<\n@R<]uY\276\240\345 >\352\226\327\274^T\026>\311g\350=\324X\261\275\302\025\272<r\305\217=\337a\257\275\3470\360=\246R\035\275N\234\302\276\034\350\030\275y~\345;bd\014\276\007\375\351=/\031\356<|\024\'>Q\021\257\275\3708\240=\n<\332\275\004\341\330=\304v\310\274\337+\025\276\257z\267<U\005+\275s\312\240=\277\350$=}\246\r\276\301\255\325=\356\352\010\276\257aR\275~\333\317\274^,\225=\236\323\352=a\267\r>Q}\241\275\267\371[=\254\215\021\275\224\344\024\275\024\216\035\275\217\267\326\274\337\0022>\033C\006\275\213\264b=\026\006\224=M#\200=.v\357; \264\375<\316\264\262=\r,\\>)%a\275\366\240\325\275\216[\243>F\006\261<1\000\312\274L\225\351\276.\233\003>\340\312\231>]@G>\036\264\231=\000f\032\276\260\241\307\275qV\220\275)\355,>\n\200\366\275\260-0>\342\216N\274\030\224I\276x:3\274n\236R\274A}\036\276\026\251\325<\246n\261=\317f\320=\\\246E\275\337\275\305\275l\277_>\243\356\010=\367\205-\2745.2>5\371\364<\317\322\036=\032\367\242<\340S\245<\237\262\253=\002\303\261<\022o9\271\226s!;i\321|<V\354\024<0a\n\275q\323f=\214R\242=\223\371L\275\360\240*=\2652\325<\306S\006\276\257\321\202<\331g.\275\002G\215\275\213g<\275\276v\024>\301\351\023\276\246\030\242=\377\274\221\274\272\353\334\274\010\225\n;\310\341z=z\301y\275\343\257E;\213\020\203\274\212\342\333<\372\013\327\275\331{\235\276n\232\276;\r\273\241\275\344\217l=\002%\t\276\024\033\271\275,\005\235\275o\236\223;F\251\344\273-+V\275\321\237\346<\336o\265\274\014*[\275<\267\243>r-\377\275p,<>\3430\022\276\332@\003\276\220?#>\343TC=\363\217\362=\034\210\345\275\016\035\223\275\360\000\234>\030\3223>\212\330\006\2749x(\274\001\341\021>-Uu\275\035\023\023\274\205\316\200\275\246\341\003>\357\205\t>\363\304\005\276uX\360;\344C\201>\2126\274\275\341\325e=R{\026\275\247\272\037:\372\253\317\274\r\031\022\275\001\332\004=F\361\205>P\337\266\273\025+M\274\022L\246\276\221\022\234<\200\216\005:\365\340\037>\234SB=\250\357\030\276\351\370(\275\222Ug\275F+:={\343*=\212\222\355\275\214#\251\275x6\003\276+v\304\275b\225\340=\230\311\266\275##\204=\031\203\375\272~\326\372\274\231\267\023\274\034\000\270=\277\005\264>\225\330\371\275\337h\211\275|\251\036=\r\021\013>\202\237+\274\000\024\356\275\260\377\003\276\"\257\2459\010\213\215=\014_+>\275\2655\275\323\307\001>b\366\303=;\371g<\3018\230=\r\214\242=\205\206\342>\303\022#\276\265\362\'>L\0022>k\3262\273u\342\306\275\205s\263=p\364\300>\261\007\210=\246\262\225>\365\312;\2755&\t>\342S\301\274z\2108\276\017\n\263\274\364%\013\276\310O2\275\276e\245=a\357O>\276a<=\255+\214>\367\352o\276,\367@\275\023\3608\276\017\306B\275`\277\303=\361^\024\276\037\021\017\276n\236\271\275\350\355\211>\202\\\326<i\n\331\275\341r\257\275\207\366\264\2768\360\317<g\356\304\275\264N\205<\377\365\322>\016\215\263\275\201\323(=\355\017b=\207\343:>\265\351\277\274\323FP>\207\035K>\236\350\332=\225v\266\274\335\307f=9{:>\200X\254>J\005\217>I\251+\276\251}\306\273\247\024\235>\022r\274>uO0=J,\366\275\251Yx\275\245V\324=~s\373=\216q\221>\274\330\310\275\307\372\341=\335M\257>\222\031\362\273\301\004\276=Z\213\027=c\241\321=Sb\277\275\271\246\312=\201\243\227:m\212g>\250\034\177\275=`\253>\215D:=\357\343\275=\243\227\231=\245\246\263\276\017lN\274\333?V\276 \356\312\275\275\272\242\274\207\236\325\275\023\2615=\22610=C%\255=\017\331-<\257\326\277<\303kP<G7\212\275\257\273\010\276\222\033\n\276\023a\365\275m\253\375\274z\2204\277^\036\232\275\311&\245=w\275x=\327V\242\275\247\226d\275\352bo=\323V\242;\215\235\037\273\345\335\242<\324~\255\275\251\332\311=*\235\316\275\261z\323\2758\272\242\275\340\036\303=\315\277F>\277\023]>S\357\230\275\220\247\035\276\232\316\016?a\320\234\276\243\266\325\274\333\352\353\275P\023\361<G\212\207\275\300W\272\275aw\366=]\303\336\275X\016\007>\3529\006\274J\214\t=\234S\334<k\210\306;\275\366\200\276l\272\265\275\373\236:>I\025 \275^X\304=\020\257P\275\223\207\206>6\325\250>\374=\254\275y\354\271\275yZ`>\354\317\361\275-_[\274\210\301\t>\332\317\265\275\356\317\004=v\254)\277v\216\254\275u\344\374\276\255Nm\276\250\323\271=\014p\303\276G\006b;\035\361k>I*\026\275\210\306\355\274\370\217\273\275\013\362\252>\377\201\326;P<\200\275\207qw\276\305rS=rN\357>\271(\006\277V; =\207\316e\274p\016\244\275\373j\365\275\264\224;>\t\334 \275$\345]\275\306S\031>#d\204\275\231\025w=\000\r\'=\200\211\345\275\252\217l>\202Q\235\275\266\236\241\276\223\377\017=\204\373\212>\232\036\205\275\3434\024?\261`G=\376\316\257\275\034\'\010\275\200\014\024:\246\372\305=\370\245C<*\2109\275\373g\223\275\244\302\313\274\300\004\t\274\330\231\220=.\360\254=\300\022\010<\000\204\257=\300fn=\224\245/\275\366\272\035\275\326\220\315=\000~\034\274\017\031\222\275\315\251A\274h\004\005\276W\024\017>\302%\335\275\241a\375\275\323\250^\2760\227\236>\2524C\275-6\226\274\204w\250\274N\0309>\241\337\232<\2578\237\275\022\022\226\275\252\335@>\346^\304;\332\031\242\275\032\2355>I\005V>#R5\276\372O~\275\273\233\024>\310gp=\302\242R\275v\374\332<\303\315\276<\224\331\316>.--\276]\350\353<\003\325\223>\372\347\374\275:\016\244:\n:\277\2746\225\347>\024d\260\273V@O=\224\322\375<u\022\200>\342\335\307>\323\373\370\275-\352\037>\177U\312=7\271\355\276\374\037\236>\221 \357\275\024\256<\276\224:\221\275>\034\252=@\307\257\275\275\300\221\275\026\371 \275\232h+\275\026X\313\275\350\376\356\274P\347\263=\024\371\327\274\320\240\331\2741\276C\275\200\270\346\273\250\255\340\274\276\247\326=\350\013\224=\334\006`\275\036\3565=\027\027 ?\0236\031\277b\005)>\243|[\275;\177\243\275\3408\325<\215\341i\276\252\036\332\275\316\007\272\275\220X.\276\021\315O=\345$ =O\205\266\275\367u\224>\030\3335>\r\nJ\275\237\272\313\275\367ty?\026\2204\276hO\331\275(j\223\274\033m\352\274\207\3270\276#\212+<>G\026=\333]\335=\nS\344=\2252\326\276\272\0061>\322\354.>\205\362D>b\234\235\275\222\016&=\310\340\221<\013A\255=y\234\177\273\313\346~\2700,\300\275\017\202\263<\240\207<:\020i\225\275\233\311\037>\013lQ\277\303)\271;\'\225\263\275V\227:?\210)\324=^\343\204=\277,\232\2714\022+\277HD\212>\033\263?=u%(>\3236g=\355,\246\276\263\257\003\276\\y\305>\271\357P=\346C\014\275\035\225\235>Kf\356\276s\334\215\276\352i\232\275\370\232\t\275\022\327\177?|\244\231\275W\350\013>Rt\241\275\365\334\033>\343$\220\275\330\257\314=!\355\264\275T\3676<\233\232\233\276\005N\200>\014\010\242>Yh+=U\345w<\177\342\261>\365\201\300<\207\320\314>\002\034\037=\340\014\345\275W\004\032>\032_b;Qv\225<\030\235\202\273\340\314\010\276Ep\203\276\336\371\017>L\034\235=2\333\032\276\345\230\221>\337\362.>\354\214X?\264\310g>\222\372]=\301\3327>-C\032>\3045\242\276\252\030\254\276\264EE=hj\022<\207\303\017\275\215\210\277\275:z\013>YI\243=\246\322\230\275\322\254\213\275\316\336\3059>\214\010=\2615\215\276\227A\347\275\260)H\276\312\214\307\275d\356\257>~\277?=\215\025\031\277\352\207\032\275\351I_\275\354g\334\275\224\227\203\275R\010\226\276\222v\353=\027\032\326\274#\252\300<\232\267P\275\005\265#\275\344\370V=,\336t\275\346\245\026>og\002\276\341K\346=\301\273\254=gt\327\274\231\337\362\275\352{\017\276\001\010Y\274\225\206\221>6=d>\331\215\033\275n\337\324\275\360\000\347<\377\363\370\275\345v\016\2739\271\033=jg\240\274N\212\267=\201P\314\275\2319\017\276\372\313\332>1\373\356>\226G\213\274\216Z\273:\032\254\274<\274=\013\277Ky\305<\034\221\275\275\221\371\377>\320\365\276\274\214~\264\274,\201\205>+\265G>\340\303v\276|\235\224<6\340\213\275\272\2620\2750\3412>\3121\331\275\030\337\237=\177\337X=@\344u>!:\327\275\372\273\213=\220\251;>\353D\240\275s[H\276\265M\320\274\024bQ\275T\324\237=0\301\223=\361\226\001=\256\202\352\275\266\372\207\275-L\335<]\336:\275\006\361\271=\335\023\014>\246\253\334\275(\202y\274\366I~>\334V\031=4\270\006\276(\362\312\275\331p%>r*1>\330H\027\277,y\257=#\350\251=\'\205f\276W\205\345=D\234\276\272\313\251r=\272\215\006\275\304,\320\275_\241\024\276QU2>q\372\021\275\2231\245<$\220\265\276,a\200\274\220y\231\275f\302\232>|\333!\275Hz\364\275h3\231>\224\213\013\275hi\265=\252?\220<\023i\003=`6\237<\r\224h=\001\353\254\275\032m\201\276H\353\376\275\033\n\300=\331\245\003\275\346q\002\276\252\341\n?Q0\230=0\001\260\275<2\304\274\245\301\204\275\303\210b\2750\364_\275p(\330\275\247/\277\276|\271\017=\241\242\255<L\3558=<\030>\275e\003J>h4\177\276\016\rN\273yHq\276D\274\201\276W@Y>\017\010\032\277\005\r\247\276\371\252\346\275\033\261\244;\021w\237\274\202\302\303\274-?\254\275\337\247\243>\276G =\365Y\024=\264\222%>\362\356r=\347j\020\274H\242l=\315\316\265\275\301\020K=\327\237W=\331P\316=a\356\030>_`\222\275\201\224\245=\320\353\025\276UP^\275\235\334\202\276\177z.>\000g\360\274-\224\330\274N\302[\275\377`D\275\216\002R=j&c\275xs\325\275\223\336\243<\237\221\345=\\\351\241\276P\340,\274C\354\311\275!7X>s;F\275\204[\003\274=\013\006\276\363\"P\274rH\217\275\354\2005\275\312\227\274\275O\2310\276@\243\010?\321\240\276\274\277w\277\276\027\212\004\276>\270\267=>\304\230=\354\266\033\275y\320\355\275\271\257\373\275\371!\200\276A\254?=\025\037\345<\261\203\023?\246\377\005<\330~O\276NN2\276s_%>E\224M\276\033\347G\273\036\307u>\242AQ<\177\227%\276\350\006\234=K\314J>\254\021\020\275=\274^\276[\200}\274\365\242\200\2768(\000=4\325\246=\214\260c\276\231%\344=\022R\215\275\264\341\357<A\362\244\2758\250\031=\003\233\227=\321](\273\377\2471\275\026\010h\274\002\035\330\275\243;\035>\377\377\r\276\000\3454>\254\230m=P\317\016\275@\211\365<\207\275Z=J\367\324\274\340N\362<\340+5=d\335\235\275\330\262\223;ON\213\275yB\267\2752\265\216\276\333\370\322\275\331\300\240\275\000\3765\274\006T\364\275M\327U\275B\257\263\275\240\031\211=\304\025L={\336\032\276d\371J>\005\261\325\275uR\003\277\006Y4\277\244\033\261\275\3225\205;q\371\351\273\220\007}\275\003L\306\273\027\211\351<\307\350\201\276\220\210\230\275\245\014\255>\300~B\276\000\3715\274zl\344=\217At>\324\214\016>l\2327\274w&\221\276w\362\236\274\367\016\031>\300\326\307\275\323\360t\276\212W\010=\242y\375<\212\362\232\275,\320?>h\225\311<\353\202\036=\373\254\207>\346\211_<\373\257&=YG\250>^\306\217=D\3525\275927>\3043T<\\B\357=\350d\200>9\035c\276\005B\020\274\216\230c\275$\000t=+\312K\276|\351\221=b\343\207=\262\220\350>\013\202{\275\307*\276\275-\310\227>\202\341\251\275\301\226 \275\024;\030\275\236\3773<\322\016\322\274h\027A\275\321\301\357<\271\263M\276\331\016e\275\262G\222\275\347_\362>\231\344\220=e\231\212\275Jc\263=\241n\242>\323\005U<9\322S\275\027\342\375\275\005\327\244\276JR\264=Hj-\275]\001\317\272\000O\367\273@\221\237\2728\027d=\000\030\347\274^\257\033\275\341\3718\275\020@Y<|\n\377\274\234\355\213\274\375\307\331\275r\255\310\275\372>3\275J\202\253\275T\267\320=?nm\275\200\"_\272p\t\244\273\300M\261\275a:\301\275X{\233=p\343s\275w\345\367\274\"N\'?V+\270=s\225\241\275\t\007\334\275S2\275\274\343\300\256>l\250\013=Kj*=u\232\005>\026\372\'\274F\354\253\275[\r.=\264\'\026\276\250F\177=jDM>\320\310W\275M\265\355\274<=\345=\036w=\274\240\263\226\275\206\354%\276\275\\J\276\351\316u>\266\202\276\275\270<\245\276\257\370\360\275H$\306\274\240\332o\274\224\261\215\276i*};8p\007?\214S/>\250\237\025\276\213\230s\276\3717l=1\007\010\2769S\n=\030;\214\275,\252\231\275\323\367\037\275F\276^\276=\240\035=X\nI<`\n5=\350\233\315<\310\206\304\274\3405[\273<\347\233\274b\256<\275@v\376\274\310\207\250<\354V\036=0d\257=$/\255\275\024R\320\274f\310\257=x\274\024\274\330\350-=\007\376\344<X\241,>\244\323\317>\345o\212\275\007\313\216\271\361\023l\275p\333\266\273\022#\204\274\004%\024\275\220\256\223\275\034>\007\275\\h\237<\210\226\363\275\005\326\006\273V\217\024>+\366\016>\210\204!\275\356\000]\275\236\223\235>,\357\260\275\216`C\274T\344\033\275%\245\246\274\274\377q>\253\030\264\275\t\307\214\275\242\266\261=L\206\243=\230\346\266\275\027\036\222=3\206\231<\363\305\001>\311\262\262<a\336\351\274\216\026\017\275R\007C=+r\277=Q\346\270\275s\261\213\275C\232\243=Di\006\276\213\272Y:\373\353\320=`wL>\203\023\022>(\252\244\275\200\037\020\274\024\303\252<\337uu=\212\235S\275\024\022:=z\363\225>\372\2357=\n\331+>\244\260L=o\215=>Hn4>a3\271<\357kf=#\t\240>\207\361\\\274W\265b\276R\343\226\275\224\344\375=1\313\215\275\321\263\377\275lq(>\230\2770=\227\333\234\275|\232\304\275*\215\375\275d \220=\325\233\330\275\203\200P=`\255\035=\374\314\344\275m\307\007>\361j\364\275\267\325\306\275\225\247\305\275\354b\306\275N\207N\276=\374\272<\352\357\303<3\222]=h\247h>\221\250\020=\220+\267\275!m\033\274:+\342\275\276\013\211\275\031\212\002>\350D\200<c2\331\275\005\2115<\222\016\034>3\330 \274\356\203\304\275\265\344\006>\274\010\007>\021F?>$,\034\276\205\231\252\274\270F_>\376\363Z=\271z\344\274\372tP\276\202y\005>-a(>\306\276\326=.\237\337<\365\201\352\273M\216\005=DK\307\275@A\212;\\\361\250\2753\236h;of\006\275\201k@\276Z\357\233\275HX\353\275q\223\027\275*u\\\275\366(\330\275\337\362\214=\017\223q=\373\337\234\275\243\343v\276Q\315c;C\2175=\335\352\307=;5\035=\277\026-<%\251@\275\315fy>\001\272\032\275\271[W=\303\025\201=\320\361[=\330\355\271=\235E)\274\252\327\n\275@4\371\274n\206\367\274n\342Q\275\3260\267\274\204\237)=\360\274\314\275|/\023>\204\034\r=Diz>ks\346<m\220\331\275\207\337\356\275\020\276\031=\2252\025\276\331f\257=w\317^>\035\372\240\275+\236\260\276N\273\034\274\222G\013\272\354\237\221=`\367\216=\233\254\200>\025:W\275\022\214\376=\277\3439=\204\327\233\2758][<\204\207\347\275\330\241\223\275\372\337\224\276(\215W<T\222\230\276\204\021\002\276\221@\267\275\036\234A\274\013;\354\275\367B\264=\3641!\276m\253\376\275\"\314\375<\311Q\016>UCF>\325\254\277\275\233f\235=s\273\352=W\276\021\276=\334\002\276r\300\027>\000\002\312<\316\211\257\275\313i\216==e\377<\025\221\360=&3\262;\013\327\340\276s\027\331\275 \020\201=\242\323\340=\007\306\241=\253\216+\276\\\031#>G\270\032=\367mG<dv\003\275\031?\330\275\336\220\375\275\301\336z\275\013S\020>\351\236\374\275~\276)\275_\331\321<X\247i\275\270\033\013\276\225\320\273\274x\306\003\276\327f_\275\235:K\275\027v\333\2756\214\266\275\007g\260=\273\362\363\274\'e\223\275I\251\374\275\2163\340\275L\326\026\275\031\321\233=\323M\316\274&Y^\276\224v3>u\255%\276\374\3240=N\222\314\275B\332\364\274{\031\324\274\025d\203=\232\272\355\275\005\005\217\275\235\033u= \343\277;fW\253\275\260t*=\364$r\274\001g\347\274\234#\n\274+u\303=\236\003\001?+\027\272\275\237\223O>\234\215\244:\226j\344\275\001\306{=\216\220\022=\266\357\\\274n\307s=\372\324\254\275G\200\226=x\246\005=\006\027\003=\273/\237\275&\351\301\275t\224\235=\212^\272=\352\345\016\275?t\214>Nq\334\275~{\331=@\250c\275\n0\211\275\000\240\203\2759\301\333\275\244i\026>\225\231\306\274\327L\003\276\255\r\001=\370\343\202>\355V\222\274tc\021\276\037\013}\274\\\036\243\274\377L\031\276\017\334\231=\t\366\246<4\374\331;\364\000V\274Y_\036\275\001\201\003\275B\035\210>\200\031\372\275T\262\274\275\037fC\276u\236\220>\212\032r\275\023.\252\275\2574r\275]nH>\301\252`>(\240\250=\232\331\316\275\301Q\033\275\306\002G\274\334\032\202>\2309\316:\275\241\034>\007\317\354<-0\314=\017\271D>G\026j>\201\003\013\275\245\0212\274VN\207=\227\010.\275\031R\306\275\207\266\335:\022\314\035\276\355\n\310=\374\013?\275\202\241\017>\023&\037\276\311-\213\275\306\207\216<8\354\013>\027\032\222\275\234hD\276\243\235V\275,\245\221>\254n\313<$\013\027\276ai\034;\273\351o=Y|\342\275\r\236\023>\367\351\371<\355\275i\274H \262\275_ \006\275\321\213\270\275Y\'\016=\013y\263\275Y\345\263=\253f\001>\262\027\202=\347\202;\276b\017\031\275\246p|<\210\307\353\275\3556F<]S\334\275\352\024\234\275\220\352h=\300u^\275H\237\027>\364\027X<,\214\220=\325\213\0269\3115\351<M\320\206\276\370u\332>\023\231(=\024\217w>l\374\372>\023u\230\276V\2058=\003KR\275\r\343;\275\222L\327<\027\371K\276\342D<\2746c\312\275\244\321E>\367\225,\276\215\366\346\274\374\316\250=K{\254>\370\3772\277\024+\371\2752:\247>Q5U\275\244\227\205>\032\242\321\275\023\t\033>dI\257\273\360j\315<Q\204\230=1\221N>f\3751\2754\273\n\276T{k\276\264\246\347=#\254\247\275\311\014\352>BX\000\275+\336\233>\037\327\320\275\334\263\r\276\274z@=x\024\200=\263\310\t=\346m\022\276\221wg\275\177%!\275\344\306a>-\314\303<\212\222\364\275\247A\256\275\367C\327\274\302\005\336>/Jb=\320\re\275\025\212g\275\237\226\325\275+]\224=\312\177\302=\321\353b\275F\214\222=\316\253\376=\270\362F=(}B\275\370\253\344>X\264\206\274\325\265\226<V\256\221;\254<\257>O\021K;7%\303=`\237}\275\351*\322>\337A3?M\223\237\274Ly\350<\224\335\203\275\306\341\225\275@\352\355:\240\"+\274R\017\276=\370v\242=\206Y\221\275\014\t\260=(\212\205\274\"y\231=\027\234\257\275:\025\256\275\032\315\327=\n\213\242=(5\"\275\240\004\334\273\3403\020\276Y\367\247=\340\225\250\275Nb\n=\025\300\177=\000\351}\275\214t\005\276\265,S>\366Q+\275\226&\337\275>ur<\364\223\333\274\371wX\275\2307\311\275e\253D>6\340,>B\356\200\275\234\211\205\274|\033\025?1\005\246\273K\315\037>aI3\274h\317\033>l$\023>^^\371\275\020\302\020=\340\215\260<\006]H<HXg=\306\200Y\275\301\346\355>`\331\202\274\203\266\304\274\002\262\005\276\300i\000>Y4\323\274\002\236\347><\357H>:\007\025>VC\235>\236\031k=\272\334\363>\004\334\311=*j&\276\231\010T>\376\303\346\275\325\005\010?\002W6=\230z\014<.\344\300=lw\013=\374\356==\224\206\002=\346\250\302=\000xZ<tX\265\2744\373\307\274,\234\237=\204\210\325\275\306\237\226\275P\220\303\275\242\301\224=\201Rq\275,\024\235\275\251\267\334\275[\211\276\273\002\267\315>\233\207g>\200\367\251\275&w\243=\0248>=x\360h<\206I\200<\231\363f\275\265^\226\276\034\244Q\275\270\205\204\274\262\004N=\206\224\342\2751U\266\274\350k\005\275\274v\331:\034+\242\276 [\350;\301,\234<z\366:\275ov\240\275\374\022\301=\221~V=\347\301\266\275\256\'\201<\204\244\245\274\362\326l<\335\024f<n\244\037\275ZD5\276\260\304\243<\333v\217\274\352s^=\243\340\306;\005\345\263\274AH1=\000L\360:\006\267r>&W\206=\300#\372\2757h\234\274;\037\266>$\371M=R~\004<\212\301\246>}\202V?\\~[<CV\352;\026y\335>\033b\250\276.`1\276I+\016?b\326\321=L\331\004\276q\256\310\275H#H\277\223\350\t<\371\250\201>\261\004j>\017\201s>\234L\226\277\014\311\273\276\220\020\t=\0365\225<\214\213\230=\337\217\213;\374/\344\275P\366,>\375+\351\274R\203\016\275es\307\275+\300\333<\355\002\026\275f\224x>0\342\006>\375\357\371<\021\272\277:\320\262\312\275\211\016\371\275r\364&\277I\352\022\276?=5>\206\206\252=\273\212\203>\206\'\314<\346>1=R?O\275\010\210\034?\024\332}\276\'\217\225=T\222\203>W%l\275\243\362g\275@Iu>\306\302\350>\027\324\234\275>z`\274X\265\203\275V\\S>\034LZ?\201\255\270\275\325\225$>\221d\240>\370\254 =J\030\263\275O\020\r=\341\t\352=\206u\021?=\0067>$\220\r=\305\313\034>C\236^=\316\266s>\260\364\316\275Q\252\027>\352\345k\275\301\'\361>\336\332C>\241\005\274<\220\177\034\276\364\205\342\275\270$J=V\216c>\3548\210=\300?\275<6\237\017\273\322n^\275\000<y=<68=\'Rp\273\016\r \276\004\263\026\276\321\002\366\274PR/>7\241\251\275\347\014\341\275\203\227`>)\347\302>#\241\t=\023P\210<\376\374\t\275\244\324\200>l\255\352\274e5\363\274\253\362\334<S\352M<\334\360\033>a\312!\276\326S\203\276|\243~\275\346fy;\203\204\327;w\007\342=\333\263\207\275\330\336I> \264\007\275\000q\221\271<\245\336\276\352\334p=\246\356\025=\266\270@\274r\233\277\275\253H\\\277\320\326p\275~\"\034?\266\276(=0\373\234>\267\tc\275\030\014\002\276~t5;T\302\010>j\343\211\275\245\214\272>6\200\221=O\232@\275\337\255\302=\315\177\026\276j\234q<E\272\247\274\263\013:\275\270%\265=\301p\360<\21617\276\004\257,\274\226\375\264\274\274\234\353\274&\243\000?\317\3256\275+\305\223=2\377\335;[\016\261\2746\266%>=\367U;\361l\250\275\354dv<\260\227\237\277\020\347]\275\303\033\312>]\r\301\275\273\244\310\275VBN>\354\301k>\210\322a\275\345Cx=\025\211\350<&H\235>T\207w=\003S\253\274^\\\255\276\014\370\227\274b\000\211\275\370\003\005>\\L\325\275\232\335r<w&\213\276\225\267\324<|\250K\275\026\332x:9\272\210\275dr\031\275Hp3\276\245\350e\274\351x/\275\223\243\243\273\251%\003\276\254j\254\274{\317\366;\004\357\274\276\003\375\206>\006S\030\277\367\033\225\275&\"\322\275\335O\374\273W\220\321\275\377\202\021\276\310\327\255=Y(\237\275\352\000\273\275\"I\326=\310\203\363\274\2725\340\276\354\226\006=\343\322T\276\377as\276\3714m\2766\024\314\275\013\275&\277\\$K?&\263\250\274oz\362=\214\004\322\274\306\217E\275\356O\357\274\241\010\020\274.\233\371\274\265\311\240=Q\032^\276^e >\254 \265<7\307\364\275\004K\202\275\016\330\230\275\031r >\307\236\235>\031G\205\276\010\321\210<\260#\271<\247\250q\276n8\206\275)\251\006\276\267\177`\276l.\216\275\234J\004\275\230\227]\275\252\000\005=\036\034\321\275\321\310#\275\025\256_\275l\373\007\275\247O;?\332\220\205\276)X\222<\027G1==\304\"\276F\261E\275\303\203\216\275\305M\331<\313kR>yQ\201=\271\322\346=\342(\025>W\211\255<\340\207\232\276%\211\210\273iO#\277\353)\373\275-\271\340\276\236fG>\214\217+=\026NI\274\364x\017?~\355\203>\220\221\236\275.2\331\275=@\267\276G,\363=VQ\005>\261\007\005>\325\003j\276x\265\362\274\357\326\335\275/m\005\277\330\006\262\275/\235\254>y\311\344\274V}\006\275\300\370\016\275\221$\211\276\354~\315\2759\256\024\276=A\255\275\267()>\367c\327=\341\217\312=\252G4\275\356)N=\226\024\247\275Iw\014\275~\223m>\026\325\256>J\013\033\275\226\t\213=/#h<\264\252\257=\253\350\255<\225OB>:\265\024\276\236ON=\014\302\235\275\r\352\332<\314\260N;\376\316Y=STl\276\331\242_\276U\034\254\275\211\350\231\275B\026T\275S\252\231\276r\023\227\275\310\265\313<a\214\235\275Jo\236\274\033}\242=\226S!\275C\202\263=\341\177\377\275\322\235\234=$\342\302<D\342\301\275-2\353\275\013\301b\277\261\020\314>\003\304\226\275\274\245\340=\2656\377\275W\210n\275N\221\002?3cl\276\314\277\215=k\027e>k.\343>P=\365<}\267[<\201\321k>\240\322\315\274\245V\016\276\301@\003\275\035-u<\242\271F>\372Q\234=\356\200y\276rj\202<\2006\253<s\216\221\277\272\"\314>\244\210\277\275\243B\353\275\361\371\'?\212\234\333<\210\017\365\275g\210f?\257\355\004\275^>\363=\014g\273>\215Y\001\277a\300\355\275\337\225\271=4\351y\276\345\201\034<\347ig=q\377\t=\020D\232>#\005?\275-\006\364\2750\235t?\276t\377\275\264R\252>t\260\321>6\254\242\275\013\212\200=\371l\264\274\003\353\267\275I\204\177<\354\357X\275\177\007\'\275\215>\005?\254\022\027=C\022\363\275/\352M?A\317\340\275\330\346B\276\347\215E\275}\341\244>\357f\253=*1\210\276\270\370u<\240\300w\2764j\001>\010\262\313\274\206\310\241\274\376j\305\275`V\234=\355\"\257\275p\032\220\275\020z\225\275D\002\241=\220D\270;\257\201\304\275\314<\265\274\342\256\203\275se\243\275,dK=`\352\235\274\225~\226\275\\~b\275\260F\373\273\341n3=&x\334\275\226\254\200=\000F\300\276\333j\353<u\343\213;\320\354\225?\321{P\276\264\321\341<\034\361\217\275\366:y=\034\357_=-\357\316\275\322Y\r\276\251\226\236><\1772\276\302\302\361<\230\312J=\326\021X\275\344<\271>\232\225\231>\355\360r\274Hg\236\275\004\n8\275|\032\376<\375\036\206;v\2247\273\r\372*\276XY^>0p\313:\270\305\222\276 \371\373\275\270X\034\274}H\364\274\317\365\216\277,\014l\275=)\263>\352\367\030?\nk\277\275\357\350/\277\246\202V\275\343\345\220\276\265\255\007\276\305Q0=t_\234\275\016\354\215\275\270\367\255>O+\311\275t\326q=JQ\222\275\230$:<\227aO\275\244D\221=\222HT\275\216\224\210=\245\271\236\275\210g*\274P\t\363<T:\036=\316\362\273\275\000\375T:L\024A=x/B\274\2763\327=\255\233\332\275\\F\367\274\212\273\004=3.$>\235]{<e\035\376\275\202\226\221\275\361[\003\276s .<\353\305e\275\377\'\377\275\020\357y\275\347\275\337\274\354\017#>\315w\317=K\2667>N\263$\276\027\373\216\275\205F\277=\031\236\275=P\324k\275\352\334\202<\216P\200=\235#\322<\375\327\017\276\224\355\333\275\217\365C>6\343A>\373_\240\274<\024\241\275\3724\225;\210J\t>\010\250\266\275\027\255\372\275\303\031\360\275b%6>\200l\314\275(\243\314\275\344\351;\275\260\247\373=\267\014\242\275\357\273\242=\306?\336=O\224\213\275\340\300\016>y\334\366\275f\264\315=\342=\202>\242\234B=\005\013\336\275\361,\001=\373\346\034\275\007z6=\343\370\306=[\3244>\220\'\367=\345B\212\274\000\262a\276\203D\242\275M\016\034>\302\001\340=\205\202\275\275\372\001\001\276\365J\014>\265\365\006;\245O\222=f\035^=aO\321=\336\362\n\276\211m;>19\340\275J[\366=l\231|\2757r\023<\002\'\355=\211\353\310\2746m\r>x\323\013\274(\037\005;\305\243\343=\250\264\001\276F~y=`(\275\275\226\321\031\275\013k\253\275\272K&=|d\325\275\320\244\\\275\314\334\004\276}\301)=v|\270=\312\270\221<\310lG>\317\301e\274\250\227\032>\006/\233>H\274A=p\273\273\275\'\242\252=a\005%>Q\271\242<?\026h=\351OM\275\215 \267\275M\355\355<jf\000<\\\326\311=r\213\251=\321\217r>B\376\004>\024c\371=\202\267a\273\325sm=1\300\340\275gn/<\354\264\270\275\027\335\337=[H|\275\352\221~\275\376\272\277=\003kg;\020D\224\274\321H\034=\311\253\331<\030\271\333:\375X*>\333\211\301\2759XW>\216\225\350\275\217\376\222=\274C2=\260,\014>\244@\367\275Y\021~\275!m{\275Th5<\312\264#\276\325\037\203=58s\274#b\374\275\021\276\222=\232h\305<\316\374\n>\327%V\275Jj5\275\010\246\350;.\310\335=\3442\257\275\20733>b \366<\270\253;>\210\364m=B$Y>\374\343\233<\245\025\027=\215?\276\2752\252\021\275d\021A\274\240\320U\2747\257\034\274\220j\030\276\274\231\024\276\364\356I=\332\240*\275\364c\351\276\366\246\250\275BH\">~\330p=\014\336k\275 \317\205\275\314\276\260\272\342T\363\275\314Q3\276A\341\\\275\313\2371=\267\3762=\353}\210\275\034\036`\2755%\251\275&K\036>Uk$\276o7\365\275S\217\361\274\372/\243\274[B\307<k\2313\275y\376\251\275M\326\361=EUQ>\356\304i\275\240\013T=\242\275\177=MM\210\273(7\226=u\273\236\275*z^<f\006*>\215\351\372=\345\034\345\275x\005l>\303\203\274=e\234\352=\224\345\245=\267\3302>\270RP\275\035\230\223\275\221\241:\275\375\006\220=\216\337\246\275\334\270\255\275\272\241(=\333\353\304\275\332F\242\27597\020>r:\376=\255\343i=U\335\323<\325\360\016\275\211=\206\275\'\020T<O\301\234\275U\033\240\275\216\210\354=y\377\216\275=4\032=\241\311\273\275\374\230\230=\331\357\356\275=\2260\272\321\3450=\264l\207<\364\301\221\276\223\331\345<\351~h\275d\\\211=\024\021 \273\242\241!=\300\272l\273\265\372O=#\212><>\320\022\274(x\331=\355kS;\301\347\257=\3654\206\275L\335\316\275\365\237b\276v\253\033>uZ\367\276e4(>fQ\377<E:\336=m\360\214\275\277h\347\275\211\010\210=\346\223l=ek1\275!\225\347<c)#=\244x\244<\243\233\306\275\314T\253\275\264\362\250=\240\374\335;\322\215\022>\221\033\030\276a\004\n>(\257\355\275\223\014Z>\242T\261<\364\234\317\275\242\252\357<\225\217T\272\t\031\027>F\002P=\360\020\360\273\263\367o\275\317\037\370\274a\036\034\275\353[\211<D8\215\273\'\312\237<<-\257\275\017/e\27545\004\276>\'\352\275\022\221\364\274t\205\007\276\216/.\275\216\024\362=\257:G\275\267\016\274\275\240N\201>$Py=\244\357\016\276\350\210a\274\365h\031>\266\214R>s;\n=\037*0>\214\355c\275S\r\313\275\354\234Q\275\203G^=J\350\237<,x\031\276\234\353\221\273C\274\201=\220,\007:\225i\237=\270\211\266;wL\037\276\247c\247\274\224%#\276\266n\031\276\372\300W=]\002\225\275)\320\273<\361\345n;\023:+=\315\020\030\275\344O_<\240\341\203\274E@\373=\373\006\226\275\'\201\321=\327z\203=PR%\273\332\232|=J\022:<\232#\250;\010=\312=\300Q\230\274\022\311\321=o#\006\275A&\375<\330\357\234<\331T\n=\275\333&=V\353\t\276\344\213\227=v\363\273=\310\347\236\275\371\230\252\275\221b\376=\247\031\346\275nr\246\275A\314\t\276t\236\230=\355O5=\334\324\251\275\345\025\374\275\267y\327\275gg\333<\027\2018\275\333\005;=y\322\316\275\303E\003\275\231Y\351<\324\2544<\210\251\020=\004\243\306=\036\242\360\276U\212\017>qrV<oD\260=_x@\275\364\262\334\275\356\322E>\300\334\026\276T\'\373\275\256 a>K\255H\276%\330\301\275\210\004\204<\022A\310=\265 \217<th\026=\375\302A>P.\236\275\"\321G>d\361\240\2759f\030\273\3149\263=\347\010\351<\317\203\242>R;\267;\353\307s\2759\333*<\260\3747\275\361x\037\274\260\271\334\275\3519k<\273\257\351\274?;\245<\271&\"=^7\300=\224\035.>\212I\020>\312\353\251=e\016\341\275\031e\025\276\036\376\206\275b|\003\276j\366\376\275,\265\010\276\236p\206\276\t\254\361\275P\345\215\276\370\257\013\276\301^\276;\035\376\274;\320\036z\275\343\'\220=\374\305\211=2\272\244\274\025G\240\275$}\242>\300\357\323\275TgA;c0&>p\230\374\275\347\3302>\361\026\316\275\010\301\000\276\3336\257\275\317\014\002=\0279\232\275\232\322\231\275i3\326=\377\250\017\2753&e\275\202q\022\275\000\n\311\275r\274\234=p\301\243\274\244Q@\2750q5\275\200\307\227:\330\355&\274\006\007\213\275\020.\226<\342\343\253=\010\226\275\274R04\275H\205M=6\220\031\275od\303\275\333_]\274\364c\243\275\240S\005\276\352\2133>+\0231<\255\240\024=x\2707\276\003\254!\274\021\n6\274\346\235\346\275\r_\014>:&2=\344\307\"\274\366(\n\276\321\033\002=\021\235\r\275\301\016\007=7T\277\275\375\017\'\275\036\210\277=|\361\005=\310z`\275\241Qp;W\023\360=\267\350k\275\321\027\344\274\021\226:>Sf\007>\354\270R\275E\251\221=\261KZ=\212\321\222\275\006\243\017\275);\350<q\333/\275,\312\323\275b\315U>\213\272\346<\004\272J<\353\n\025\275\026Qm\275\t>\203>\353\260\t=VO\216=r\034J;\215?\375\274\273\017\314=q\377\375<</\344\274hn\225=\374\222\270\274\240\355\344<Z\230\313\275\310\031\267\274\274h\234\275<`\t\275 Z\334<\340\266\016=\230\222y<\020U~\274\222\276\206\275\300\312J=\220\203]\274|r\216<Rw\020\276\273\371l\276W`\033>\347\356>>U\266\213<\236r\035\2752\263\236\275\000\024\202\275\257\002\254=\2208\226<\'\002\371>\314\355=>\340<=9\303%\370=\260\356\260>``->+\3231\275\362E\242\275QY\005?\037\245\335>n\307\237\274j\313\314<\200\005\033;\251k\377=ZM\213=Z\2379\272\353&\013>O-\347:\226\002\227=\271\304=\276\016\375J=8\347\366:\345\036T\275\344J\220\275\264\377\013\276:/q>9\267\202=\220T\220\274P\360&<\303\234\227>\210H\311;\303?\210\275\366\237\367\275|\373\224=\301\320\275\275\224\367\306\274xD\240\273\224\266\275=vB\345\274T\\\177=\t\0227\276\234\250\302\276\307\'\026\276\337.\231=\005\362\317=\227\302\n\275\240\301\023\276t\226\020\274\327\307\263\275\026\002?>\324\222\"=\316R\021\276AE\007\276\353\311\245\275\314\360\241\275\323\360\201\276t\367!\276\211;\301=3\262\237\274(\213\206>+\014~<!``\275m\036\030=R\371\277\275*\334$>vF\204=\226\331\207\275\366W\t=\177\224\016\275\304\210\376=s^X\275i\263j>\242\004\253\274B/-\275\242PM> A\210\273e0\345\275\346b\264\275<\363\314\274\377g\335=\250-D\276\207+\345=pr7>\217\361\t=\323\2459>4\247\365=u#=\275n\356H<\311\336\010>\356\033\367<\312\315\324\275\236\331\321=H\016\377<\016\355\341\275\214\0350\275I\233\371\275\214\0300>\275\257-\276q\370r>\2223\340:Y\014\245=\224\177\204\274\327\010\364=\346\n/=\235\002\010=\262\216i=5\207\202>A\3349\275>.\261>r6\263=\233\323\275<(+\222\274\271\270\025=*n\030<\r@>=\321\202j=\224 \001\276X\001%;\235\234\367\275\346\343\344=\005C\301>\365r\022=\251w\215\273\\^\233\275-&\355=\017\247O\274\225Wk\275\3248\204\275`.\340\275fLQ=v+\361=~\267\022\275\03410>\277\200\363\274\260\004\020\276\3467\321<\343\242N=\320H\362\274\361 ]>\370\n-\276\212Z\226>\365q\262=5Jv=\235B?<T\213\016\276y\356\252\275\327D\203>_\310\243>\310\275\023\275\310\267\243\276\0039\021\2752\241t<bh4\276\010\362\213\275\260\262L>\0273\234\275\004\014v=\270f\252\275\3163\020=7\036*\275`!\'<s\376\n=\336\300\000\274\340\354\\=Q\020\001\275\305\274\330=\356\320G\274\366\'\024>\264\226\311;s\363\217=\255{\223\275x\262\251\274R\000\212=9\337,<Pn^\275\333\352-<\225\314\264\275\334\003\253\275\232.\241=%3\232\275\177\013\202\275z\027,\276\327\244\007\276\322\203\307\275\032\245\213\275\333vj>?\217\312>$\351V?\365\010y\275\362\305\014<\300v\016<\340\010\251>t`\342\273\r\273\300<he\352\274s\t\006\276\035\324\344=_\353\355<\373o3\275\311\343\265\275B\267\207>\323~5=\353\026\212\275\265\357\262=\032\367c=F\302\005\275\3160F\276\364\322\366\274\324Z\206>\357\n\306\2750\365\250\274\230\213H\274\223b->o1\271\275\\6\236\276\020\335F=C\224\213\276NF\027\275\010\217\267\275\341\346_=\343\342\013\276\201\023\034;\375B\373<9\355|\275Q\274\202\274\013\362\364<8\272W=\230\262L>7\224\221=T=\222;\247@P\274s=a\275@\014\310=r\020p\275\363\213\030=K.2;\3045I\275\203\034\354\273\206\313\316>P\'\202=\277\246\000>jy\271=/\315\232=\3632\201=\324\272\247=\336$C=\013@\201\273D\316\245>\\H\233=\277^\">g\021\376\2739d\320\275\371\336\337\275D\364\275>\301\005\231\275\372\263!>\237\031\304\275j\201\356<\337+E=\0066\037>\232\331\266\275\301d\245>N\331R\274<D\232=\241\214I;\007\201\321\275\331{\261\2752j\034\276I]\032\276%\232\362\275\324\314\216=?mL\276b\3563>!\000i\275\255U\213\274\'Z\272\274A<U\275\354\244\245<\347[\302<=\334\325\2742q\235\274r\250i=\036\275\222>\020\302\243\276\214\036\375\275\373K\305\275\240?\254>B\005\331=!@\032\277\001\223A>\001\177\355\274\215\377\245\273\262\307\023\2768D\272\275R\275\t\273X\035\203\276\333\337l<?\"\256\275\262\0347=\275\245:\276\336nH\2708\213w>?C\244\275\021*\036\276\243U\326\275\002;\027<\322\014v\275R\010\376\275\0071\303\27591l>\206g\221\275\0315\\>H\302\325\274\346ua\275\025m\035\276](=>\221\226l\274n0\313>\034\0224<~\244\272\275\014\310\373<\001\233\">|\272h=S\351\n\276\340m\221\275k\023\262\275\244\245\224\275\237\204\224:yp\336;\202\247\210\275\324\rB\275\nKK=\244oL<POS\274!\344\212=\343\204\204<\224\310\216<\212\321\222\273\001;\272\275\343o\307>\237\322y\275\"8\006< \177\010=Ak\277>\263\317\216\275\323\215\307\274\335C\272\274\222\332\220>$7\235=@\252\253>n^\203=\3112\020\276-\000\225>\373\016\210\276\360\307y\275Y\356\017?\320)\363\275O\363G\275\332\006\353=\315T \276\320\252\264<M\245\034>u\252\305\276\256\321\252\275\260f\260=[2L\276\350s\213\275\307\335\306\275\tGn\276\364\211\006\276@V\361=u\024B<9\344;>-\223R>\315-e\275\001\3125\2761\312\307\276\0247F=\311U\204\275\223\201w>\005_\300=\033,\'=\275\232\306\276\031{4\275\262\026\231\275\233\255\244\274\362\233=\274\010\357{\276\3306\230\275\244\021&>\226\275\256;\341\013\013\275\307\245\322\275\031vJ\275\001\267]=\362\023\215;\301<\257\2750G\016\276qy\230\276v\243\246=\353s2\274\302E\264;{\367\032\275\322\256}\275\214\264\212\276xU\335\275\272K\026=\226\260o>O\3623\275\367A\256<\034\346\255\276\341\210\014\275&\273\221\275h\026Y\274\223\3132\276\272 R\275e-2<\337\332\306\2755\330\260\276\232\rM\2777DQ\275\030\350\'<L9\274=(N8\274\314bv=\360\235\271\275\233\306\227\275$\254\312=\375\350A\275\324\302\237\275\024\022\345\274\200\342{\273\320\230\335\274\304Y4=P\224}\274\200P\343<\200p\\\273(\236K=YB\215\275\333\320\322\274G\273\326;\265\242\305>c\332$\275\260\240\245=\337\302\320<ss\305=\250i\356\273)\362\224=\001c\241\274j\331\216=CJ=\275w\262o\275\"\365\037<\201,\223\275\277\270\242\274\"\251P\274\267Bl\275Jo4=\177HA\2769i\307\274T*\006>\324\277\">\2462~=h\357\356\274\367\030\023>>\312I>\220\010\275=\343t\007\275\010Q\023\276\247D\245<&+\200\275T\225\242\275\371\375\t?\370}\203\275,\036\336\276\331+\016\277\367PS=yuO\275\306\221\321:\275S\335\272\360\3205\275\240?\244>\215B\240=3\\\213=:\270s=6\036\253\2750\311B\274`\300o=\350\277\234<\313eg\275\232\265\311\275h\307X=n\254\305=\350\004K\274\300\361\263\274\241\252\237\275\0308u<x\001\201=\372kE\275T\337o=\000/\205\274\306]\247\2758\336Q\275\361N\214\276m9\333\275\252,f\276\251 \240\275?1\237\273<\200\204<9\231\345>\003G-\275\210\256B\274~\271N?H;\014>Ez\232\275\357v\262=\260G\200\276\241\227\302\273Gb\371<t\361A=\351\225Y=\027\014%\274\030m\250\274\200A\326;\334\362\207\274\377\207\304\276\002\200\225\275\335~\227\275\337\203\260\274\251]\356\275C\3704>\230f\305\275AB\005\275\3376T\276\013m\235\274\201{\307\275x\026&=\221F\321\275\371\210\330\275cI\001\276`\206\026\273\273\317\220\275\306\275\t\273\305\001\314\274(&\020\275QTY\2764\314Z=nt\210\275\236:\357\275\n\242)\277/o\246\275q\344\020\275$\217\200<\013k\030>\\\204\006\276\253\231W\277A\021#\275\361_\324\276\301\3202\276\234-\261?\322\r\225=\270\311O\276\023%\201<\326\203\213>\343~Y?f\\I\275+\256\371\274x\302V\277\201\354R=\321;\360\275#\247\324<\353%\002?\367\022V=\252\310\n>\034P\014\275\234\001\032=H\341\236>\304\367\355\275\0258\203\276}\236)>\267\224\342\275E\\\277=U\307\n=a\311p> )!\275\354Fk=\302\177\003>r)\267\275\231\253D\274:\265\313\275\032\346\206<\030\367/\275S\'\030>\344\266Y>A}\316\273i1A\275lY\036=E_\312\276\233\347\002\277\267v=\275\347\237\326\275~D\243=\244\320D>\326\342\002\276\177\027\305\275\022Hf\275\025\352\354=\367\251Z=\200K\254\276=Q\240\274S\341\272=H2L\277\354\016\272=\251l\366=`;m\276\007\367\025\275\016\252\277=\210DN=\016D\335=5\001\010<\021\266\t\277\240I\014>^\205\"=o\276\220;\235\332\357=\272\264\032\277\326I\365\276\247\212M\277|\272\242=\3603\257<\243\320\345\275\001\336\246>\017;\221\276\010\005\270\275\253\005\253\274\311\322\022>Ye\233>\255\023\200\274\261k\002\276N{\312=\24190\275W\237\276\276E4\022\276\254w\310;.\031\332=U\301u>n\036\241\275:\341\261\275\\U\200>\300\375r\275\364 \013>}|\007?2\t\321>\271\223\267>\037\214\352\276\220Hk\275\250e\207=\342\336\257<^:\340=I\213q>0\326\276<e\273\354>w\247\222\275 d\203<w_\305\275\n\000\205=\233\000\020?C\207\027=\275\222\331\276\377\032\177>\320x\363\275\222\014\n\276\352\211\260\275\003\203\201\275\235\027\333>\216\374\327\275\243\027\013>\362\032\212>%\234\214<\276|7=\216i\353\273l\254#\276\311\272\250\275\037\257\277\274\203)7\274\026\363\321\274/r\013>Y\341\r\276v\006g\275b\021\206>t.|\275g\271\235\275\244\3632>\240\376A>\n\203\370\275\354\tX>\000!\t\274@\260\373\274\373X\264\276\265F\262\276\271Q\313\274x\367\370\276\036\327F>b\031\347>\354R\223>\362\207\230=U\214\306\274\277\305\360<\333]\310=0\246\223=H\264\363\274\201%\226\275\036\300w>\230\377\023\276\275\322i\275\312W\237\276\370\262\247>\205\322\227=\022]\213\276L8\265\275\206\031\027\275\377\002:<HG*=8$d\274\204\362\317>\367\341e<\361|B=b\233\372\275\203X\337>\022\237\030=>\200\035<:\321\025\275\326\273\303=\221\001\021?_!\345\274f/\271\275\263\360\240\276\354\214\026\276\333\007\304=U\336;=\013\250\342<\231\026\306>lk-\275Vr\t>x\005\003?\214\370\362\276\353\036\201\276\277D\221>\317\273@?\t\277P>\031\256l?\365(\254\277\tA/=y_\023\276N\262H<\3569\312<\366\333\222>\3350\001>4\0314<Y+\354\276\351\205\223\276\200\274\t\272\300\347W\275w4\021=\340H\300=\006p\312\276\344\323\223\275S(B\276\357\3151\276\\U\225\272\024\321\241<\234\272\355\276\364\tb\2755\201\002\277\241p\240\276|<\\>\217\254\007\2755\242\004=*\235;\275\010\251\013\277\035%V<|w\356\275\276y\320\274H\004)?%\352\206\277\267j\252\274\3330\234\273\347,,\277\235\031i<\203\351\341\275\315\273\356\275^TB\277\2672\t\276`\305\031\275\226^a;K|S\277{\262\226>\201\372\010\274\002XY\276\271\203\337>LW\327\273}\261\377\2757\026\372\273\250\257F>\314\304R\277\305\2332\277P\342\277=t2\201>\336\252\216?\365j\233\276\306\376\216\276\177\227u\277)\232\026?\213%\206\276w\372\016\2759\274H>\331M\265\275|\362b\276{\336\204=\007/Q>\362Kq\274m\363m>b|\227\275#\364[=k\314\312\275 \242\016>\220Z\204\274\254\275m>\\\252(\274\316\006H\276u\036\210\274t\356\306\274\\\373z\275\244\257+?\327\006\305\275\220 q\275:&\220=\213\343\376\276\300\363\253<\024!\224>r\272\234=a;\360\275\330\317\350\275\213U\224<\314\034\021=\033\333\323\275\033\220G=h?q?\0308\230\275\017\341\027</\230\201\275\266\344 =v\025\227\275%\200e\275h\331\272=9f\273=RRt=\351\023\202\275A~\314=`\264\357>\274\350)=F\0242>\202`\221=\273\275\004?\335\020d?\033J\025\276\277\257\304\275\277\263I>\252\3130\277)\255\327\275l\360<\277{\251Y==\031\303\275\222\244V>\251\n\214>\264\225\271\274\264\3369\275\037\213\343>\200\2170?\372\352F=g\004\313\276\343\257^\275\377Z0?-\261\245<\226\276\016?\240\260 ?\273\367\350\275\257c\005\277\362\361H\275\032\221\006\275O\315.\275B\263\343=(\220b=\rg\016\276m\213\267>,{ \275T\007\243\274\327\237\337=\307\002\366\276\256\277\'\2766\262\365<\276\304\263<\337h\024\276\270ky<\335\351\016\2735?>?@\314\255\275\335\037$\275H\374\233\275\317\002\310\275\0358)>o\321\030=-e\263<\0231H\275\224*\023\276\236\220\337\275R\032\007\276\323\355+=\231\264\003=\0176\264>\263\251\237\275\350~\363<\327!(\2770\371\270\275\305K{=\2347\327\275\301\264\002\277\331{l\275EB\223\275K\371\203\275\340\005\024\276\351\\\004\277\000n\241=D(\022\275)\236\330\275\310\322\023=\244\"1=\034o\327\275\312\267\317=\000\030\0039\026\001\006\275N\177\205\275\000\213\331;\214\316\253=\327\023\317\275hG\320<\200J\304\274\034V\263=\360\226\000\274\212\035\213\275D+\013\275\240b\017\275\210\372\304<\242Z\242\275Un\300\274\216~\361\275\234ZP>~\362\022\275\3574\007:\316-\346\2742\\\327=\322]\301>\305\257\223=\371\201!=M\004\222\275f\025g\277\027-\351\275\001\373\244<\254\310\233>%\302\235>BMM>\031\235R;J\300q>\3421\025?\364\252\210\275\177\346\"=\225\273\017>\346. ?\310\373\231\276\242#\310\275g\262\203=)n\354\275\360\267<\274@\245\023\276\\\307M?;4\330\2723la?n\340\267=0\352j\275\300}\266=\344\317\316\275\016M/?\360B\347>\227\230\255?\243\310\322>\260\217\364\274\330a^\275\350>O>cX@\275P\336\364\273\330\321N=\340\352\260<\314\231\323\275\254\253\330\275\220\347\034<\250\3603\275\0004\'\271\270\t\302=p\376\224\273T\3243= \030j\273h@\354<\034>$=\252A\233=\327\322p=w`\255\276\276\020\270<\374\032=>6\262\274=7\323\226\2754\263\030\275\007h\330>1\307\333\274\270\264Z\275Wb\274\276=)\250\275\312\333<\275\374\344\257\275]\0038\277\235\240\000\276\336\211*\275\307\007]\274\354%e\277MVx>^\304g\275L;\355\274?\025\360=\203TO\275\026H\205=\036\323\241\275\021\2352<f]\035\277\372d\200\2765Q\222=%\021(\275@(\177\276\032\225\210\275\344\026k\274s\025\235=x6\343\275\371B\306\274\327\364_\275\2275O\275\216hD>\322\310>\274\372?{\275R>\357\274\352\321->\346\177f\276\261Ui=\234\216\367>\231\274\301>\342\246\233==\023\257;\275\375\210\276\003&\371=\2404\t=\005\252\264>Q_\260=\327\375\200\275\241d\334=D^J=I\366\245\273\037\331\036>u%G=\336\310p\276g\344j\276?\023v\274O\270C\274\242G&\276\364\251\\=\207\222*>%3\222<bsM>?\260\320\275\254\232w=d\342\t<\315\201.=.\026\335=\017\306\214>~\206P=\331\227\000\275c2\210=\312t\225\276F(\027=F\0009\277\365\273\031\274\277}\207=\255\355\333\274r\326\316= \021\210\275\025\r\013=\253\230\000\275\270$\220>\322\021P\276\007\361\273<\206\252w<\333/\335\275\264o\364=Ki\r\2763h`>\332e\206\275\330Lc\276\177\303K\276\035N\343\274\302O$>\341\244>\275D\304\346=t\3762=\210B\033\275\276\204\r?\246`\347=\257\307\350>\212\371\247\275\277(\204\275\034\334\310\275\0049\r\272\325\027\022\275o\231\277=]U\246=j\032;>y0\262\275\234X\337\275\327\211\340<?.\254\275\300\356\371<\240\022J\274\307_\214\276T\371\005\275\347\177\316=8\332\364;<Q\327>\013\213\240\274!p\356\2740}H\273\324\341\205\275A2\230\275\353\261p=\300\360\375\275\034z>>A\272\224\274l\243);\201\024\325\274WC+=Dl\352;\332\227\020\276\314\022\320\276\206\244/>\364\332\216==\350]=\207&\256=\304\001\214\2749TE\275\257\020\245>\245\307\313\275[\227\026\277\367\237M\276n\311\201=\256\350\357=\207I\241\275\256h`\276g\272\366\276\324\3511\275\210\202\225\275\336\213\217\275i[\335\274\026z,>:WS=^\377f>\304\r\216=z<\200>o\343x=\311\245\205=\354\273\242<G\274\204=\264\205\323\275{\254\251<hNZ<.\336\255=$\242\225\275\022\264\024\2755E\334\275\370I\240:-\216\253=\006L\357\2751v7<\360\231\000\276\247\337l\275}\302\231\274\340\335w\274\"\313i=O\365\205\275y#\363=\217p[\275@\320\320\275N\373\334=Q\302\274\275\223\273\255=:\001\016=\004\303A\276\205\333#\276\225\254-?\013\246\031=\241\236\261<\217\362\027>\357\377\\\274\277\014\365=\271\003\272<\204\034\255\275R/\230\275\242\325\210>\316\332#\277= \314\273\206\177\354\275m\3212?\330\345S\274u\377\302\275f\345\254>2=\247>\306\302\034=\364\353\303>\326BY=A\354\266=\023O:=\337\320 =h\000\'<N\0369>s\2517\274\267\032\206\276\201\354\023\275\035ZF\276\360&K\274\302:\221\275\250\256\222\276\262\360q=\006\242\235\275\332\367\340\273n\217\317<\241\'\021>\275\315\022\276_+=\275V$\031\276\365\r\n:\316\003\001\275\366\332\n\276\311[h>\251\tM>\312\363\223\276\253\305\017<\354\001\335\274\230\260?\276\344B\035>}\355\275\275\332\000P=\004\267\271<\307\266$>u\271\220\275\371\337\333<\021&)\2753\336\014?>w\244\275\224\273F\276\235@|\274\343\301\033=B\177\340<\005l#\276,p\200\275\343\016\262>\266\010\232\275\206\213\242\276\034\0362>GTb\275U($=\372dc\275\331\371B\2751\320\231\276\227\351\247\276\3270b>\320\217\212=\346\263\024\275\030\034\327\275\205\r\242\275\022/\220=\352\330\362<\006U\321\275\253T\\\276\243\n\r>q\214\275<\347\330\264\274\265DF\276J+\230\275\347\277\243<\363\353\200=F\321\242\275|\322\331\275\242\232\330>P\371\302>\262\307\031\277{\024\367\275\316h\321;}x(>\361\352G<\007\240\206\276\353\354;>\356\274\213\275.>\350\275\204\246W\276\315\252\256\276\220\010\317\274F\"\206\276\243\354\302\275}\323L>\371\247;>\267L\202\276_\031\221=h\314\025\276\253\311\031=9\250%\275\352\230?\275~\325(\274\227\251%>\277\021\017\276\357V\270\274\356%\332\2745\324\371\273\013\342\265>mf$\275\037\213#>\\Z\024<\021\211\007>rsq=\243\216,>\353\341\252\275W\013\335<8\316\260=jZ\016=6\321\227\275!\351\004\275\277\347T=\250k\232\275\207\270\267<\327\302\026\276\336\207\207=\277D\311<\311\361\037=m~\224=i\024\212>\365\244\216\275\026\304\306;.\341\311>\222\013\277<\346\261\354\275\016\367A<\334?\307>\263\360\246\275\343\207\241\275\274\020\200<\204\311\320>z\370\252=\314\255I=\355\t\033=\303\024\221>\234\366\002\276V)\007\277,\326\245==c\361\276\3618\262\2755p\211>\215\'\325=}[{;I\366\342\276\251n\330\275\333\205\267\276\364\005\252\275O\2118\275\023\365%>\201\224\013> -\371\274\272#\344<\261\021,\275\215\331??\356\030\252\275#\013>>\3302\230=\177\022\364=\177\352\327\274\316\207!?\226\226\341\2749\277\323\273\367\2251>\277\352\232\276\334\"^\274\006\352\212\275\232a`=\346$\260\275!\200\204=\345K\325\273\255\376\037\275\320BF>\265.\r\276\355\327%\276D\263u\276I#\026<\013\231\000>St\035=\246}\245=\327j\014=\275\327\277>%Vp:\r\262\342\275\010&\350\276\277\262\271\275\374\033(=\222\236d=\323\313\243\275\241\243/\275\260\036o=\310\230\316;\035\216.\276\255\321{<~\024j\274\007\246\032?\016\356\347\275\257\361\013\275i\355z\276\024a\277\274:\214\002?D\034\312=\037G\220\275\376c\240=\323:\004\276hE\021>\202\313\003?;\021\210\276\014\357u\274\n\261\256\274\000\267\225\275i@\230\275\020\002\315<&~!\275\020\014M=\276\262\211=\260\270\316<x]t\274PV\264<\264\230m=\nM\246=\255\273W\275\031}W\275\334[\350\274\344\303\216\275^\257\245=\000\267\245=\234\014\330<z.\354\274\256\376\233>\331(\262\2751\372\000=\215\324s\276C\253\211\276\340-\260\274\177}\300\2755N\203=I#}>\361\353v\275\214\215\214\275-\356\216\275`\366\274\275c6b= \030\007\275\307m\326>\2654h=@J*\276\345\226\366<T\247\262=H\253\206=\225\030\206\275\326\326{\275XOZ>\3047\323>M\356c>\202\234\'\275\252;\311>n\266\255=\320\033\325<\375%\226<\341\245\t?\026\314\212\275F\332=\277Xy\225\276\004\303\315>5\330\211=/\026g=\366\373\306>\034\003\260\276c\305\244\274\305\366\277>\216\313\'=\376\357B=}\311\303\271D\370\242=\017\276f\275\330\001\307=\022jy\275j\031\266=\240\003\321\275\223\212o\275@r\341\272$$\331=x;|\274\032\003\234=p\217\251<\2205y=6<\024\275\360z3=\024\3110=\254a8\275#\217M\276\250j\234>\340o\264\274\330\243s=`b\217\273\243{6\275\274\'{\2750\020\307\274\330\330_\274f\212I?s\353D>6\025\341\275\207\350F=3\0107>\241\n\177\274i\3375\276/\300\310\274gdL\276G\367\020>h\236\000\275<\020\240\274\207&\274=\030\030[>\3566\002=\323\243\321<\3435\367=b\031\177=\373\002 >\220\242\365\274oE\224=(\034}<\215p\333\275\3107\310\275c|\005\276\t(\351\275\342\272f=\247\317\230<P\341P\274\377\336\362=\034.\333\272\257oS=9\310\226\275\210\374\220>\275dn>\213\337i=\355\240\277\275\014\342 \275\351]w\274\335d\326\275b\305\3049\227H\014>)\002\020=\031\245+\275\262\201\330=\257h\342\275^\226\001>.\200\346=\235Q\270\274\365\014\307<\322\303\230<:\3760\276;\241E>\265S\374<H\026H=?\014\320\276\013qj\275\013a0\275\324`\033\276\301\002Y>\304\223\332<\357Pr=\252\276\372\273\004T\277\275\330\257s=\373\237\315\274xc\243\2750\\\006\275\314\370\034\276\312q{\276]\300\306\275\2305\203=\231\030\344\275\215RE>\032V\225\274\336\321\207>\303F\017;e\307\261\275F\264\246\275\233l\363\274j\376\016\276\023\rk>\367\223\210\274Q\224\222\275r\024\337<\377\365\274\276\202\360\365\275[\256\230<\315\227\375\275\271\367\230\275\322\236\025\276\344\312>\2766\367\316\272\320mO=\256\325\274\273R\377\372\275\321n\010>_\347\037=4\177\341=~\344s\273\240\246\223\275\327\206\331=i\336\240\275\025\016\311\273\021\260\031\275\364I\350\275\210\234E>/\217\243\2759\200\002>A\020\217=\350=)\275\330r\232\274\223\214\003\275\0303F\276\333@\325<\360\210\243\275\205\033\001\275\tj9\276hr^<\353O\247=\352\275#=oZ#=C\351\010\276+\204\306\275\371E\307>L\263+>\344V\036\274\253L\336\274\3418==\344\355\203\275\3659\220\275\024\204\r=\0368Q<\030\365f=\"0\260\275J\225\244\274\231\345\214\275\276\202\t\276<\246a>\213W?\276Z\300U>\210\223\320=\234:\337\276\025,\250\275\321\236\201=\211\003\t\276\275\352`>\237K\275=\220\023\257\275!O%\275[\374\232\274\375\274\302\275>k\236\275\204\260\253\275\203\273d>\302Q\262\275k\205\030\276X\037A>\235K\017\276U\351\261\275c\267\020\275W\0219=\262\rP>\016\025\263\275\224\265\034=Y\032\376\273\371\263\376\275~\3261\276VU\024\276\202or\275w\364\221;\304\341\213=F\303\272=\250#\005>\037\t4>\357e\226\274\2450\310\275/\0015\276\326\243\024\276\326\266\230\275q\357\250=]\315\210>\033*O=\223\356:>&\215\005\276\232\212\032>\373\311\236\274\020\222q\276\370\341\374\275{\004\276\275\252\251\037\276\210\206\236=\306q\343\274\241d&>\232i\221=k\021\274<E\235\n=\227\212\322\274?\032\350\273<P\300\275\013\212O=\273d\306\274\240\234\356\274{(\274=\316}\207\275\254a3=&\363\020\276\211f\367\275\230\014\016<\n\277\223=\003\356\217<\236\214\233=\370\225j>(u\024\276\312\321*>\2701\265\275n!6\276L\220\023=\"[v\274\245,\364\275\207\260\217\275^\002t>\026\020\251\275\227\250#=\251\333\355<rV\032\276\374\341\\\274v\320\265<\215\245\241\273?\335\242\274\2173\372=\346\250\010\276\330K\020\2769Z\231\275\3465!>n\033H\276\245\257m>@\353\351=\242\360\003>\2539\211\275\364\337\003>\213\350\272;{\262_\274\221\343\256\275\245\371\010\276\033Y\013\275\255\211F\274\221\003#=s3\260>\255D\\>(\304\227=\357\306z\275\274\340H\275w\344\225=\022\301\265\275\323\367/?\371\007\275\274\004\273\256\275:\n\245<=2\226\274\206D\270\275\314\205\257>\303\204,>\254\024\030>\007Wt\275!u\243\275\311\312_=\034\377\217=\000\220\265\275a\340\312\275\314#\210\275\250=\030=\271\024\017\276\315Db\273\023\220\227\275\021\273$=\002\335\272\274\313N\237\274\364g(<\002S2>\340\347.\275E\346\271\276\230\212\263\275\314 \001?\2777\317=EE\001\276\020\'\005\276\237\246\005\275\205\335\231<>\343D>\203^\253\273\373\224&>\371\242\252\276v\004\311>\200\375B\275u\033\361=\210\360Z\275\216}\243\274\267AP\273[V\337\274*\007<=y\307\013\277\222\314\243\275n\215\317>\024G\355=\235?\221\275\352\033\214=\35448=\r\247\262=\252\276\303=|`\207<i\317N\276\r%\231=T\r\256;# O\275.\005b> 0\214=\355\335\231>\026\312\023=\253\303\037\276\367o\021>e\027\025\275\223\215\201=\333\006\261\2752Y\317\274\237g\276>U\370\364;\2675\336;\360/\020\275~\375\317\275S=\231=\273T\000\276*&\243=*>\252\274\254\254\n=\342\024\336\275\0001\211=u(P<(\375A<\350\032&\275\223-w\275\335\226\330\274\224\024y=\3644\213\276\375\262\007\274\202{\225<\216|8=\215\003R>\245\263\003>6\375\314>\343[i\273fF\210\276\327\035\351\275X;\237\277\264\021\252\275\331;q>y\304\n\276sc?<WZ~=\272h\231\276\254\246z\275\327-\244>\"7\315\275\276\017\217\275.d\217=\353\016S>\234\260Y\277#A\332\275\336j\n\276\032\261\002=\333\322?>zY \275UZ\010\2777\345\352\271\3304Q=B\332\271=\233\356T\276\033P\211\2759\034\020=\350\034\355=\347\021\213=Y\027O\275*\262\221>\327\030\312\274\340\316\313>\000.\212>\326\330$>=\236\312>\372\203\204>\003\310\312\276\357r\233\275@\367\251\275\206\332\211=\264\240\021\277GT\233\275\207\n\224\273\371\177\355=\235\341I\274l6\226\276\347d\300>\002|\345<\227\030\324\275\314[*\276F\033\262;\317\330\002\276\264<\331\275\230F\371\275Xy\307\276\304\214C=@^\231\2733;\\?\275\244\014\276\020\205\t\276)5\230=\3415U>\277:\263\275\250)\300=\260NP\275\370\244]\276\'\375\251>LI\377<\\\375\020\2750\"\316\273\200\311a<\360\312\003=8+\300<\016B\242\275\014\377{=\331!U\275\254\206\\\275p\333\260\275\000w\204\275|\275\220=P\247\035\274\354if\275~\274\205=\232\260\224=\000\231\365\274\3018\316:X\271t=A\234\022=\373v\206\274,\022u=\244\373\277<\275\020\216>\300)G=\006\200\340\275a\314\366<\374\227J>\236k\270=\366\377\245\275}\020\200=\371T\331=>\007\263>\360\361\332\275\210\224R\275\225\243\256\276T\246L=\266Q\203>V\313\231\275z4\377=%fO=z~\233\275\035R\342<j\363\321=\220\217C\276!\340\207\275z\324\374\274cjS\276T\372\322;E\253\355;\201v\254<,3\246\274\257\206\272=!\036\003?\205A\233=X4\212=#\257\267\276\001\373Z\274\270\275\225>4K;>\024!\276\275E\237p\275\351w\013;\303bW=\240H9\271 \333\200=\320\335\031=\251\023i\275\002\265\210=\3309\037\274\234\241\227\274@\212[\273\242O\222=\220\036\005\275\000\226\000=\350@\004<(\207\236\275\220\340\266;@,\334<^\322\307=.\215\240=&G\213\275$o\301>\030\256\016=\014\344\205=`&\206\275\361\265:\274\260j\360<\357\024\375\274^\331\305\275\351\241\254\275\013\3006\275\221A\214\273%\226\000\276S9\263\275\355[\270=\222\"\373<d#\206<\222\262\336\274a\240\355\275\3652\025\273\335V\035\275\235m\025\274.;\t\275V*\201\275\2136o\274\005\007-=j\357\227\275&<L\275\022:\244=\360\267\333=U/\320=8\232\236=\370\207\003\275\307\336\022\275\211\371\005=#\247\230>\236\230\007\275\030\034q\275.(\203\275\026\213`\275E\215\222=8\332\341\275z]\025=\371\314\343:\354\n\336=\327\234\027\275b\370\272\276\254\210\177\276\300X?\275\177\241\271\275\312\027\000>\023\225x<*\335\032>yX\270\275\325\211\215<\271B\036>\"\330\034>\305#\324\275\300\342\233\275\376A\020\276I\325R=\002 \241>\245\310\321>\023W\247<P)\204\275\025B\346=\354\323\007>@\215\203=o\215\310\275\001+0\275\236\246\264\274\000\027m=\377\021\036\275\r\257\257\274;\243\210<7\0313<\346DL>\345\234\222<\330\322\010=\267\345\301=\257\375\\\275\244\032\245=\215#k;\221\024\342=\2147Z\275O\340\024;k6K\275\311\203\005\276\232\372\303\275\343H^\275\243\033\231\272\342\025\362\274/K\355\275+\225=>\345:b\275\344~F\276[hL\275:\212.\274\312\266\206<d\t\357<\305\270\376=Dn\004\276\t\210\002\275\276t\212\272\003y\326;W\031\372\275T\211{\275!\223+>yf\240<+G+\276\344\037\234\274\\\342\253=:\241\326=\333x8\275\234\235j=\026%\212=I\234{;2\031C;\327\224$>\271\203\274=U\300\240\275\202\251\000=\000y\324=\202W\321<:\353\027>\242>\336=\346\315\325\274P\3460>Z\343I\275\321\201\303=\256\261\351<8\253\244=4\3343\276z\367\373=]\0366\276BKJ=\2517\n\276@V\310\275\251\237\005=\324\306O=\265\022\244\275\020s\010\275\220\3132\275\317\330\217\275\365\316/<\341\341|\275\010\224\006\275,\000\264<L8\300\275\0060\304\275Uqr\275\326C\033\276\\\020\007\276\005\236\365\275M\030,<\275\2344\274\250)e\275\311\355\315\275\202\0252\275\214\205:=H\364W<\332\266\377\275\025\025i\274\233?\013>\324\305\023>F-%<\303J1\276\264\215\"=\221\372\211=\363U\006=\006_\224\274\337\336\242\275zy&\275 \317\235<`1\013\276\211\345\335\275\211\363C=M\204p\275SiC\273\320\020\t>4\341\206\275B\330\231\275\275\357\224=\342\241\000\274\330\356p\275\263`\025\276\236\\N\275\324\314\230\275\022b\244=\216o\213<\242\2754\274\373\240\274\274J(\234\275Y\317q\275\021:\256\275A-%=\327E\020=N\332\272=\271\310\032<\n\t\350=(\354\276=N\345\r\275\264\276\221\274-\034l=;h\255\2743L\017\276/z\363=\264\306\n\276\327\354\273\275!\336`=\032\240 <Fw <\367-\270\275z;\214\275y\304\217\275m\026b\275\346m\007\273I!\374<\177\243\374\272q\370,=\365\376\275\273\024\302\213=F\323I\276\000\227\227\275\370J\221=\3157\266<\306\317\325\275r\371\204\274\260[\236=^\027l<!\035\315\273\0072\242\276\357\225\021\276B\247\000\276\343\342\214=L\247\260<\004\211 \275\022\376\017>/\207\327\275\320a\251\275\271\1778\276=\324\217\272\231\030\316\272\325\302\'>\tTv=G\332a\274\366\207\005\276\027\223\216=\334\336\021\276\023\300\234\275\006\tS=\252\275l>\337\250\244\274tFp\275\220\021\275=^\321\204\275\014\260\255\275\314k_\275%\370\247=\016\0069\275@w\261\275\321l\266\275\344\204Q=\247\221\230=\363\276\001>|\312L\276\202\351\340\275\t;\n\276\302\237\002>\371)\366=\352w\255<\255[\255<z\246Q=\314\333R=\036WD=\362p\224\275\241\003\260\275a\364\231>3~\360\275\021$\312\273v\030\364\273o\033\202>\360g\236<N/\226\275\214fo\275\013\243\245\275\224t@=?_t\273\300\227v\273\312\343\332\275\353<\362\274H\225\222=2?\274=h6\263\2741%\316;G\212!\275\275\207\222=\032\265:>\303>G\276R\356\321=Q\3763\275\256\363\202\274\211[\254\276\027\030/\275\353\333\224\275\357\253#=\236\352\366<\325\227\216>\215*P>`\322\246>\017\252\023\276\372\220u>83S\2753|4>\323\344\001=N7\037>\210\356\202\275\221\266%\275:D\006=B\001\356=a\345\265\272^\253{\275\222\260\004\275\330\364\272<\263\034A\274^\277*\276\351\n\205\274\352\240\237;n9\366\275T\217X\275.\007d>nV\276<\237%\333\275\323\254\245=$\014\343\275x\241\r\275\200c\223\275\3244A\275sR\330\275/G\256\275\324bf\2755\016\007>\325f\220>\027\177P:\231\016\344\275J/\212>\232^$\275\230P\016=\373zj\275\001\336T>\235H\000\276C\027\\\275\263\361\206\275\027\nV>\350.\341\275\273jg\275\365\r\365\274\260\274\340=`\'\276\275\321\344\203<\3010\252;\225[\007>C\347@\2766\335?>C\255\262\275/T\004=5K8\276\036&\320<\202\232\350\275z\010\314=&\210T\275\266\240\333\274\216\214\027>\2168\357\274\032\216\242=\001@x>\207a\223>t\220\\\275Vx\213>\204\226\257\274\033D\000>\363\365\321\275f\222n>c\230\021>\370\245G\275\275\334\315\275\003V\013=cG\300\274\231\0036= \204\213\276\211:b=\335\220p\274\034\245\237>u\262z=\260\t\230>\353\024\300<\270L\\\276\207\016\3318BM\016=\246\3513\275\023\222\304\275*\3663\274\030{\341\275\200\335\000?\323~N\275h.\267\275?bC>\221\3106=q\346\314>\270\246H=\250IN=\031\327\316\275\301q\337\272m\205\264\275\361\206\036>\034\266\023=\302/e\275\332\254\354>\234\372\312\275\257\326\323\275\334t\023>P?\265\275\036\305B>,\235\306\275Y\307\225=\216\036\204\275!\300\300\275|nC\275j\263\324>\244X\277\275\364\306\327\275\351V\241\275 \tT\274\230-\255<\240d\007\275\240d\214<\352g\023\275\366\263\251=\254\310\213<4)\202=x\251\304\275\364\233\212<\234\330\321\275\250\331\027\275@?\260\272`\013\';B\263\032\275X[\037=\204\247\312\273\266]\235\275\240\303\265\275\352f\272=:\007\333\275\016A\000\276@\305\003=\021\226\313=\357\273\252\274q\037f;/\266$>U\002\335=$\317\250\275\360u\365\275x\205\036>F\260\021=\237+\004\276\365j\314\275\013}\344>gJ5>\310\366\r\276kc\236=\311}\361=\306\3111>M\226\356\275\214\325%=\335\225\201>%>l>\337\036\324=u\327\271\275\307\306\304>p3\216\275\335\204\326\275\215{`\275+9\210\276\005\310t\275cR\004>r:\220>s\372u=\225\267\230>8\307\212\275\232\251)>\026\033\374\276\260\256\030\2768>6\274WQ\033<#\314\203>\351\226(=\026\226\'\275x<\262<\302\027\324=\036\227\212\275lE\005=\023\250l\275\220\346A\275\304\304e=\257\002\264\275Aw\205\275\032@\211=T\330\274\275\266\305\222=\210\231u\274&\030\203=t\254\266\274\242\375\256\275\013\022\265\276\344\345h\275\236\357a>\310\263\363\275\037\204U\275\341\301\320\275\006\3336>gC\236=Xc\'\275\307\230p>\3666;>|\007\311;\241\322\226<M8\352\276\210,+\276\347~i\275}\n:\275\034\303e\277\224K\351=\305\0353=C\327\\\275\242\224I\275U\024&\276\317V\235=\274\226{\275T\001\360\275\235|\001\276^\273\205\273\367}7\274\0065\332=\036\034M\276\256\252I\275\221r\271\274\346\367\202\275\357y\212=\266\377d;\250\317\034\275\030\264*\275\365\'\352\2742\202~\275\365\275\026\275UR\267\275\277\200.>\247\363\220>1\252\026\2753\337 \276\300N\242\275?\247\372\275\245p\301\275\2577%\276\225r\037>\360\215N>\027\305G\276\274\230\365=\032\035V\275!\301\250=7\233\310=\006\320\307\275\277\364U\275$J\027>\367\240\256\276\350p7=\004\367\365=\302\313\210=\325k\014\277\317\370\373=\234m\341=\300$\267<\271b\262<jy\333:\341\374\217<\024n\330\275\373\217\337\275\016\327\356=\030\364\327=\350\257\013>\262B\343<\231\326\024\276b{\263\275x<\232\275\tB\273\275\017\213\211\275\333\0356>\233P\000\276\327O\262=\016\006\365\275\201~8=%RR=V\336\207<L\305H>0K/=\360:+\274I\3643\275\3776\201\275%fo\277\006M\226\276\002\013?\275\270\375\251\276\346$\226\2757\243\004\276\303!M\276E\020\264\273\013\357]\273\2736\026<&f\235\275\325\327\024\276\237e\271:\2756^\275\023$!\276\035\263\001\276\262\210\201=9,\r\276\002>\333\274\263\300q\276T\3102\275\357\"\t>v\361\314=\2652\275\276:R\312\275\t\250\361\271\353\234\231<g\223\271\275$a\337=\037\203\204=Fq\r\276\377\251\244\275\354\005\034>\232\007\026\276\364\354\016\274\311\245\026\276\347w\276=Qi3\275\254(\r>\373\303\016\276\342G\256=\014l\312\275\024\307\310\275\355Bz>\242\357\361>+gt\276\211\334\365=\346\005\222\275|\3759>\345\355\310\274\362\316\t\275\320\257\030>\230\371\350\275|4\027>YL\002>\210\354\262\275\206\244\030\277\276C\036\277\n\254\353\273\3576E<\215\300\000\275\246\314\364\274m/3\276\330\027\354\274u\310\212\271\350\023\360\272r2Y\274\036\330 \276\350\334\300=\372DK>^\340\255\275\203\235\014\277\313g\014\275\337\203&>l\247\037\274\377\017\305\275(\003V=\265\017C>\"\211%\275\372:\370\275\342\034\235\273\205\266k\275\215\373]\276\023\330\030\276\004\237\222;\313\335\020=0b\331<(Q\261=[7M\275\365\033e\275\357\251\301\275\032\240\003\274+,\351\272q\217\331\275\204\342|=\370\200\375\275_\231<<iM/=\323\np\275]\346\270\275\035q\026\275\262\345\261\275\023\326\255>\323w8\275&\255\375>\330c\256>6\341\021\276F5M>`e\266<\3446\002\276c\014\372\2741p.>\340\371\354\275~/\323\2752\364\202=t\313T?\376B\232\274^\215\033\275(f\230>|\351\333=P\310\002\276.\257\300=\234\206@<n\255\347=xy\232\275-\277\346\274\215C\266\275\364L\202\276\241G\004=0|9>t\216\331\274_\337X>\241=W\274\276\226\376\275!\360g\275\344\313\234\274}\362=\2734*\317\275>\001\026\276\255\242F<\010\r\351=k\265\023\276\335\212\227\276\231U\222\275\336\225\201\275\303\271\263=\2779\306\275G\205\202<0\241\306=\332\302\261\274\"W\226\276\371HL=&^\312<\321G\242\276\263t\222=4\002\314\273o^\340=\370<\221=F\340\007\275~\260Y\275\241\225 =\276\017\020\276^\033\031=\000\007\337\276\234\005[\273\362E\206\275\364\360\300<I\371\222\275rgu>\010$\244>6\210\222\277-\307\211>N\274S\275\332\373\221\276\034G\001?\340\245\374\273\222\222*>\367\217d\276\343\202+=\346\007\r\276\016\276\212\275\366\'\324\275\014H\211=Q\335n\275\'\rO<%@\357\275\274\263\203\276\033\262n?\331\221\334\273F\004\000=P\251\r?\211z\020\276c\n\326\275\034\256\264\274\213\321\024=b\003\373;5\201A\276\365\347k>\210\240\260>}t\243>\317\341\347\275\277\022a>\227\203/\276\236\320\033?~Qx=*\215\250\274<\335\027\276\254\230\372>@=\215>k\027\266\275o\207\321\273\377i\352=\310\342>\275\347t\344\275\305\025\343=\342\375\002\273\257\036\306=p\325\325\275=\001d=8g\204\275\364\323\265\275\314\314\014\275um\032>\325\314\237\274\333\2232\274^ \324<t\224\025\276d\206\213=\225\314\025=\274Z\244>\301\254\227>\362\206\002\276\255C#>\035\006\243\275?\001\340\274\306\311\262\275@w\277\274\215\265\256<\276x\272\275S\307\006\275\333Fi>L\371\005\276D0\254=\227(\225<\324\207\372\274\214\352\366<\260\313\t\275\312w\325>\203\220\201\274\332\230\230>\240\005\223\276\3340\254\275\026\003\330<\205\325\003\274\274\037g\276;\206\000\275\177\352\362\273F6\322\275\341=\201\276\242\035\322\275F\023\017\275\026\264\337\275\2375]=\363\021\013\275\266&\220>\350{\201\275\345}9\276\320\365\237\275^\356\031\276\352\342\207=\017$\213=\213\301>>\210o\215\275\277\367\014>p\354\305\276\216\372j\275\207\267=\275k\214r>P\227\204\274\017\243\224>n\251k<5w\007\276\310\345\227<f\351\010>^\267c=\202\367\345\274\311\000==\311(\260\276\351\361\244=\255\221\"\276\272\217M?\024\346T\275(\215/\274k;\301\275\234/\241\275S\301p\275w\373_\275!\312\263\276\270n\r\276\017?\037\276$\352\201>\334\210\004?\252\337\001?\313g\230>\227\217(\276\223\220\024\276Y{P=N\305F=&sw\2779\332\t\275\001\216\354\273\227\007\001=\306\023\263\274s&\030\277lFb=\347o\344\275\031\337\376\275\2726\372\273\307]\353\274\336\263\222\275\323`\341< `\267\275\352l\004\277\233\272\023\275\t\375B\275\002\343\027?\334>\237<\272\027\003\276\016Bb\275&e<>E\023\334<\033\324=>\366{m=o\"\213\274?;\301>\321\035a\275\362Gp=\220\t\307=\260\352X=\270L\203=[\030q\275(@\035=\376\353\312=UZ\262\275l\246\327\275^c\222=\220\312o<\350m\r\275\333\035\271\275\260l\316=\254lr=\236\005\316=\306\252\275\275\n\223\262\275\006s\201\2724\026\004\274w<\215>\236/\017\276 \370M\275\245\245\255<\207\212\036;\026H\031\274Q\353A\275\342\221\365\2755\027\350=T\240\337\275\025\276\020=\276o\326\275\352h\265>\230\240\021\276l\n \274Lx9\277\0257N\276\372\223\004>\3100<\275\374}\213\275\306\337\203>\000*\265\275w\270\376\275\002\3508\271\305<\341\276\353\306\301<Vy%\275bj\030\277\337\n\254=6\327\036\275\\8\\\275\370\332\207\276R\036\277\274\220\312}>\216\223\251\275-\256\022\276\275K\000>\361\n>\275F\237\033\276\221\033%>\216p\332\276\'\n\213\275_>Q=\0246\366\276Vs\345<>\256\330\275h\335h=\365\325<\275\010\036\234\275 \316l=\370\277;\274\370\000\315<\370\320\035=\234)7=0\037\266;v:\221=$\253\227\275\202\333\203\275\177\325\262\275L\211\224=\200\373<=\345\371R=,@\205=T\306\005\275G\377\254<6\250 \273y\373\275=0y\250<E\217G<\213\360T\275\034\271\271=\327\331\353\273\374\243K=\203\354\317\274\362\302\301=\306\201\203<\310\322\201\275\n\333\237\2756o\377\273\214y\271=\365!\014=\337\203l\274\246f\240=\016\0169\274\373\276\201=~\t\330\275\264 7=N_\303\274\201\2774\274\377\034\262\275v\361\002=\032aW\275\256%\326=\245\354\275=\340\244q=\004M\323=\263\314\331=iy\304\275\374\305\262\274^K\020\275\355Q\224=\302\363.\274PN\301=7\353_\275\007\')\275q\n\177<\031\356\223\275\335X\310=\035\322\251\275%\003\036\275D\351\214\275[n\226\275E\021|\275\277\244\230\273\337\325\255=G?\313=\022\334\251<u\370\023\272\364\024z=\233\257\316\275N\001\337=\247!\372\274Y\257\226=Oh\023=H\220\231=H[\274<\374-]\275\336\201\361\274\344\2520\274x\235n=\306\347O=<\265\231\274\017:\247\275I\030Q\275\001W\204=\334u\241=9\361\260\275\260\205\024=%\304\233\275\256[K=\202\224r\275\300\022\211=J\022\265=<\234\033=8\325X=\322\322\257\2757\274\271<\273\234s;\"\247|=\201\277}=\201D\300\275\207 \367<>\232\351=\201n\233\275\t\333\360=\321l\037\275U\201\212=A\"\204\272\266\035\272=,\025\243\274\020?\252\275\223^\256\2743W\300=C\237\266<\316\361\234\275\343\005\r;M\024\273=/\376\t\273\367g\354<\261+\224\274\272\306\364=\037\343\224=\275\240\244\275\224\324\266<sm\236\275\205u\007\275\220\"\036\274\363^:=H\362\316\275\344]v=\205\001\313\274\243\333\275\275\362\326\231\274\227&\220=c?\221\275j\277\010=\'\034-\275\200hN\273\241>~\275\n\375\216\274Vg\224\275}\274\232\274\346\376\307\275\363\351\233\275y)N\273\032\320\220\275\016\307\303\275\2437`<\353\337\004\275\350j\240<uc\n=\257Jz\275e\267\351=\203\332\233=`\330A=\224\321\343<I\371\302=^\010\'\275 P\033\274\006\023\031\275D\222X=96\347\274\213\320\300\275\0272|=\301\010G\275\'\324\372<\320\337\341\274\210E\242=\267z\317=\354B\327\275\354\"\202=\241<\231<kU\267\275\351u\300<\345\027)\2754\027\206=\2737\242<P~\200\275\"\233\310=0)\210\274\264\355\315\275\227\014\251=N8m\275!TJ\275\270\306\036\274\005\315\025\275p{\263=Z\014\177=h\036\303=(\212\364<\325D/\273\266\017\240\275\275\347\325\275\263\204\305=\331Y\326= w\307=Q\'\360\274\230\231\315\274c`\354\274\2314\214\275P-\020<h\374\301\274:\252\025=\274g\325=8,\274\2757\"V<\203\310\342\275fp\276=:\210g\275\020\002H\275\017\211\000\273L\331\030\274\026A\202<\356\335\323=U\244\212=U1\351\274\253\325\036=\034\314\246\275\327\277\020;zI/\275\313s\302\275\326\262t=\277\303w\275&\276\207=\003\037K\275/B\221=\266\316\246\273\023\021\272=^\212Y\273\371O\264=[$\274=\262#;\275\257V\327\275\260@\257\275\017\0272\274\247K\007=h,\005<#j\224\275(\005\245=\236:\275\273\357h\001=\261\331\313\272\353\311\234\275\230\346\261\274a\374\331\274v4b\275\335\022\016=\311-_=U\324\233=}^\216\275\325\177\313\274i\301\370<\227\242X\273\257.m<5\361\276\275\316\366%\2742\341\240\272\013\216W\275M}\271=S\244\266\275N\357\037\275\2537{\275\'\361F=\3406\273;\024Va=\336\241\303\274\267\313\333=\272\277\204=\360\335\303=\204t\206\275\020f}\272\2720\033\275D\352\211=\006E.\275\300\261\357=<\033\203=5.\304<\372\241\362\274\252\242\034\275$\212\334\275P\330\275\275\236.\245=\322=\252\275\321VQ:\321D2=`\362\327=\022&\211<\022\205\007=\212w\021\275\225q\336\275$\320\316\275\363\210\313\275y\265\246\275\205\\\021==\316\221\275\325G\002=\251\231}\274n\200\231\275g\340\341<xX\231\275\240h`<5\3205=\211\304f\275\252\250\314\275[\303\335=\331\254:=U\330\t=>\221\275=\000\230\250\275Uo\020\275\'+\263:\004\353\340\274\016@\233\275\001\275\t\275\0171\321\275\311\302\271\275\211\237\357\274c\252H=\247\325\005=\021\362L=\003\241\316=\030aH\275\214-\226=\306\365H=\223\332\203\275\t$\271=d\2600\275L\210\323\274\275\017\201\274\334\336\316\275D\033\003;A\327\311\275\370\\\311<6\254\243<b3\342<\027\374\177=3/\233=o\020;\274b\264\226\275M\255\330=]\3618=~[\264\275\364\250\335<,\014\307\275\215]O\275\212\315\016=j\311\007\275Ut\305\275\026\367\323<\226z\321\275\274%\251=\300\"\254\275\365-v\275\007\254\312\275{\330\263=\244R\273\275\247\261\236=\374`\213=\2246P\275\203\256`\274Y_L=\210h*=\231\217b\275`\005j\275s\310\312\275t\305n\275b\376\334\275\310\230\275\275\366w\016\275\211\205\264\275W\310R;7i\241=\241\031\314\275\3510\324\273\016\261\200=\247>o=A\027\330\274)*\225=\262\227_=\310\353\245=\217\364\220=\254\256\020=O\010\272\274?\312\221=d5>\275G\365\322\275e\004A;\374\026\023\275\336\030(\275ft\301=\256c\315\274\377\223\206\275\210\245\264<?R\n\275}]Q=\325\372P=\260#V=\303VX=\214\3606=\030\223\267\274\221\316\246=\246\300U=\275\256\312\275\'\246A=8b\013=&\200\341\275\2542\263\274\013\360\221\274;M\274<\366?\270<\341\306\020\275 \325\265\275+8\310=\306\372\276=H|\207\275Lv\217\274\250\271\030\275\250\344\352\274\"0\344\274\360s\200=\004\t\342<\372Z\354\274\231\004&=\004\226\240\275\267}\217=\205z{\275\002)\244\274\003\351\265;>M\237<+.\273=].M=\254<4\275]S\235\275.q\034\275\261\376\313\275\266\220f=3\354\256=\325\337\312\275N\240\245=#<\331\274hO\345\274\211,\265\274\242|\227\274,\350(\275\220\361\331\274\274E\224=\2307N=p^\200\275\\k\027=`2+\273\3305b\275x\037\335<\330/\270=\n~\323=\244y[=X^\201\275L\0041=\242\323\201=\350\302\302<H\243\021=\216{[\274\356\256\211\275\371_\245=O]\\\275M\337&\275\"\020}=\034-/=\222\335\244\273\031\037\354\274\360N\240=D\360G<\023W\305\275\300\261\252=\013\317@=\223&\207=\367\002\330\275\217\265N=\202\242\227<j\323\215\275}\232\202\274\337\244\314=I\374\212\275\372\3328\275t5\210<\362\222\222=MaX\274yT\324;b@\210\275\251B\213\274\267N\272=~v);\364w+=x\322\271<\2632 \275\221\235\255\274\272Lu=\312@\317\275s\245f\275\325\244\261\275\227{\310=t\005\\=e\223\022\275\373\257\213\275\0162\327=\370m\270=m\270\315<;\033\337=\010\304\026\274,\000$=\231)\233\275\014\314\243=\2348\026\275hP6\274\304U\310\275\240+\366\274`DD\274:p\327\275\250\365\310<\330\311\r<\320\235\361;\032\227\250\275\240\276\206;\000HD\273\037\367\307\275\246^\235>J\324\304<\244\031\306=\032\035\342<\034&v\275\273\202\275\275\312\306j\274\"\021\342\2744L\032\275$\207I=\371cc\275\366\0060=@\317\n\275\017\337G<W\025 =\210\331{\275\277\356\274\274\331\2145\276\004+\305<\361\301\226=\351\3059\275\244\002\247\275J\034\t\275b\301\226\275t\020A\275\016 1<#\247\036\274\261_*>\354\206\206=\322]\201\275\207\213o\274\230&\n\276\0136m\274\321\300V\275\0279\205>Rw\306\275\363\003U\275f\261\213\275\210F\017<\307\272\337\275\340\202\242<K\272\035=\351\214\216=\324\352\204=\326G\203=M\"\337\276+\'J\276H%1<X-\336\275\216\233\304<v\272\227=L\245c=\247\n\035\276\005\325\315\274\352\274\301=\220\247\246=\257#\245\275\215\363\231=\245F\037>\333y\327=~\024\322>\261X\243>\033\265a\2743\025==\032W\364=\313\204]=\224<(>\025%O\274A\254\214\274\036\317K=\242\253\025>\343\000\000=\003\217\211;\331ci\274&=3<V.\t>\236P\r\275\377>,\276l\213$>\254\240\320;\374\231\037>\303\252\267\275hv\205=\003t\215=h\331\001>$Mj=>\215\201=)\340\361<\355\320\257\275\001A\r>\343\257\232\275\346\225*\275chR=;\277\225\275\032\356\016\276\305\270\'\275\314\215\200=\317\373\026\276\3414\026=3P\215>\234\314\345\275\010J =\357\205\215<\334i\315=\013\244\n=;~\315\275Nx{=J\302Y>Z\235g=mr\320=\270\031<\275{\346\225=F\232Z<S\201\331=\303ab<JE&=+\251\360\274\004\265\225>\224d\257=\346\307\252\275Wj\253\275\246\227\241=c\371a=\227\2019\275\010\224!>\251\274\340\275\005Yv>\252\270\027<\275\265(\275\215\034\016\275d\235\230\275\372\036\326<\337\246G=\263\261\006\275\224y\376:\301\033\300<\212\014-\274\354\355s\274\314\027\004\276\2735\026>\354\272\325=v\224(\275m\303\301=\230\264\333<\262\001\256\275h\351\244\275\200\033\224\274k\265\013\276p\344\035\276\246\336\335\275\332(\222\274Y\034}\275<\247\371\274\221\026F\275\270\352\020\274\ri\254=H\006\001\276\000U?\275\376\342\030>\026\\&=\243\220O\275\355A\016<k+\320<\272x\274=\337:\310\275X\235)=`\317\225=\241\307\320<\245\224\225\274WXs\273\360L\367\275\327\347\001=\260\034\036\275\241h:=h\177s=dm\014\276\036\310\313=c\036\234\273I\225I>\'V\342\275\370\312\221=\271\366\016>\225d\036=\223)\343\275\274\006\326\275\250\241e;3X\355<\344\373\322=\365u\t\276\030\310^=\367\215\341<\034\256\257\273\377\313\310=V1\262\274\361\341\237<\277\373\317\274\271\3529>b\242\304<z\375\267<+\214W\275\ty\313=\342t\262=}\336\310=\342g\323\274\036Y\323\275.\262<=\003Q\227\275D \273\275\306\201\216\275\210\3073\276o\204@\275\360\002\364;wQ\373<\345\022t\275A\0270\274e\233\342\274S\233\330\275\216X\002>\376a\273\275i\215\227\275b\273\203\275\371\204.\276\366c\232\275A\351\005\275\232\346\266<J\262\341\274N8\326\275\353\265\310\275ltR\275\255\314\342\275\370?\231=\005e\273\274\224\336\337\274\224&\270<\236\325.<\355\276\373\275P\r\205>\363X5=\246\245\303=\240\306B;,\227\017\276\324?\253<`\233\242=\347\261C>\377\236W=z\335,\275BB\332=\310\001\276>\346\257e\275A9[=\271\006\222=\237\024\254\275g S\275\\u\">K\213\302=\320\253\004\276\310^Q\274\216E\250=\225\t\035>\222\302\323\275\"\220r\273s\243\357\274\022\306x<\241Qs=Nt\'>\002\245\220\275\305\\/\275\372\3741\274\331\241\216\275\222g\301=\003\3478=\025d\363;gh\212\275M\013\273:Jc\326\272\275\232\004=\270\223\241>\000\271\371\275\327=\"\276M\254]=\035P\030=y\264\201;\221W(\275\344\177\002\276\240\217\224\275:\201\"=\300\037\r\275D\363.\275\352\000\245=w\2771<F\214\351=w,\221\275.\333\221\275[\001\330<\021\317q;M\274\243<(\004\201>g?\327\275q\236\316\275\331\371p=Z|N>To\223\276\236\273\242\275Rj:<\366\271\023>\017\025\017>\257 y>\374\rU>\261\231\207>\013]\301\2757\037\217>T(\232:S\0108\276]\r\225\275\302\002\220=1\360\371\275\022R\000=\3774{\275\022\220\375=\212~\235\274\332\344t=\r\261\241\275\315\262\226\274\006oe\2754\022^\276\370S\205\274!\217\334=\372L\002\274\0261K\275\240\252\356=\371\334\032>\340\216\242<\223\235*\275\321\241\013\274\212\2060\276\327\215\316\274Di\300\275F&\002\276\202rO=oA0:\321~\021>9\200s\276\245\300\220<\267X\315\275\363\212\036> \210\261=\021\002\005<\345\257\227\2750OY>\361;\252\274\222\310\021\276\364\332\205\274\247\302\023>\337\034|=S%\003\276I\376\371\274\037\252^>#\275\243\275R\320\213\272\0345}\274\025)\216>4\004\237>\023\024\334\274{\236\330\275\256\267^>n6\321\2752Y\243\274\333\373\330\275KI$\274Ti\212\275Z+\255=}\263\370<\354\366\350\273\353D\256=\3713!>SE\206>[|\254\275\353\321\260>v+\001\276t|#\276Z\240\277\273\n\302\'>\311W\242>C\025\363\274\216\'o\276bf\'>\243\033\344<G\222\031=\336\366n\276\276\366\023\276n\3102\275#\177\331\272.\257\316\275\274\345\014\276\240A\010\276 \324f\273\301\255t\276\001u\332\275\232Y\t>^\352\255\275\371,\360\274\242?\302\275\271)\372>\220\273\005=\253M\373\274\014 5>\251K\013\276\323M&?\361iR\276\362\254\371\273\314ys\275&\351b=\363\204\254\275[\226g>\030\221\330\275\243\220\337\275w3\221>!\024\036<\224W\364\275\\.\253<R\007\321\275\037\251A>\274d\211=D\261%>\224\037\333\275Ch+=\025P\206\275\004E\014?\231;B\2768a\227<r^\234=p\031\032\275:\275\275=\252\031\207=e\376\312\275\207\242\236\275\3547\255\275\240\366\017<\036\372\241=\353\030\256\275\210\345e<\272\251\204\275\375\376S\275@_Q=\310\306\010\275h\370\254<\300uf<\337\201\026=(\301X\275\352\201L\275\\\203\013>\002\276&=\236\253\230<y\373\254\2749YE>\201\214\343\275\013\275\347\275>\031\223=\036l\354=\312\332\010\2768\377\252;\\\264F>#.4=H\277A\275\020\217F\275\217i\364>\271\210\375<\346\\L\276h3c\275\263\361t>\221\273.>B\315\261\274:\265\225\275\326%\037=d\r\275>^H\223=Z\211\001=\t\261\344>\212Y\321\275\262\245\235=i\323\005\276\336:\275\274\335\267H\274W\327\274\275\364\237r=3\301w>\272\226\222>\337\322\010\275\235\301\230=\036d6\276\240\233\375:Ge\332=F\000#\275\036\363\203>>\244\276=\202@\317=\202\013\311=\354~f\275\250\265U<T/\307\274D\240#=\372\005\305=`6\315<\340Z\013<\320\241\241;\315\363\203\275O\330\220\275\\\256\240\274\267\353m\275+\255\271\275zr\324\275|$\031=\225\350\000\276U\376g>.X\201\275\316\223#\275\311\021_=#\036\271\275\3473k=\2519\304\2756\336\240\2756\021\263>\375(\257>}\345\025\276\3664->\234\362\347=\226\223->\253[\014<\3006U\275\226\006\254>^\255\020>\001\240\001\276\304b\244\273\265\020V\275\323\010 =\265\373\325\275\033A\352<\340\032\232=\026cY>f\031<\276\216}\326\274/\033\234=\006l.=\212\340P\275\021\334\322<SX?<y\t\020>_\313z\275\363\n\032=\316\020!\275\222\213\216= \264\001\276\251\305\257\275\235\027\243>\354\246\375\275MCf\274\242\245\020\276\242\306\021\275 }\276=\253S\244\275\304&\201\274\371f\376<\364\245\020\276\032e\201<I\275\310=gk\026=q\024_>\307,\t>\371\225\227\276J\364\013<`Q\213>\227\201\363<NY\212\275\257\262\275\274\370\017;>\263\2141=+\220\302\276\301pL>=\302\014\275\376\3431\275g{O>S\241\034=nMQ<\220\255M\2742\016\215\275\307\004\341<\372\271\237\275\r\"H=\240O\325=\255B8<\220\034\255=\357\276\302<>\341#>\3345\023=\341\341;>UR\300\274w\225}\275\026\224\324\275\250\331\376;O\220~=\265\315\255\275\241\361B\275U\236\317=rA/>\225\"\353=\274[\213=\201H\001>Z\217y\274|q\253\275%\334i=Or\357=e~\252=5\377H\2762\362\343\274\235\201i\275\254\014)\276\270\026\244\275\006k`=5\3422>*yC>q\230\343\275&1\361=w\364\016>?\227N=\2440\322\275\353\343]=\340\030\001\276\312\350\245<\214\260\273\2753\211\201=\006,\342=\364\327\270\275\017Z\265\274\323\224s=\014\256\340\275\353J`>\265\035Q>]\\\230=\365\302E>\264\030\376<\213\365\200>\312\306R>\326r\275\275&\027e\274\310j\026=$\351\237>\t\301\307;\354\201\'\274\034\322\225\275\362S+=\014hc\275\020o\263<\'\001\365;:\260O>yo\372\2743\267\027=\333o\262\274\361Z\226<>\264\353\2755\357\225>\257\265N=6\266b>[\021\267>D\020\223\275\307\305\375<V\020\020\276\230\221\342\275tC\002=\262/\232>\253\014\314\275\317\320\253\273\277\254\346;\026z\332\273\232qW\275-%\036\274\342\007\227\275\207\241>\275\313\353\034\276\307%\273=#\241c\274\357\312\217\272\341R$\275\006\211<=\t\372K\276e\304\253\275\333\236\355\275\370\361\206\275\227\250\024\275H\025\255=\233x\204\275`\370\204=_\322\246;\253\211\017=\216$F\274d?\r=\372j\013\275]>\306<\203|\335\275\361\020\234<6U\036>\362\r\355\274\346\037u=Y*\276\275\240\331H\275\260\353\017>\207\232\206=\244#I>{\205\016>B\264\202=\213\353\230\275\313\302A=\376\311&\275\360E\">\305\371B<r\027\270=\010 \256\275&K\350\275\273<\205=\214\"\277\275\006\373\010\276\301\205\352\272\245:\271=\000\237-=\220ns=\324\0141\276\325|\375<\275\035\357\275\n\336&>t\235\t\276\253\341\216>\'\017\376;\345\001\322\275\220\272\n\274(-\200>*\213h\275\344\214|=\237\213\337<W\365\305:\356\254\017=g\366\310\274\347\245\022=La4\276\321\324\310\276\357\375\204<\312\333U;|\365\n>\202.\306\274S\306\200:m\232\223=\253_R<y;#\276\362\212\355\275h\211X\273\003n\014:\212\010\342=\371\210\355=[\310\014\2760\254S\276\324\253T\275\'\3102\277\355\302\267>\274\2252\273\240\221\010>\365@\014\275\003s\243\275\335wT<\355z\201\275\224\014\374\275\252r\214=\033\016d\274\315\320\033>\345.}\275>_\220\275\266\"\276<\367\360\354=\355\364.\276\317fZ>\277\324\371=\2274\306<\325!\276>0\"\021=\307\267(\274\031\030C>\2732\255=\313\332\216>}\233\360\275\266<\333\274$\235\247<J\370@>\222\367\000\276\231KF:9\365\247\275i\205\225\276\346WJ\276&\201\316\2750\021\230\273\261c\253;\371\005-\275\301\251J\275\362\nj\275\374 \314=M\234\344\275\312@\244\276\342\r>\275\304\302;>\321\321\345\274\373\t\353\274\0222\316=wW\211= \302j=\356mR=\n\263\266\275\261\314\350\275\035\3644\275\354i\201=m\t\177=V\325<\276\366\023\025\276\010\027!>\235\330?=\240d\241>\004_\352\275L\000\227=\300\236\307<t\035<=@\032<\275\364u\022\276q\002\303\275\262/y=\020pi\275o\242\246\275n\371\260<\014\211r=\314\373\324\275\264\226^>@\177+\276\276}\334\276\310\005\307\275s\223\010>\262<I\275^%\301\275W\357\373=\010L\377<g\276L\275\302\"i\274\350\213\312\274\037G\022>\265\024P\275,w\233\276h\245\220=\317l\303<\037\206y\275\370j1>\244N\r\275\013\305\024\275N\302<\276Q\205k\275>A5=\376F\205\274*G\240\275\363\307\200=\016\356\311\275M\231\016=\352\016\036\275{\254l\2765\343\203<\006\335\013\275\223\243\206\275\355`?>k\374\216=+(\016\276\346\003\332\275dIp\276\371\3653\277\237\316\212>\323&J\2756.L>\307\006\370\275`\337h\275\210\275e=\374A\265\275\225\324\363\274\245\203A>E\001\206\276\362&\232\275\317\033\227\275M\343\331=\035\023L\27667\327\274\353\324\214>\271\014T=W\365\265>\326^\246\275\256LY=\241|\362\275\314\207\355\275 \256\217>|\004y\275\271Zv<\225\237@\275\241\355\246\276}s\000>\336\252\323\275\315\223\247\275\367T\302\274pU\264=\037LE;\027\000B<\244\373\365\275\324>\025=g\375\334=Q\250\345<\244\325\035\274`\\f<`w+>\306;\t\276\362 I\275\205\237b\276\033ID=\267\350\306>B\006\220\276)A-<44\306\275\223\214\306\274\'\257\014\274RJ\375=\304k\264\2747\273\227\275\312$\250>\213\205>\275\355\226e=\324\177k\276\260\210!\275\372R(>H\n\324\274\234\t\"\276*\246\222\275\201$T\276\034\353\026\276\267\000\345>\225\311\221>F\365\233<\376)\214<\034\336\337\274\244\324\366\274\200\342\r:L\036\312\275p\007p\274\260X\301<\020\332\233\275~\321\274=\330\311\017<\010k\310<\324X\304\275 \242\027=\240\274\256=\244d\225\275><\275=\364*(=\324\372\301\275\276|\261\275z\003\312\275\204\3319>\004D~;\245\362,\275\021T\023\277\022\303\014=\037\3755=W\224;\273K:Z\274\'{:\276\233\353-\274\375\300\365<u\313\273=\270\277\232> ~\331\273\252\'u\275\'\3241>[2\002>=\215\230\2757\321\223\275S\252A\274\203n!\274\236r\004\276\276\365\353\274xPQ>\264\226\371<\250\230o=Yg\317\274\320\360\261>\304v\036\275\245\331\246<\302A\360\275\026%\335\276L^\026=\353\276\307=\\\003\014>R\251\322=\352\n\376>Sf\207\275\221\345\274=%K\357\276M\250\344\276\264\375\334\274\254\033w\275\243\336g>\353\374\230\275\310B\332<x6\332=\214\243\355\274\3708\276\274\230\030p<\240x1\273u\230\330\275\016\227\017\275\250L\032\275\204\300\323\274\270\252\021\274\000R\025\272\320u*\275(\257\350\274\270^\327<P\035J=ic\207\275\034\222\255>;m\235<R\243I>\303-\224=\022\005\344<g\273P\275\0077\277<v\322\371\275\254\r\024=(&\361\275(\2008<\262\006O\274\207\310\266=\337\375\032=\267\346\326=\315$6\276.\024\242\274\276\346\036>\263\\\016\276T\220\300\273M\264\260\274d?\230\274\357b$\273joq\275\001D\t\276\003\335\263=\244\361\222=\"\010\257>\211\251\266>\0028\017\276\263\224\302=\220I\315\274\312]\034\274\233$\371\275R\344\234>\317\200\236\275V\315\326\275\232\264K\275a\202\010\276\307\035o=\t\232\350\274N\236\202>?\205\333\275\261vu>\225\213\372<,>\371\276%\256\221\276u\347\310\275\300\202\244\275\245\274\035?(bd>\220B\177=\327\331\001\275\376\374\026\275\337\010v>\357s\227>\033\317\256\276\242o\355\2757P$>\225Z\020\276s*=?\225n\022?`\207\004>\362\306\334\275\232\234\033>8\320d>\035\027\210=\326|\235\270m\037d\274Ol\304\275\326\036X>\353\032\002\276\267\270[=\216\023I=a\347\230=B\r\241=JR\000\275\270-\004\276\014\240\222=\312\276\203\274\246\367\252\276\330+\000\276\256\033\264\275\033\2737>eC\">\033\302\312\274\312o\370\275\227\306\215\274\350\373\002>\036\215\325\274\036\241U\275\'H<\276a\366\360=\357XO=\236\034\314>k\343\275=\tj&\275\344\357\242=\231s\260>Z\313`\274\315\353\006>\327\361\357\274\270\334\211=}\352\326=\315\317\342<\017\2465>\335T\216>\017\375F>\003L\336=\341\221,> 2}=\276\347\014>N\261\305\275\325\0105>\313,\202\275K\242\220\275Js\215\275\0166\237>\376\326,>\014\002_\275\367\006\013\276^Lq>\251\215\332>\020\215\004\276\366F\354=\345\347d<@\207R\273\363\353\362\275\2755\200=\216\342\307\275\321#`=\3522\n=\372h0>\0236/<\360\317\376\275\003{\272<\344g\014=n\337^=Q!\204\275\2161\022=\214\303j\274\"\243`\275,i\373\275\251!\233\275E\205\376\275\t\224!\274{\\\n\272\277\343\251>\212!R=\221\264J=\241A\315=Cr\306\274\232Q\236\274G\005\213=?\315\215\271\316\364\t=\253\324\203\275\307\336]\275\030\304\217\275\014\022\237\275\177\264\227\2756a\003>]\212\231=\253\213\205\275t\005W=s\010\271>\223\337\177\275j\031\305\274\254:d<ZF\027\275\264?\312\275]\230G\276\210\265\004\275\226io\275\354\207\030>pN\'\275\377\2202\276\202\r\010=\232H >\350T.=\2614\230\275\314\302\307=^\007=\274\233\242G>?\244\205\274\0131\357\271\253\353\365=\027\271\302>t\025\237\273\3340D>\362\316\001\275\305kV<\"\037\340=Y,m\275c\\\204=\264K\231\275\322\333\202>}\345\322\275\221\215w=\341\327\002>q_\017\276\203\2271=\311\344\342=*\017\272<\271i\006=\220\320\317=\314\332\006\275\372^\245\274\023\035\301\275M\230\223<\341+\325\275\330\362\337\274%\275\271\274TSe=6\244z\2755_\017>\'(7\275\006\271t=\025\016B\275\215H\177\275,\323n\275\347\223\333=\337\262#=F\317\325<\177\367\232\275\213\037\030\275_1B\275\302&\206\275\267\362\336<g\370\331<\367\026\263\274{\276\236\275\207qX=\300\256m>\227\366\311=\266\020`<\300B\002\276\332\224\217\275;\317&\274p\0032\275\333\272\200>\254\004\271=\026\354e>\023J\206>\325\010A\275\235y\341=\231C\312\274\256\210b>Y\253\345=\236f5\2740iA\275\000\213y\275d\324\356\275\234\227\234=#\316?\275\207\310\271\273\273aV=\007\n\311=g\305\203\274\254?\007\276@RS=\215y\336\275#\010\323=H\330\016>S\371\214\276M\211\353=4hV\274(\353f>\323\346\356\275\030\004\225\275\202U\207\276\274i\035\2753\032\242>\321\337\275\275\014\314\023=_\\\006\276\036\014\300>>X\301<{\254{<\342\024\212\274dR\344\276\272\347\276\276\320\276\'\275I\t\222\275ncj\276}p\236\275\024\313\024\276u\017r\275\001\300\310>\275[#\275]\221\344\274\220\rE=\266\261\212\276b\304q\276\257!\247;4\277\346\276\003&\260>\263\352R\276\313\013b=D \243\275\312\024r\276\354(S\276Z\253\303<\305=i\274\227\027\347>\271\374n\276\216\204Z>\"\337\202>\016\245U\276\305\357e\2755\204\221\276i8\232\274I\036\310\276\331\314\024=\034B\204=6w?\276\260\335\317\275,\357e\273?\334P>er\031\276\244\207\227=I2\262\275\243\240O=\253,h\275=\\\300;\27790\273z\374\031>\361\000\301\274\376K.\276\310\234U\276\210{R=\273\345\177\275\006\264\335<\263|\312\275m#&<\350l\263\275\240\'\251\275 b\211\275\225\257\261\275\300O\233\275\265\272\355\275\350\243g\276`\022 \275gXK=\375R\037<\005\t\255\275\306\226\033\276K!\322\275(\221\240\275j\023z=\342e\000\276(%\235\274K\331W\276\022\035\303\275\241\262\354\275\354\256\234\274\345\036\330\275\242\030\231\274\361p\217\276`.\341\274\355\323\336>\312n\220>8\240\016\276\262\353\255\274\300\336e\275R\037\314\275\021Z\n\273\r\314\240\275\220u\371\273\374\353\024\274\364F\265>\234\203\274\275\347\016E\274\245?\272\276\220IH>\301\356t\276\361\251\034<\345G\233\276\3230\342\275\352\031\234=X6{\274\210\301\026\277\005\\\210>T\224\215=\022e\372>$\205s\2762\340\007\275\310\330\345\275\330\034\375\275\301\000W=M\357\314\275\377\205\032\277\233\277\017\275\237F\275\276\366F_>\376x\230>\275\313\301=~\r\t>\341\377K>\014\320J\275\240\003\r\276\034\262\205\275\315i\007\277P\354\002\275:\204\271<\022\014\001\277\327\343\2236\332f\215\277\365\273\326\275\026\217\205\275\221\277\357\274\022\010\231=\307\006q\273\244\330\010\275\372A\303\275e1D=\323\236\327\276\016\232]\275\230C\001\275r5\215>\232\260^=\307\241\222=\032C\215\275\341\215Y\276\"\355~\275o\272N\275\345\017\210\2743/;=q1!>~\2450\274\375D\301\275D\372\002=\2567\267=4)P= i^=\340\351\301\274\306U\"\275()\247=\340Ta\274\210\217\265=x\255\324=\\\247y=B\203\204\275|\306\203<p\003\366<`t;\274\250\003\311=\036\356\235\274l\330@<\366x\303\274\364M\311>\300n3\275@\263)\275\347\376\356\276sE\021\2758\312\363\273\3104\217\274\201\007l\275\225\212\013\272^\265\354\274\351T+\275\322\371\026\276M7\226=\371\306\226\275\362\347\254\275$\311\370\276E\261/\276 `\303<\202\343s\275\354\3270\276\"\277\233=e\327\322\273\010t\005\276\256\302n\274\234\307=>;1\223\274\267\302\177\275T\245\325\275\'\001`\275(\264\243\274r\235\342\274\301?\273=\350]\222\273\260\315\025\274`?r\276\2309\232=\025\354\354\275g\216\347\275\377\177\270>\231\336o>\020\262\212>\204\014\016\276\010l\302\275\235\230\343\276C\217_\274\354\375\217\275\374\321\313\275\260\325\243<\310]j=5\303\230\275\310W\201<\317C\315\27536\224\275\3042\'=\006\277\005\2754\366\276\275pM\243;\304\010(=\213\266\326\275\010\353\260\274\372\206m\275"
      }
    }
  }
}
node {
  name: "decoder/dense_3/MatMul/ReadVariableOp"
  op: "Identity"
  input: "decoder/dense_3/MatMul/ReadVariableOp/resource"
  attr {
    key: "T"
    value {
      type: DT_FLOAT
    }
  }
}
node {
  name: "decoder/dense_3/MatMul"
  op: "MatMul"
  input: "decoder/dense_2/Relu"
  input: "decoder/dense_3/MatMul/ReadVariableOp"
  attr {
    key: "T"
    value {
      type: DT_FLOAT
    }
  }
  attr {
    key: "transpose_a"
    value {
      b: false
    }
  }
  attr {
    key: "transpose_b"
    value {
      b: false
    }
  }
}
node {
  name: "decoder/dense_3/BiasAdd/ReadVariableOp/resource"
  op: "Const"
  attr {
    key: "dtype"
    value {
      type: DT_FLOAT
    }
  }
  attr {
    key: "value"
    value {
      tensor {
        dtype: DT_FLOAT
        tensor_shape {
          dim {
            size: 512
          }
        }
