node {
  name: "x"
  op: "Placeholder"
  attr {
    key: "dtype"
    value {
      type: DT_FLOAT
    }
  }
  attr {
    key: "shape"
    value {
      shape {
        dim {
          size: -1
        }
        dim {
          size: 16
        }
      }
    }
  }
}
node {
  name: "decoder/dense/MatMul/ReadVariableOp/resource"
  op: "Const"
  attr {
    key: "dtype"
    value {
      type: DT_FLOAT
    }
  }
  attr {
    key: "value"
    value {
      tensor {
        dtype: DT_FLOAT
        tensor_shape {
          dim {
            size: 16
          }
          dim {
            size: 896
          }
        }
        tensor_content: "\345\376\240<f;\023\275\330!\023=W\214b=\265\226\272\274mj\240\275^\265t\275\010\035\242=?\373\361\274@\350\224=\271\222\237=\266\335\266\274\010\343-\274b*\r\2753XR=\226a\253=\312\226\020=+G\230=jp-=cV\014=d\311\006=\323\252\370\273\354\367\222\275)\374 <\331,\224\275)&\264=u\345\302\274\353\3339=\324, \275\231\326o\275ls\212=\0109\217\274\235\266!=\264e*\274l\207\250=\216Q[=\265\366\263<\034\322\210=~:b=\027\211G\274\235Q\251\275g\357<\274\317\257\017=\303\261~<!\367\276=M\363r\274L!\n\275\361M\265<\371\2534=\324\363 \275\304&(=\207{\021=q\310\344\274\331y\257=^M\215\275\374\305\021=\266\212\335<\006\024\261=z\300\246=I\260\017<\032\'\302=\001\275\241\275!\006\374<Q\356~=\271v\002<\355m\213\274 \204\275=\322\327\236<\237\253\002\275\276\000\256\274F\260\211\274\311`\346\274\312R\326=*$\327<\263d\347;\235{J=\030[\215\275\307c\253\275\304\316h=\"\226\271=}b\335\274\260\210c\275\304\027o\274Q\204\237\274\224\376\327\272$\330\002=i$\251=\222\227\023=\313\360G\275\030\213*\275\'d_\275\213Lg=A/\262\2745\023\007\275\255\336/\275\32727\275tv\227\275\272N\356<\220\r\250=\342\021P\275b\234\257=\222^/\275\022/?=\306\037\222=:\350\203<kT\232\275Y\304\376\2748\022\311=\265d\245<\347\212\306=\010\n\204\274\177X\226:\212T\216=\213\203\362\274\177u\243\275\234\024\"\275\021\347\246<\241\270S<l\262\217<gt\227\275c\"7=\275{\033\275\237\257\007\275s\r+\275\366L\243\275\017\322\216<u\321\307=zaW\274\"j\253=\217\273(<\300V\036=\375\215\227<\342\203\310=\206\301J\275\300\007\342\274;T\277\274\352$\221\275\366FS=\250\254n<\207\245\000<\340\2060\275\303\316K\273Cwg=\234\250\257<\235pY\275\350(\243=$\351\000=\323\354\006=I\'r=\361\272\365\274p\334\204=\206M\303;M\245\242<\214m\266\274\360A\252=\306\017\220=\264g\327\274ZlK<P\364|\275\010\242[\275\227\\)\275\272\020\243=I\3240=\350+\255\274\033$\324=\0204\235=\345\022\376\273P\213\236=tL\237=m\362\301<&\"\206=D;g=\371\322\225\275\363\221\363<\322\007\302<\275\001\350<\200.2=\334\334\022<\006<H=\217<\226=uz\275\274+\366h\275\236\356\264\274\276Z\203=q\374\327\273nB\021<\371\250\033\274\200-`=6\357\036=\025./\275\362-\255\274\301\337\023=W\016\346<\333\352I\275\236\362\264\275\017\362\331;}\032\225=U\326\204<\223iw=x<\263\274\373\347:\275\023\"$\275\241\3113\275\243!\020\274\226\326&\275\275!\273=nq\201\274\335\215f<%V\271\274=|R\275:\273\232=\261Z\232\275\024\370\030\275E\351u<AG\270=c\232\205<V\234\306<\177\036\267=\300\014Y\275{\344\302\274\307\242\232:\225\215\305\274(\215 =2rQ=\255\025\250\274\350\270\236=\361\001\246\275\340Y`\275k\224c\275\003SA\274\314\316\213\275\017\234\217\275zC?<\244w\311\274\367\240\224<4!\'=\277?\251<k\271\242;\024\253\241=pss;|\004\256=\236\215\247=S\362%\275\203\330o\275\265\255>=\334\244\203=mS==\357\030\273=&f \274\\\234\3139\r\250T=\205\n\203<zj\316\274#c\241<\302\031\260=q\340\211<\325\2751\275\244\0325\273r)>\274C\005Y=\260\362\227<\316^i\275$\244<=u\214\311=\024%\235\275\265\252\036\275\324\242I\275\347\026d\274\2431\361<\377u\205\272Or\201=\234P\231\275}\222H\275I\037\030=\360\202k\275!&h\274\372\271\004=\014@<\275\034\223B=E\306e<E\270\214\273)\000\016=9P\233=\374\362x=\252\212\225<Q\3434\275\211b\342\274\372Y2\275\232?\207=\303H\036<\242\257\\\275Ta\203<\024\221\237\274\337\247D;\374\202\334=\273\231C=\264\207\240=b\263\211\273\007E\264\275\316?\361;!\010D=_\350\353\274e\021\307=)\220\221\275E/G=%e\341=_S\374<\354l\317=/\'\222\274\313\344\352\274\327\271a=\0259\033=w\331?\275\300\316&;\022\335\301=C\371\303<IB6=\273~%\275\2354V\275$\270)\275\251d\335<\327i\217=\027h\226=G\332\237=\272\224\022\274U\252D\275\342HB=r/\306\274\376\315\254=?~\332\274H\342\330=\352a\022<%\363\201=\025A\233=.X\250=\2143(<\357X\310=\307j\257\2747\031J=\341\034\241=hu\004\275\357\230\252=\266\327\202=J\306\035\275\302\3758\275\006e\306<\255\325\235<\252@\016=?6\200<qu\302<W\261\226=\037\244W<\220\307\317\273\211X\343\274Q\334\273\274k\266\253\275\305\256\n\275\243\004\202=\266w\213=\344\360b\274\202\342\213=<\032\037=N\330\314<=;\230=\021\350\207=\245f\020=\214\363\306<\363\263+\275\336\302\320;\2441\336<J\235\023\275\207r\036=\333\021\227\274\210Kq;\000>I==F\034\275\340\244_\275\270\207\315=\224?\347;\355\233\332=\237z\033=\265-\336=\'\240\001\275n\246\200=\232\235N=I\306\241\275\316\240\t<\363\213\030;.|\256=\035\376\233=I~\256\275=\316\227\274\0246\031=\264\374\311=\013~\210=\016\036u<\022\375\210\274b\203,\274\022\366\027=\233\033\262<\371\033&\275|\207\006\275\355\352\272;o\271\240=B\357X<\277\346\326<\303\\\361\274\030\275_=\027\321w=\272\336\t\275i\022m\275y\3341=8\337\237=\306\203\201\274\344_\031=\246\251\246\274\221\234\222\274\226X\251=\377p\003\274\023\025\\\274\250\342\360<\016o\343=\320\256F=\320\242\235=\020\010\r\275\010\314G;Rh\341;\216\212m=\323\2628\274\225n%\275\346L{=\240\231A\275\206R\237\274\'\365\220\274\027x>\275Q-\310\273\260\325\377<\346h\2058\236\000\255<\361\022\020\275\002\004\264=t(\205=\250\r\217\272S2\346\274\202\266\031\274\327Ci=G\036\337=\036\223\205\273\3040\333\274\255B\200=\340\252\262=\203\237\250=\312\364J\275\246\374\233<L\014\305\275a\253\240\275\021b\023\275mu.\275\367cI=j\005!=\020\000\255\275a\377u=\361\310S\274A\005j=Q\237\254<^H\031\275\304 \353\274\346\353]<\305\326\014\273\013bS=&\246\266=\006\220R:\177D\352:r\336\037\274\277\025\252\2730\351\225=J\306K=He\326=\326\013\220;.=$=\246[\231<K\021,\275\273q\002\2752\377\032\275\253y\002=v\350\232=\267\352\317\274\365\035\n=\032%k=H\r\231<\330|\031<B\326\336=mf\310=\227\372\003=(\263G\275\372y\321<b{\216\275\217\220\025<E\374\261\272I\261\344\272\330\246Y<I\230\316<r\250\307<%^\026\275L\0225\275\351<\203=Pv\314=\271\034\032=\344\021\020\275\326+\021<\314\273S<\033\264\321\273{.3<\263\343\236\275\231\330`=\332q\202\273\020\364B\275\261 \310=\025<\205<K\201{=\314\213\200;\213\370\252\275`|\212=\203$D\2752\323\217\275qe|=xT*\274\234\304\202\2757&\231\273Dj9\275\356s\213=_\035\002=\2155U\274W_D=\276\343\254\274fD\037\273\016T\374<\203}C\275\205[\207<\010c\224\2750\346j<\005\332\r=V\305=\275=\226\275\273\345\205\331\274\272wx<\355\217z\275Y\267\302\273\253h#=\275\234\235\275N\n#\275\314\250~=.Ft\274U\213\302=b>\302<m}\307;%\317b=\233\032>\274\244\244\314<\333\244\200\273K\256\210\274\206\251\211=\033V\232<\364Ju\275y\222k<>\201\336=\024\2555\2752\270\322\274Mw\263\274\323\2236\275\245[@\275>tW= \306b\275\0172\237=\204C\267<;A\207=y\007,\275L\332\014=\245\341\301<N\370><\t\311O<\001\026\005\2752}\232<_]\230\274\245>\340;\205\026\321=\235\252\210\275\325ul<8\271\263\274\316\306\350\274\216v\024\273\312^\307=\272|\033=\025\350\312<\347K\013\275*\370<=\341\\\017=g2\321=\340\307\232=\274\221\345<\214\3632=v\310\315<wc\246\275l(T\275v6\225=\355\222\034\275\\\300,\275]\202\244\2727\213\003\272\355\213\031=\201\302\310=]n7\275.\271\001\274\360\230\010\275\0176T=\371\205\244=\347\024*=VfB<\213TB\274S\327a\274\206\356\316<\036o\220=\371\217(\274\247\263\001=\314!S=\222\303I\275\222\233!\275\253Y<=kp$=\030D\345<?\313 \275G\256\336=0\303H\275\271\244\017=\376\332\002=\304:\327\274^E\352:\316\274A\275\237\313\314=\265o\202\275\234\205h<&\335w\275\210a\201\275\010\310\330=\244v\r=-D\305<v\027\326=\245)\204=VY\302<\314\271\260=\330{\263\271\203d\220\274S\256I=\270\226\246<\260x\324=\234\375\200\275\233S\n\275\276)B\275\330\261\203=\373t\332=C\326$=\353;\261<\006\333\224=\033\177\276=\303\254\021\275W\232\240<q\024G\275\211;\216\275\017\262\372<\211\220\242<\340\364\026<\327\375Z\274\037,\275=v\312\337\274\336\007\373<\007<}\275\030\027\032\274\276R\224=\3218\314<E\371;=.\003\210\2758\350P=\215\357\246\2732A\240\274\3111\010=\376\361\235\273\254\347#\275\301\307N\275\277y]=\231l\'\275l\224\t\275)x\264\275\230\233\324\274J\337\373\273^\010\037\275\212\213\324<\346|M=\217`\356\271\275\245C<\342\020\267<\333\000T\275W\017\227<\201\205/<\272\302\251={\202\354\273;d\214\274L\204\214<`@\237\274} \261=W\3273=]f\262<\355\372\274\274h\020\274=\214\337\271=\315*\222=>\302\241\273j\316\301\274\370\231\210=P\315\232=\376G\202<\237\373D\275\266\321\241\275\307\312:\275O6\253=<H\257\273\374\023F\275*I\346;X\337\231=GS\t\275\263O^\275\301\360\275\270\226ld\275\372\242\236:\003\000\201=\035\357\037\275f\322\200=\212\226P=\367c\266\275\345>\004\275\313\335\274\274<\215\256=\231\002\254=@\243\001=\031\203a=>j\274=\032\373\263=\000\316/=\310!\n=\250C\213=VG\270\274\217\233\356<S\317\340\273\247\363\212\274\312\270\305=\223L@\275\033\352g<Li#=:\200\177=l\211l\275~\260N\275\372\314?\2750\325\024<w\357\215=2_\325\274\353\\\233\275\245F\031\275\336\260;=\036\005\024=\200#\230\274\330\342\006\274e\025\206=\355\263\212=\036\006h=#T\211=\374\245g\275t\247\017=t\216\207\274\332\234\342\274da\204<X \207<\032\261H=\331\205\231=\260\017\276\273n\352$\275p1\026\275\202\216\035=\320\345\320\275\022A\257=#\315\223\275@\376X\275a\372{=)P\223\275\277]\242\275\021\013\010\275H\266\244\275N\301\217\274*\377\035=\210*\\\275PX\025=V\373\306\274|#\224\275\3765\250<\032\376\333\274P\373\203\275\237\327\227=Fz&<\024X\223;\263A\032=\207\233\210<\311h\212\275\236[\213\275\n\226\332\274\025\341\\\275\002\205\343\2745\361\245\274\231uA=\n\215\373<li\236\274.\306W<\213\251\337\273D\266\006=\272,\233\275xU\263\274\0356\257=Z\346$\273\370\222\316\274\177\177d=\304\354C\275\200H\304=X\367\232=\360\352;\275\246\376\021\275\0101\034=\255\232\001\274I\014\266=H\301R=\264\333\002\275\371;==j\322\311=U(\326=|\351\215\274a\250\r=4=\253=*D\300=`\323L;]z\000=>\003Y=\245u.<\321\0076=\332\274\340\272\021\201&\275|:\177<\022p\273=\312\217\003\275\000[\274=\034\265\250\275\006\367\014=e\3638\274i^S\275\215\016M=\360F\014<]p~\274\373\312\262\275\326\326@=\366\366\344\2742aw=\024R\275\272\330\265\275=73N\275\246\t\022=p<\370\2736\234\030=\203n\226=X\304\227\275\375n\243=G\235\205=\'Et\275\244\377\307<\320\"\253\274\323\365\222=\340\203\223\273.^\235\275\363$\243\275\0206\232\273\2605\303<\221\207\233=\226\005#=\364\377\336<\300\314`\273Xu\307<\256\301S=(:O\2758\211\022=\300s\270;\220?\324\273\206L\031=$\254F=]\016\225\274c<}=5y\306<Ig\234\275\006\263\256:\2546\005=1\'\235;\003\235I\275\202]x=\325\253\376\273\267d\327<\241g\021=\027\177\035\275\375\001\035=\346\260\231=`x\037:D\023\013<\263?\204=\223*f<#\014\227\275\2706\211\275\303G\253\275e\223\203;M\'\230\274D\272,\2740X\301\274W\'h\275\000\032\331\274\312\003\200\275\220E^=\r\361\322\274\032\037{;z\370\205\275\257P\305\273\237\034\t=\030\"\031=!T[\274{\302\200\275N\024\257=i?F\275K.\375\271\257k\227=]+\272=\361\333\007;+F\320=\246\340\246=W\265O=^\346\344<\204\254\013\275\360\373\352\274\2019.\275\200\333\370<1\366\201=\317}\341:\274\332\316\274\236\262P=qp\301=\022\037\211=\255\307Y\274\362j\311\274\016}\r=\330\225\301=</\220\275\301\373\037<\335u\366\271\267\024D\275Ta\210<)/\026\275IB\361\274`W\023=\325\235]=\225\\\231=\037I\230=\377\265r<S\211\271\274q\321\023\275:P\241<\366K\005;C\021\230<\3655\203=\236\334\310\274\341(\003\275R\340\214=[h\024=\223\227\245\274\234z\362\273\225\003\240<{\334\207=\027\035p=lM\213\275-\"\026=\313\304A\275\216m~=\246\210\324<-\256\020\275\017l\010=\312\335\235=\240\177\026=\235\321\246;\0167J\275\214\341\004\2756\207\200\274\032\217.=\346\201_=\215\340\241\274\312`\300=\261<\267=\363Bo=\004\027\275=\037`\376<\247\223\320=\244\234\226\272X\226\363<\313\361S\275\211\353\005<\251\277\'=\260\257\r=K\'4\2756\255\r=\254\244\022;\200\363\351;3&\037=\353X\333\273A\271\216;\031\211\224=Y\337\214\274\202\214g\275?\304\024=\334\004\252=\234\341^\275^\313\225\272\332qL\274\2572y;\234BC\275\271\364\251\274Rk\'\275-\225\030=+\340\266\273\024\252\366\274G0\313=\366cb=\357\313\267<\325f\\=>p\356\274\016s\253=\245\244\204\275\232\256H\275\341b\262=\235\352H<\r\304,\274\0133\004=>\\L<g\021\237=(\016\237<\321\332\331;\357\026\342\274\001\020\252=\022\355(=1\344X\275\036lV\275\277\0055;\r65\275 d\341\274\216\221s=L\221W<6\255\270;\261W\247\273OCk;~\275\251=A\3674=F\365\222\274>\"7=\260\221\303\273\273\013\237=\232\277\207\275`\334\241=\342\363\205\274\010\266\3329\216_\270=\204\344\210=\325\251\205\275\177\204\270=\262D\274=h\3045=D\300\252=\307\000N\275\242\331\031\275\031\227~=N\314K=\233yW<\230D\020\274\332\275\017\275?\247\253=\215\352&=\36179=\256\366\372\273\370\266\223\273\207\004\245<\251 \257\273,\312\023=\233\022$\275o\261\034=\\\272-\275\333\364\346<y\261\277=\362\345\004\275\234c\213\274?\014\246\275\311f7\275\347\222\021\274:(>\272t6I=\027\006[=W\367\313=\026\204U\275\340m\327\274\205\333\276=i\372\033<\261t\006=k\215f\275\303\334r:\035\366h\275\037\327\276=\272\265\005\275\251!\275=(\030\265\275\250 \025\275\222\377[\275\205\016\025=klc=\0060\240\275lD\314\274f\237\320=\347\316\261\274\311}_<\274_a\274v*\243\274b`a=\246\223\261=X\253\327;\210OJ=\312.\353<K\271\205<\350\343U\275\330_ \275d\336\216\274\201ZC=ah\210:ES\n=\020\236\013\275\336\345 =\224)V\275\353\324\200;i\220\323=\315\265\207\2743\327\033\275\274/\256\275\003G\202=\221\3066\275\312iy\274\374|r\275\361\300\265\274\314\004\253=\332\307j\275Kt%=t[\037\275S\332\256=\233\214\200=\250\347\255=\374\244\252\274\371w\035\275\263\250\207\274\037\340\201\275/\321b\275Z\222\005\275\331\210!\275#.\233=oN&\2752\364M=\370k\331=\354R\241;\205\266,=F(\324<r\341_<\241\273{=\350\372\251<\201\253\212;V\205\265=\036\213h=\315\361\354\274r~\335=\372\357\227\275\214M\231=\330yw<\210\327\214<}6\346=\323\306\337=\223\013\032=\035\252\222=\004}\322<\344\315\377\274\316C\006\275\tc\035\275\305wr<\272\310?=f\224\r\275P\250V=\371\276\276:\264\271\270\274\002\014\244<\032=\363\273\242>W=+\313\324\274\213\257D\275\342I\263\275\206\347\266=e\232?=\202\360\242\274\311\304\201=\001a\206\275~>#<0\220\271<Q\314\346=\275+l=\316\354H=<L\000=\336\336\254=\343P\210\274\217\225\235\275\2763\203\273\357\266\025\275(\247\246=ds\330\274\230\324\201\275\312\226!=6\303=\2759\t\r\275\024\031\\\275X<\002\275\337R\235\275\370Y!=4\016\311\274&\223w\274\332q=\274\372\373\030==\030\277=H?`=\000J\006\274K\267\204\274C\254R<n:\333;b\361\210=\310U\227=\277\326\261\275:\367E=\234\377\222=\253\246\035\275\255\272\306<lh\225\275\035J\026\275\247\006e=\002\216\214\274\255|\263=\221D\326=|J\267=\376\242\252=\336{L\275\220\325x;\006@\002\274\354\330\215=\316\363?;S\002L\275Y\342\311=O\272*\275\347\037\216=\330\241{;.\207\242<\336\341/:\366\224\017\275c\337\217;%f\221=\204\031@\275\271\3239=\370\032\307<\372x\000=\227E\263<\203\202\227\275\006\265f=\267\037k=\236A\276\274\3152\225=\177\0322<q4\205=i\230\263<i\322\216=\rz\336\274K\000\016=\"\310\201=p\206\242\275\323l\211=\035\n\241\274\365!\202\274\r\035e</|\337\274U\340\217=\365\262K<\221Ku=W\200\311=\026\354\255=\250[\312\274i\003\240=\357t\177=l\022?=\221K\253=\336\337\345<\245N\033=\32687\275B\031\272\275\276\355C=hc\262=n\212\024\275\207&\246=g\223\240=A\221U\274T$M\274\245\214\001=\317\274\243\2738gG\275\254W\264=\322\366B=\227{\251=\ng\'=J?\253<\241%.\275\273l\240\275\266\320u=Y%\207<\336\321\270\275\3342\367<W\247m=<B9=#/\t=|\374\002=\n\274\037<\344VD\275]\\\031\274\316\036o=\034\031\221=3z3\2752\233\205=\201\346\300=\213\031\240\275\244\360\331\2747\335\316\274?\032\203=+f\200\274\352nT\275\307\255\3139\256\027\246\275S\032s=R\247\222\275\204\235\001=\325rk=\001)C<\001\274\207\275J\266[\275\256\216-\275\332\032T\275\221\220\300<\304\3316<\372\215!=\270\377\226\275r\266\330\274\\\004\026\275\363\242\261\272\215\202\"=W+\342=\302\022D\275Y\343\275=O\347\206\274\342\236T=4\341Z=J\230c\275>\313U\275\342Q\334\274&K\310<\222\246\273:\005-\016=\246\017%=E\353\373\274\316}\252=\263yJ\275\330\370\202\272\202\244?\275&\200L<?\362Q\273m_O=Am \2747}\263=\226h\351<FQ\024\275\3259\260\274\307\001c=6H\211\275\020\201\232<Md]=\002$y\274-\235\256=\250\206\214=\001\314%\275\264\364\333\273\364O=<*\261\013=\272\313\307=\004\341\003=\032\346\263<x\357\263=\332\320t=\250\301\202=K\257L<\336\230\303;4\033\234\274\232\034G=\001$\312<K\371i\274a\372Y\2746\230\332<=\255\036\275a>\315=U\302\254\274U\257^;\244\2403<\026d\256<\216\010z\275\304u\004=1\0306;=\372\342=\244\214K\274P\220$\275u\327\270\274\231b\261<\016J\220=a\255l<\r\027\315=\005F\207\275\236\224\"\275\334q\223:\222\020\263=xHI<\327(\236\275\251%\\=e_\020\275\340h\342=}\216==\254^\033\274\272\376\321=u\320q\275\005\226\226;\023 g=8I\244=\261#\002=\232\331\316<S&\031\275\217E1\275\363s\250\274\376)\222\2743Z\335<\233\235<<\377\000\200=:\345\317<\251\277 =\373>S<r\213\034\275\257\313,\275\017D.=\010C\220=\317\2074\275A\257\\\275\233\206\272=\361\201Z<\\\3441=*h\331=\024\344\245\275\021\243\222=a\267x\275t\344\027\275,\240\274=\305\005\002=\n\\P=4\215\331=\3331\373<\005\016\240\275bg\205=\342o\324=DGL<\201\350\033=\244\243\225=\303\374\245\275\306\331\327\274\271\"\315\275;\234\237=\006\177p\274\361\022\225\274Or\314<\364\020\213<Y\017\022=\304\025\327;\325\262X<\031Z!:\036q\210<\301\321\316=\001&\035=FH\276;%\024\335<\037\\\261\274\362\247+=\236\330\347<!T\337<&7\326<g\346\253\274v\207\226=C41\275s\rZ=\353|*=K\016a<\213<\337<\350\313F\274\253\361p\275\246X\214\274\000\347|=[f\312<\274\274\260=xB\251=*\272\231\274\2563\253=;\371\262<\322\036\254=\333\316\357\274\225j\277\273CZ\032=\0377%\275/\037\203=\236i\206=\034a\013\274\234\233\267\274\013\312\276<\262\220\230\275\035f\t=P\001\245=a\320\351\2749q\271\274|\276\014\275\322P;\273P\013\306;Th\350\274m7\254\274I\374\343\274\026\251\220\273\231s\357\274p\316M\275/[#\275(\313\225=\354\035\371\274\255\370B=\273E?\275\245\324\244;v5?\275\377\177\210=\362\230\236\275m[\217=\253\277f<kM\302=\350\201_\275\2761\200\275s5\304<Sq\322<\213^\024\275\252\326Q\275`\357\211=\020Zd\2758\257i\274&9\227={q\223=}t\331\274\032\301\250=\034\222\244<\264\257L\275(\323\321;\2221A=\274\320\264:}|\027\274\235\274\256=\301Y\203\275\236n\325\273\343\025\234\275K\336\257=\316\341\024<\270*\247\275i\305\210=\374\2010=\211\301\321;2S\270=\262\'\232;\032P\202\274\227\300!\275bL\245=\232S\341\274*\241k=<\372\351\274\216\020\232<\225\006\303=\322Y}\274\247\236d=0\377~=<B:\274\255\260\314=![\304=F\247y=\264\324\255=\003w\036\274l|X\275\363\327\246=\007\365\230=\206\204\'\275?`H\275\224\330\255=NX\366\272R\007\305\274\261\353\'=\206\256\207=41:=\246\t\027=\030z\032=-\032\243<\222\nB\275i\024\006\273\236+\311;\313\024\023<\322Y\237\273m60=Q\335\271<.U\343\274j\377,\275\360K\267=\371\253\337\274\2548\024\275\n4\274;\212u\311=N\330X=\0023C=\220a6=4\313\266=41K;\322T\265=`\221\232=\014\014\036=0\016\000\274>\330L\275\356\231\250\274\344\217\351<v\203W\275\300F\322\273\253\231\243=\370\241\276<|\026\004=\3369n=\264\272\244\275\342TZ=\3402\010;\240\0330;\340\276K<\206\2104=\222N\207\275`\366\310\274\014\2300=/\t\216=03\344;\330\321\r\275\300\3734\273>\227Q=H\\\013\275\202J\002=\3134\215=\031y[\275\303\377\273\275`\204\345\270\226H\215=\264n}=\0054#=\001\311\t=\203p\333<\237\3555=k\377,\274\234\341\244<\225\273O=\335-\027:!\'\305\274\250ch\273\014\311\212=Y\322\257=\246+o<&\024p9#\260:<\035\316z\274m2\r=A\277\271=>\031\230\273\360\206\214\275\021\247\213;\345\256W=\217\302\034\275ibA\275:\341`\275\211\177\277=5\004]\275\010a\221\275\014\243p\274\342\223r\275\374[P\273\2059\220=n_`\275km\363\271p\"\037\275Q\336i\275\315>\024=(\307\304=\343\325\326=KT\332<\306*O=i\371\207\275\037,J\275\355c\307=+N\261\274\237A\352\274\301\316\231\2747\210p;\221\003\212<_(\205<\220j\317=\"\222\000=\235\n-<\362\276\257=\273\327B<\222\001\n\275\225\"7\274\036\363\220=e\371\312=\311*\275=\345/9\275\337\244\\=\224\177\207=\216&&=!Y\301=\235\306F\275Dq\212;\360\027K\275\003\367\304=f\323E=l!\243<\253\367<\275f\005\227\275(\343\243;[\242\265\275`l1=[Q\306=\341\007\230=\226y\265\274\346\317N=`\230\260;K@\214=\026Q\225\275rJ\024=\323U\207=\275)\222\275\200V<;\0351\235=\345n\244=r*P\275\230\220Z\274\232\027\235\275Uj\224=p\027K\275\353\350\213=\254\233\232\275\320\014\354\2748\266V\274T<\352<\254N\357\274\304<\007=\246`V=\347\316\006\275 p\037\275 \rf\275\000\200H\270\306\233s=(g\027\275\013g\026\273\354\021_=\037JB\275\033h1=\177j\353\274\340\314\201\273\nt:\275\302\236\366\274\177\351\227:ys1=\376\030.\275\250@\033\275\376\205\266<\177\342\302\273\035N\306=e\n?=\213\270a=\363Qv=\204\347F\275\233\323\265\275\240T =\3274\242\275\233\267\371\274\316,\006=\021s\245=\306g\244<7\226\024\275\014U{;\271\025\202\274\312\201J;\203\202m\275\000{\331<\2647\266\275\234U\274=I1S=\304\244\023=S\277\270=\266\t\221<\t\355y;\333s\215<\356\274\256<u\350R\275L\353\200<O\220\034=$\n\220=\310\036\020=\254\255\353\274\022\225|<\371\307%=\336\251\206=&\326\017=A\306\305=\t^f;\016\262(=\360\010\377<i\370\025=\216\270\316=)\360\001\275\354n;\274\324\375\261=\230\"o\275\207\263,=\255\\\307;\335P\221<\263|\327=\373\220\215=\260=\201=\'\336^=\000\270\337=\270\370\373<\310/\010=\333\245\241\273f\351\341\273]\242\022\274$)\256\274\337_\334<N\327c\275\305\224\207=\334\000\217;B\n\256=\222Wk=4\361A\275\034\334\3538P\376/\275\032=\222=3\371\304=k:\212\274\354\340!\275#}\006\275\267\267\021\275\027\030M=k\205-=\000\207\244=R\036*\274\025-\236=\247\251\222\2755J\256=2\325\252=B\302\'\275E\235 \275\352\353\207\275\223p\324<^0d=\357\252\213<\306\360\201\275\371\324\356<`\354F\275\367\355N\275m\247\356<l:\235<G\216\267:\2754\177\273N\274\260=8\220\320\274\301\365e=Bs\251\275\302\3240\275\261\025\226\274\241[09\302\327\220\273s\\\321=R\221\243\274\245\311\275=[\025\201\275\336\217!=s\246E=O\022\371\274M\275\222\273\213\354\';\364#\365<t\'}=\005\260\023\275\231\222\241\275\250\2400\275\356\334\274=\235\306\322\274@\237@<eR?\275 \334\035;\244t\253=\035\023\006\275\302\233v=\277\030\231\274\n\371\206\274\360e\017=J\364.\275\001\366\303;\261q\272=\304\262\313\273%s3\275\264e@\275&\017\213\275q\347G<#\326\303\274\347\3178\275F\262\215=\n!\360\273g\247G\273{\2065\275p\217\206=Rl*\273?\030\334:\221vx=\251\243\342<\352W\352\274\354k\000=\035_\204=\025/\005=\345n\210\273\334B\315=\271\337\257\274X\251\351<L\024K<e\367\r\274f\203\250<0\272\214=9\360\334=\276\347z=\301\233\003=>\364R=\265\014F<\372s\021\275L\2729\275\257\000(\273u\333\317=<\366\020;\232\010\300=+\035<\275cL\262\275h\322\253\274E\366\202<f\331*\275\277\243\263\273\255B,\275\344\255\273=\330*\200<d\0323=\377\313\t\275~\203\377\274V\026\025=\322N\220=\237\242\227<\276\277\002\274\343{&\274I\320\272=\343\025\021=\253n\356;f\272\264;\006\025,=\200\031\244=m\323\214=\222\354\207=\334\223\304\274A5\304=w\263)\275q\\;=\276\373\356\274\277r\207\275\024,_=\024.~\2750\021F\275\304(\254<\353L\323\274\334\217\004\275v\356\273=H\255\006\2732\010\032\275)B\331\274l\020\204={\353\031\275\325\316j={\316j\275k\217o=\256\230\262=\305S]<\237\016\025=\255<\223<t\177\324=\335\202\340=t\331m=+\245|=+\321\246\275\007\323\354<\203\215?\275a{\213\275(j\217=\017\237\257=\323\020\323<%\000g\274\203\317\343<\205\027\016=^\325J=j\223C=w\0107\275\267\235\321=V\212!\275yF\205=\"\376\246=\336\214\010\275z\276\307=\333*j\275I\215p<l\311\250<\\A\215\275\245\214<\2755$\324<\364\\\303\274\332Q==\324\023\336=\037\3316\275@\006\352\273\222H\300=\224sS=\251=\236\275\350?\320=\333L\266;\013[\223\274\352\314\275<\274Y\217;;j\273<\037:\260<\206\257\344\274\241\245\246\2748w\212;\345\265\310=p\352\212:B\332U\275\025\026\221=U\023(\274\322\306\207=\224\203i=\207j\016\275\2359\000=\263\312\264\274\364\245o=\003\331\023=4\233.=\221\232\240\275\000hj=\037\257\216=!6x\275f\312\226<\224_\003=j\022Q\267\211\035\263;\352\237R=`.\337\274\021\022B\275\030\207\265=dB\024\275\330lN\275\331\262\232=\033\246\031\275+\036\006=\242K\023=5\367\305=\214\374\031\275\255\373/\275\223n\334=]\261\224\275\356\313\222=\"\266\204\275\2210I\275\351\367\205=\3166\266=\263\251\306\274\214\373\354;\222?\237<\232<e=aM:=\314OR\275\356\020\277=\203[e\274\"g\256<kD\254=K6\260=\215\204\333<\026\264\243\274WO\214\274b\370\351<|\246\013=\231\330\216\274\014z\314</\361a=\255\260\236=\200\177\325=\t\023\305\2733\027\352;\375\232\242=\221V\221=GH\034=\351.\236=\246\036\323=x\301\213\275\357oG\275\331\275+\275y\276\234=\010\2615=*|\025<\333\205\211<A\305s=\360\347\310\274\351Wb<\356\334\005\275\232B\215\273j\372\007=\362\227\276=\rZ\321<\307^\214=0#\020\274P\202;\273\252\362\303:{\330\014=\001\236O=SF\340=\227\t\013<\224j\372\273\320C\357<\036_\005=U\316\200<\316*9=\344\262\362;\232\010;\275\237.[=\253\245n<9}\216\274\"r\346\274v\362\277=\326\274!\275~\355M;\2122t<\030r\337\274R\300\345\274\300\310\231=\017\314\341=\\}\005\274\364\211\245<\033K\265<\030\320\262\274\326v\300=\202\024\336<\356v\004;DS\337=\246\372\014\273\0313\331=\216A\231\273\307\032\254<\366m\361<\307\021);\006\367\200\275\r@3<\364\314\342=0\300\301\272\304\002\242=\214~4=\264\260\334<\265\303\005=\332\222\223;\021~A\275D=\336=\324A\315=\370\005\317=V\231\207=\025\016\316\274\013B@<W\355\267<\265\267\242=G\256\207=\305>\263= /\030=1\204\317=\216\354\257<gY\n=\345\201\221=\212\'\215=\315\276\356:\221\355\240\274\001\313\177\275#v\344=s*\324\274\272xO=\034\341I<$\177m\275:\201\307\274\276Q\301=\300\315>=8\001\222<\260\207%\275\372\014,\275J\245\360\273\'F|<7\335\013\275\333`\000\275@\342]=\313T\261\274\366\333\347\274\022CV\2750C}=Cr\340\274\001pD\275`\003\214\275w\207\301=\371\220\342\274\2544\331<h\036&=/\244\260\275\270\270\214\275\271\r\206<k\323\036=\240\230s\274\ng\033\275\346\3540\275 \026\216=\253\274\236< \2636\275\207\262\007=\204\3266=\357\365]<\226\350m<\224Bk\275\323M\242<\356\235\310=\003{\202\275\2276]=I\275\312=#\373\226\275\303\'\231=n\332X=\325\224y<T!L=*\245J\274q\221\017<c2\226=\362\031 \275\266\344V<\362_\345<DMT\275c\034\274\275,\254P=\217\204a=\010\030\272=q\243c\275\373\0334=FA\316\274\223\274\215\272\231\245\334=&\212\264=3\320\222=;\005\r\275\243\212\203=j\314\002=\013L\344=\330O\"\275\376\305l=6\202\215=\220\344X=\314l_=n=y<\332X\213=\336\373\266=\322\244\027=Y>\273\275\014\341\225=\373\264>\275\031C\257=0RS\274fBN\275p\304\212==\350\261=\0353\262=N\227Z\273\317\'\374\274aT\261=U\246\217;(l\345=\360?x:N}\250=\307\330\325==O\235;@\024\336<s\016\266\275:\200a\275\031\330@=\370\014\271<\200\2320=\002E\207\275Z=\231=\227\370\202=\257A/:\362&;\274\317\035\360\274\023\367k=\n-s<R\246\024\2755be=\260\"\016\275\262\364\317<\337\331\034=\000\004T=\311Nx\272\313\346\222\275\202\t\320;C&\'=\310\334\262\275\252N\232\274Gl%=\223\2446\275>\346\333=Hj\334<~U\260\274\225\037\233;\036\0369=\374\242\252<\3103`<\n\313\247<B\201\261\274;t\027\274]\300\256\275\264 \261<\006\276\023<\004\004\207=\365\270\272=\311\272\022=\000d\344;\251\361&=_E\025\274\002Z$\275W\023\206\275h;T\275\317\371\247=\270y\215\274$\241,=*\013\272\275\221\310\321=O\353\303\275\367I\267=\312-\203=}+,\275\224\006\310=\243^\273<=\365\340=\315V,\273o\252\241=\335\325\312==\005\333=\332\364\023=[E%\275N*\313=\374Q\"=k\326\020\274\321\3524=\036n\203=\\d\221=\033z\277\275\262/\023=W@\302=\013\003\235\275&d\337=GD\212\275\371\306\323\274\203\n\314=\204\021\224=\326\255\313=.Or=\344>\263\274\231`\r\275nE\276<\350\301\232=O\'E;\364U\201=\216\317\260=\'0\021\275\255\317!\275fS\263=\253\304==<2\362\274\206\246\301=\2057\272=`\216\373<\301\022\035\274\330\205H\275_\2067<\336\177\003>\272\222\002\275\360\027\260=\267\310\211=\"V\230=\335\340\306<\350\213\210=\304\t\257=\2073\302=\277\234O\275\207\316\033=\001\032F\275\277\363\032\275\314\346\356\273\273u\347<h\371\274\275\320\010\273=\321\230\224\275>\365U=\034m*=\254\241\246\274\304l&=[|Q=\306\037\327=e/!=\272k7\275\204\302\206\275|mX\275\245:>\272\351\262U<q\320H\275\277\2776;\322_\235\273f\372\256\275l\001\252=;d\360\273M\347\330<=\365\205=\265o\004\273\347\035\236=/\306\233\275\363\200\006\275\362\352k\274%\266\231=\025\t\233=F\362\260=\277\236\005\2745\243@\274Aq\272<\227\204k=\200\"\\\275\201\311\215:$\316\304;\366\314B\275~\377x=\007S\255<\222\307\007=\245\207\237=N-x=u\355\254=`\331\022=F]\256;\366-y=\240/I<-\030\312\275\322\3775\275\333\035\221\274\010\002y\274rBP\275\255e!\275(\230\200=\244\340<<\237Y\005<\241\357\300=(~\305\273\217\211\223=\276A\333<t\331\264\272\337 \200;\031\365\214<\036\267\005=\'\023\255=\271vd<\275\223H=\217\374\336=[\364S\275J\"\355\273,\217\247=\330k2=B\324\242<\274a\230=\0346F<-\032;\272n\343\317=\264\233E\275\021\026\233<\335\260\220<\032\337t=8L\240=gU$=p\177\263\275Z\025\333=\342i\354\274<\r\304<\247\246\241=\246\002R\275\210n\237\274\342\016G\274\334\314\310\274\306X-\275\262\256S\274*}\342:N`\210\274\022\304M\275\350\355\n<b\336r=\242\362|\275\215O\243\275\300+:\274\376\334_\275x\013\334<\350{\361<\353\316\202=\202\246\r=(Uj\274\017\227\206\275\025\365\033\2756\022z\275\341\210\214\275\347^\212=r\225m=\032\360a=\030&`<hE9\274 \340\013;gI\235\2750x>\274\362\033E=\352\361!=\260]\373\273\300\330X\274 \212\272<\263EQ\271h\304a=\"\000\300=\3338u=\3321\205\275\016\333\001\275\020\177\014=\246\2742=X\004\262\275\275:\270\274&i\362< \'\371< \263h\274d6\t\275e\"p\274h=\035<\224zS\275\321c\212\2756F\204\275\316C8\274o\324!\275\031Zl\275\3440\300\275z\215.\275\340\021\017\2757\375\036=2\\A\275Q{\270=\274RD\274\307\020\232=\355J<<\206\035};\355\361\347\274.\351\212\275\351\314\263\275\354f\364<B\234V\275/z\206\275\263A\210<\230\232v=\331*\007=\331 W\275Z\032\207=\330\203\272\274.S\340=Y=q=\265a\254\275\031\230\330<K\224s\275\362\360b\274\221\317\310\274\323 \230=\336\346\216=D\254\252=1\007\333=\247H$\274p\315\271\275\336m\r=\367=)\275B\006\260=\245\020r<\r\026r=\207^\327=\233\266\226<\316>=\275e\250,\275q\253\003\274\244\035~=\357\323\034=\205\377\377<\323k?=\215\260\256=SH\232=\377\013\214\275\276f\336=C\0223=\331\362\350\274e\220\217;\021M\305;\372[\362\2743vl=\274r\272\274\2247P\275(\237\240\274\3567:=\211|\211=\220I$=\366C9=Fs\\=\2407V;\\a\373\274l\220\323<\272\243m\275\204S\271<\236\017\320\274(S\013=`\021\256<\306i?=6q\010=\362\017^=\t\306\245=\340\302\r=F\316\333\274\020r0<@\265w\274O\\\236=\206\215\311\274\000\277Z<\314\316\333<\n\rl=\361a(\275\365!\331<\363\337\225;\251;\214\275\311\243\005\274\2432\007=P.\207=!\\<\274\226\215\341<\250\326I\275v\003\277\274\270\001 =\370\305$=\272#H\2740\262\201<\3551\373<A\212\216\271\262U\344;\224\363j\275\332CB=U-n=\214\263\000=k\273!\275\243\033=\2757\354\277\274\206\227\376\274\341;\020\275\342\232\"\275\216 \362\274\313H)\274\240\377%\275$\272\300=z\234t=\3250H=m\357Z=\332\365\331=\001T@<ul\037=]r\034\274\234\337\031<Q\347\316=\300\341X=N?{=\rU9:<\021\"\275\013O\277=Bw\315=\357d\371;\206\204\267<r\036\253\275\003\334\270\2759\212\204\2749\307\306=\336\373\326\273+\3229\275\224\276\252\274;\312\223=\347I\331;\027Z\373\274\251\357\266;\230=\264=F=\217;\256\026\214<ep\220=z\340\213\275w\014\030\275:\363q=\335\302H=\342\322B=;d1\275\361!\311=\360\2518\275\" L\275\234\335\265=\035\223\353\274:\226:\275 \'\326< \337\307;S\001v<\371Z\246\273A\333#\275nx\205=\233\242p\275\313%\022\275\336\330\306=\352\326\203=\335Qw=\325\205\222=3\304\373:K\377\317=$\233p=\227\251\223\275\022up<<<(\275r\036*\275\321@\020\275(\214\377\273\3559t=8\241\\<j\377R94\027@\275\332\345i\275,X\005\274\337\212\227=D\r\210=}H\002=\022\202\217\275=?\356\273\224\032R=\332\272\272<\334\005\201=\214\tJ\275\313\2110<O\213\300\274\211\225\313=k\226\203\275&\222\337;:\205%;Zn\035=/R\204<\"\274\313<\323V\215=\377\270\330=\264\017\026\274\n\346Z\274I\361%\274\200\232\245=\305\374\004=\235L\033\275\363w\252<%\227\332=\010kk\275\337\030e\275\354\006Z=\225\253+\275\214L\235\275\323\321\222=\367\003\\\275Kx\032=\325w{\273)\205\223=Vg\240\274Z\246\207=\250\302;=\223\364\315=\031\216\267\275\207HN<t\2774\275\210\254\226\275zC \275\247\022\245\274\005\217v<\223\006\272<\273\"\247\275\271\013\326=!?\031= \365\336=\232\020A=Y\370\247=ZE\305;.N\270<z*2<\311)\237\273H\037s\275c\222\256\275\026\r\366;\312\275)=\307\310N=qU\220=s%$=*S\216=\203?\307=K,\266=T\033:\274!\326\347\274v\275{=\026\371P=FS\210=\006\001\260=\217\363\354\274\311O\250=\246>\221\275ly\010=`^\261\272\276\025+\275\022h[\274\006\233\034=\327\326\000\275\t\236\222=\316R\256<\261\026\273;\236C\260\275\217\334T=*\"\354<\265\247\334;\203\2477=k\222\230<`\250&\274tDz<2\2462\275\255+\027\274\240\353\200\274\010\216\225\275a<\272=\272\242{=~\271=\275\035//\275\237\241\221=k\027F=\270\357\304\275zR\271=\215\310\262\274\\\3267=\031\016\303<i\006\250=L\010\366\273\325Q\260\274\311\330\3409\267\001\202=h\272i\274+\355\243\275\002X\001=!\304J;\2434\312;\3475\336=\323/G\275\353\016\377\274\232\026\257<4r\232=\326v\356\274\206t\347<\235\306\372\274\270\252\014\275\372\244\260\275\036k\210\274\354\016\000=\354[\334<m\264\021=\334\2548<\231\\\307=\000\362\331=\217\272\224\274\215\257\237\274L)X=\203\244\216<\307\364\232=\000i\024=\007y\241=\353\0313=\010\2144\275o\2166=C\0364\275\025n\347\273\230/\007\275\036;P=\217\221Z\275]&\271<\0238_\275\313\355Q\274<\321\000\275Z\255K\275\004d\243;>i\005=\004\245\203\274\357\222\237\274\244\324\002=\013\007\206=))\231=lL\267=\350\037\256=\221\r\215<\257W\204\275\247w\027\275K\366Y\275r\357\205<`5_\275\027j\010\275O\243\365<\310\031\227\272\2736\256\274\036P\202=\376\022\320=>m\242=o\243\214=@\340G=\241}\227\275\003f\227\274\026\225\r\273\223d\213;\017\"D\275\205vM\272\314\227\311<f:\005\275\365O)<\236\306\310\274\250\236\266=6\231\017\275YF\313=l\032\013<|\345Y\275\344-\340:\301%W<\n\373\330<8 \017=7\250\223\274js\221\272<T\266=mp\263\275\355\374\311<\315\367\346=\003N\233=i\212K=mU\025<\240\314j\274\\\231b\275\221\\\260\274\277\252@\275\364j\244\274Di/=^`\243\274\331)\271=\205\361$\275-E\261=\366\346\363\274j\314\302=%T\000;\244\356\264=\r\2756\274Y\237}=\024L\224=\345\240;\275\336!d=\r\212A=\263\363u<\237\306\316=T\010_\273\263\222\357<\350G\215<\333[\277=b)\273=\027\253\316=\226TK\275I\227\313=\311\305\202=\035\261\347\2745\206s\275\205\332\330=\310<\371\274\177\240\216\275\363}\207\275\272\311\023<\322<K\275\'\256g\274\302\270!=6J\334=^\374\357;\347\357\213<L\323I\275\311\310\241<\305T\372<\306\035\221\274\352\223\301=\301({=\230\200:\275^p\202\272\r\373\235=\305)\314=\362\'\313=S\n\036=\355(\220=\000\301\251=\201\337|=\365p\201=\236>E\274\210c.\275\357\027~\275\236\347\031;\265!\235\275GA^<i\207\264=\327 o=^!C=\200\233\020=\340l\254\275H,\274=\001\365\313=\007\037\270<c\003\033<m<\346<j$\270=\227\277\301=z\362\026=k\230\324:;)\230=#\266\016\275(Z#=-F\030\274\302\252\235\274\372\315\320=Ti\002\275\345q\006=Q\200o\274\205a\"\275\363k\203<x\314\241<0\356\253\274\001\333\302\274\240\277\n<\223\227\244<m\356#\275\026K\034=\376+\000=\007\301r=\255,\250<\331\301X\275\337\021\240=\2301*\275\025\027S\274\357\333\305;\202\302\251<2Y\244=q\355\204\274\201\363\235\274bC\312\274\327\314X:\360\t\352\274\'\226\214=\255\230\315=:6\241<\017\303\301=\276\330\264;\260\005\000\275\306j\016=\366\340>\275\255\000\017\275#,)=R\014\n\275\3040\004=o\356\000\274\376\343P=\220RZ=\310\232F=\311\314\252=\032\326\371\274\370g\234\275\000\270\t\275\241\342\204=\366\023D\275\306\007;\275\221\241\266\274:\277\025=\255\214\223\275\216\016\303=J~0\275\023\001\234\274L*O;)\245\254\275\2516G=\2738\302=n\226\245=Kq2\275\220\373A\275wZ\205\275\263&\037=V>t\274\250\254\225=\200\257H\275-\273\236\275F\217:\274=\211\025=\224QF=\t9\201<\361#\336\274\321\206_\275g\222\306=\215\001\357;\2302\316\274,\350f=\302\220\230=\235\006\334=\274\263E=\232\024\027\274\373\335_=\001\371\327\274 \302v=\017\177\206\275\273a\367<x\325\017=\354 =\274^O\374\274\n\017G=\265q\270\275\003\n\336;\r\254?=V>\234=\371y\323=\202 \344\274\317\245\020\275\233\307J;\314\271Z\275C\032\247= \222\365\274\217\037\333=\353ai\275{i\276\274:\353N\275\366\032\035\275!\237\372:t?=\275\372,\307=\265iM=\330\235%\275\356\263\261\274$B\010=\3216\310<nTJ=\300\313#=\200\252L\275\n\310\004=\375\257\223;\324c\312=\362N\233=\371\333B\275\210\376\272\275\320\300\333<\210\253\207=\371\373H=\374e:\275\033\333\246\275!\230\033=~\203\341=\234\373t\275A\004b\275\202\333@<h\t\345=\321\305u<\001\310\211=wS\373<\323T\242=\021\360A=\353H\225=0\177\275<\327\300B\274D\357\033\275x4h=\325Y\341\274\210\234\370<\205=\005\275\302\243\304\273D~g\274i@e=\351\330N\274\336w\210=%;}=+\267\037\275\366\263b=+\372\263\275\201\275\316=\223\300n=#G\003=\034\367\344=\345+\317=ozi\274\254\220\244\275\366\353\217<1\3110<\002\335\230<\376\030o\275\0200\000=\236;\310=\314\365/\275W&\313=-7\237\275\037B\034=\323WR\275\305\224\031\275\272a\204=PT\316=:\261\323=ns\264\275rq\203\274X\'X=\330H\037=j\332Z=V\352\\\275\003\210\320=\231J\006;!.\274\273\222\336\275=\370ME\275C\327\021\274\'\3008=\177*A=u\'\234<@\337\322<M=\232=\346\022\006\274\333\017\207\275E3\330=\247\316\225=\336i\212\274\324\330;=-*\230=\034\366\331<d\222\261<\337\327U=\276a\237=L\337\202=\222\253\021=\n\277\207=\034X\205\275\n\246\305=\231B\273\273\230\246j=\177\271\320=\2341^=\271\260\026\275c\310\222\274\"\034\207\275\347\272\273=\316\273\214\275\336\220\031\275\213\036\260=Q\200S\275r\2330=\034\004\206=\253\223\003\274\252m>=2\253\025\275k\362\243=~\270\030=\271u\023\275O2\244\274\036\206\n\275\242?\307=\274\'2=\246O\313=\001\314\323\273\214\237\312=et\006=S\310\324\274N\335e\275\350Np<\013\324\032\274\345\314\266=\365sB\275\331\336\324\273\305\025\277=\2556L\275]\247 =\260\307\000\275Z\354\352\274-\014\350=H\245\216;\335\332M<\2123\\=\347g\226=\031qn\275\305\n\302=\227\357\351;\317\373\001=\317\320\237<\305W\250<\305\367t\275\241\202\321<(\377\242=aA\026\274\352N\242\274z\336B\275\030\353\220=\177\203\032\274DgU\275\230\013\343=\212\023\215\274\344\344~<\266r\352;\201c\251;Z\344\307\275\246\020z=\346\331Y<\026\n\334\2742\236w=\352\226\\\275N\233\270\274;\005\226\274\372\001<<>\016\214<L\037\347<\024\354\177\274\0047\226=\207\260\032=u/\200\275a\036\225=$\"\373<\263bM\274\363\225\212\274\205\375\362<ii\246=\346\033\n\274\307\365\243;\007FO=e\001\023\274w3P\275G\214\324\274j\233\214=\313[\214\274T\265\224=_7i\275\013\371\204<\247![=\342\025\037\275u\021s=7\302W<\271\325\022<\330-\232=\332\320\004=\177\273e;\333\273/\274\21140\274R\356\277<E\260\006<}D\017\275s\027\375<\330\242\346<&7\\\275\265\003s=\013\010R=\3665J=\316\037\305=\024\324d<\010\367\233\275\361\245f;My^=+U\024=\360\376\337=R\323U<\305\022k=\252\377\276\274+\256\\=89\341=\305\344\n=l\'\320=\365qM<\331y\372<\247\250{\275\030\336\021=\225\214\377\274{e\004=\336\201\240=\301\367\304=5\265S\274\331{\335=\310\337&\275\362\301\246=\331:\305=z\250f;\346\320\227<\030\025\264\274\377\356\242=\016\216t=\000E\225<\017\310\204\275\000\257\346\274\270\307~\275R\310\035=\240\363\307<\210R\354<&X!\275\350\262\322<{\037\200=H\032\305\274\030\347\\\275\026\331\\\275_\334\216\275\336~\230\275=?\220=@\315\267\272\216\373q=Z7q=8\3732=p\316\220\274\3453\223\275\036\375\034\275\000\243\233\272\326\374N=?\031\202\274\034\256\331\274\315{j=\031[h=\273\350\264\275\006~\341<\343\217\340\271\260G8\275\252U\371<\031Lv\274tF\224=\303(:=|\373W=9]Y=\221yU=\216\261\000\275\205\376y=^\026\225=\222\\\215\275\251\0277=.\023\305;b\342\035=\332\024\240\274\374\351\353;\243\312\r\275\230+G\275&y\231\275\314\340\205\275\014d\211=*\3105\2755\322\225=\262C\272=I\201\351<{\216y\274#\346\371\274\323\"o=XA\305<\340V\322\274\312\317\201\275\332@e\275\321\017\243<\026= \275\254\344H<{\341\205=o \237=\006(\031\275\367\025C\275\201\007W=\0369\\\274\214\314\373<\227\224%\275\343\277\274\275m6\375<`1\311=\007\314\"\275\027\262\311\272\034\212\265\275a\3134\274}\305\340;\303%s=Y\2334\275\240\220\201=\371bA\275j\264\354<\342m\261<\266L<\275\353?\213=\245X\021<7`7\275tG\325=\251^y=\365&\350<\023\314\037=plT\2744\036\241<ew\236=\302Nd<^\265*=+h\251\274\007\013\246<\235\263?<\r\023\255=\245\356\271<\364\216e\275H\337\"=\036l\202\275#\207f\275\000xu;\346JH=@\002J;Z\273:=\221\365\223\275\210\033\021=\336\323\205\275\312\024;=\003\346\032\275^\331g\275\022D\206\275\227&\232=\272\237\202\275\325I\205=\236\320\237\275\000\232\3579 K\014\273$\371\356\274\260<\340\274h~\010\274\276\332m=\"\t\302\274x\303\265<\300\270(\273\232Z\201\275\"(\254=\260`S<\216B\260;\'a\244=N\003\201<\031H\256\275\312\352\313;\247F\347<\222\372[\275\341\033\237=\\o\221\274-\017\366<jIE\275>\377\246=\237\315\343\274\373>\374<_L\232=.\371c=\2711:\275\016\354\242\275\342\217\214\275\026P\265\275xj7\271\024s\345\274{\202\022=\257I\223<\362X3=8}~=-\216\270=\314\345\010=\275\215%\275]sx<,\341\213=\344\202_=%\\!=\2050\267<\347&\211\275$P\362<N\3206\274v\005l=U\345\026\275<;\004<;E\275\274\375\233\300<\324\023@\274}\340\243=VMy\275\300\301\300\274Tc\'=\331`\322<\027\370\031=0BM=\001\212\030\275\250.\203=c\303\265\275\231b\342\2742\2253;)\353&=\311\307\016\274\t\215\231=:\177\245=r\r\207\275\027-X=\370\237\364\2741\257\007;+\263d=\202P\235=\013p@\274\236^/\275\322\226\273=\350\222\371<\003\373\333\273\232BW=\334L\324\274\261\372\203=\316\357a\275\372-\366\273\026\001a:\036j\276\273\025u\211=\"q\351\274\004\272\010=5qV=\375\322\275=\030p5\275\317I\260<V\263k=\211\2144=)Z\014\275\225T\032\274SW\244\275JD\205<\021\343s<\233\276\227=\214r\376\274\271\223\207=\027en=\353\030\327=\r\3752\274\302\204\301=Y\347\250\274X\014\246\275ma=\275|\224\217<\364\001\367<\214\357\231\275Q_\216=\217%\323\274\234\216\233\275O%\037\275\225\277K\275\305]\202=z \364<\010 \245=#\242\356;\035\347\214\275f\346&=X\307\274<\220]\341<\351\215\217=\260\354\247\274\\\345\365<Kj\022<\341\372\240\274\243\236\203=\311\271(\275\037\200\264=\357p\002=\037\261\247=\332\216\262=\362\206E\275\222\3763<7\371\271=G^\362\274\234\211N;\027>\252\274E\202\224=\t\005K\275(\377u\274\241\341\212<\320y<\274]\240\277<\261#\004;UMi=\"\350\017=\034y\242=\306\277\203=\216c\202\275\361#0\2730\303}=s\203\215<\027\025\224=\310\302-=\364\250\316=\376\212\314=\020!\226=o.\214\274\302|\255=\304\t\301\274\005k\332\274s\014\254=\tH\224=\335\325\237\275\214\272e\275\334\355\\\275\302\320F\275\326\223v;\330\267\236\274\267h\202=\311\n\254=\000\304\322=\343W\330<\017Z<\274\267T\203=&x\254=\312/u\275\304\321e=\274y\226<\"|\t\275\264\246\020\274@\344\347<\t\204\211\275\244\276\217=,\317\263=$\232+=\203\361\204=\221b^\274\235\005X\273%\372a\274f\021>\275.R\374\274\333\033E=\216\373c<\035\364\221\274L\213\374\273\020s\206=\2642X\275\344x\256=\246\325\326\274K\305\276=\023^<<F\377y\275\342<\306\273e\256\323:\256At\274\275\031\235<C\204\267<\275\353\322=5}\200=\376\"F<r\327\267<7\306\005\275b\344\324\274\312\367K\2751\224\225=G\266t\275\177t\332\274\013\335o\274,w\032=s\247\007;\266\306\235=\227=\257=JJ\243\275/\214\247=\222\226M=\245\215\263=\202\213\254\275\341\026\250\274\276/\332<\023F\271=\337\375\370;\261\355\324<G\252\233\275\246HS=ow\373\274%E>=\0074\347\274\316\025\275=.\1778=\353\276h=\253\r(=v\367\023\273\tW\257\275{/-=\022~s\274~$m=\032\272\261<\353\221\t=.A\343\2746?\265\275\344\032\213\275\017r\334=\320mJ=\013\265\363<\270-\225<\314?F=b\321\237\275tB\022\275\241\375\310=\003\370\205=#\023\002=\214\255N\275\210\r7<\361\362\350\274\331\263\201=s0\234=\010\233\334=\377\222\025<@\377\026\275A|\204=\350\022\217\275\3061\030=\215\301\316=\334\017==\r\277\020=\304\025\311\274\306IU<\"\363\313=>q%;k\236\232=\037\252\300\274i\224\347\274\224pb<\231\342\230:\361){\275\345\331\222;\370\254J=\345\265\213\275\330v\274\274\277w.=\362-,\273eH\016\275\007\354%\2743\203\314=R\352\324:\010;\203\273V\r\253\274\324BL=\332\273q\274\337\250;=\206|\037=y\316\375<\023\364\264\274\330H\270<\220\201\273\274^\030\231=\035\372\345\273-\227\372\272\200`\203=\205d\223=\ts\013=\300\027\324\274\354\351Q\275\233\323\024\275:\'\323=Mv\203\274Q\202\262\274h_|\275\"H\251=\267\353\277\274<B\205\274\373\010\375;\253#N= J\252=\177\231\315=\217\301\271=\2726\246=\225\315\264=\260\333e:\227\0004\2759>d=t9\247\274\363\216\373\274\242\235\233<\326\303\273<\351)E=\032\364\344=3\344\310=\322\247G\275\334\273f=\016\025<\275\005\314\214=\240D{\2752k\234=\024^\206=\321\257\335=F\026\246=\245\025f\275r\034\340<^\335\253\275\3075\332=p\213\325=\302\024A\275\006\2257\275\t\207I\275\022Z,\274\375P~<B\311\274=>\256\327=k\217;\275cl\200=\212.\223=\303\361X=b\361\220=\013\374\227=;\276m<\274\207\347\274\240i$;\266\225g\273\010[\202=T}\347<>\023\216\275\350\003T=\223x\260<\341u4;\216\032\215=\315%\307<\323\377>=\347\030\247=\224\022\017\275\352\335\233=\3647\215<P\211`\275-\032\357:\300\367\020=s\'\244\275~\346\211\275\273\326x\275\267\0104<R\367\200=\365\034+=Gd\370<W)\206;\332\3268=\334\025\243=O\251q=>\273\257\275\014\305o=\351`\217=\2661\223\275mt\227=bzy=3\2379=!?\031\270BWT=O+\345=\372\027\345=\375m+=\332e\262=y!\305<p\n\307\274\250\r>\275\361TL\275\210Z\031=\330t\313\272\265\032\032=\270\035\210=\270\215f=&\246\220<\026\361\235=,F\361\274\336:\023\275\264\264\211=\302P=\275[\261\337\274\325X\333<\275\214\330=\204b[=\357\344\033=\310\303y=\200\361X=\317@^=\345\370\271<[\231\217=N\242.=#\254y\274\005{t=`\037\326=s6\307<\274z\216<!\t\361\274\260q<=z\316\346\274\265\"\023\275\326\361\205<K\324@\275\206\\\324=\351\361\007\274W\203\033\275\376\353]=la\272=\233\010.\275\300J\235\275\223\256\205=\341\017\363<o\333\267\274\315\202\212=T\343\325=\340\277\313=\033QE\2743D\031=\352\323=\272s5\370<\240Z\335\274\3708\016\275\345q\237\275\177\201h\275\257\032X\275\236\220\203\275g-\245=Vo\333=\276\324\003<U\0253\275\344Mb=\223SE=T\334\240=\177\022\213\275\316\316\370\274\267.\212\274\210\000\326<\242N\204\275\247Q}<\354\265F=\035K\001\274\213\323\205;\322\024\024\275\226$8\275\253\332\324<\007jv\275\021\205I\274\346cG=\222\025\303\274=L\231=\243lR\275\372\315\306\274X\2175\275\037\324q\275\331\245\264\2755p\243;?b\301;\313*T=1\362z=)\252!=\344X\241\274\200\221\\\273\307\340\306=R\330\254=\203?.=\2408\204<\247\232\035=\367{\215<\212\301\307\274\324X\024=\300\324c=JR\305=l\0362=\202\237L\275JF\261=\367E\226=[[J\274Yk\223=\371\313|\275\2767\242\273\373Q\270<\3709\257\275\305:K=\344:\257=\217\300\320\274\373>\302\274\n\313\331=\224\256\227\272&\n\220\275\254\031\302<\245\225\024=\235\372\240\275\026\316\277\273EEY=\307\226\310\273\2703\206<\362O2=\240\010\177=\250\261\030=*/\033=B\004\266\274.\322\037=|\240\"\275\345\372A=\326\342j=\214\335\030\275\0054\265\274\n\271\025\275\235\3429=)\242n=\210\213\254\274\275G\352\273+\253Q=\3207\022=6\273\335\273$*\270=R\035\342\273J\230\311<\031\361\240=Cy\022\2755/\227=$*G\274:\022\275=\034\356X\275\314\330\224\275 %\347=N\311\023\275\000\275Y<0\037k\275\206\314~\275\346\033}=\301Qo\275\250l\303<\320yH\273C\226\205=:\241\236\275\031\317\243\274\360\201\222=\024\347\'=P\254\227=\270\370u\275\233g\265=\017~\302=\337\236\020=rb8\275\257\020\323\274`\204\r=\303\340P=c\325\325\274{d=\275\001x\264\275\305\316\177=jM\232\273\252\344\005\274l\327\035=k\243\007=?X\253\274wgN=\r\310\233<C\\\364;\366\273\023\274\363\303N;\350\203\007\275\022k>=\232y\r<\337\271<\275\263\313\264<\0015\224<\203\220\270=\325\030^=\030*\345\274\303\347Y\275\264\227\006\275\243\3645\275^\031\365<\023S =\234\"\004\275,J\215\275{\200\231\274\247\220,\275\005[\204=\013\244\342=\034\265m\275A\237\344\274+BK=\363\337\222=Q\0109<\235\304\241=\277\235\357\274\351\007P=\032\030K=aU\265<\016\207\236:\010\342\t=9\351b\275\213D\002\274\205\"\336\275\201\005\356;\233w\333<\2208\300\27558\203=\200\351!\275\322\024T<\343\021_\274W\270\240=\276S\177=\303\000i=\315\215\312=!b\312=\242\025q=\312\266\007<\211\2565=,\260\363<\351\270\016<\230\3456\274\337\373\217;\223\277\214;wX\200\275\350Ss\275\346R\275\274\314C\262=L~\005=V\213#=V\326^\274\310\254#\275\232A\232<\352\320\030=\335p\222\274(4x\274u\326@=\313&\337<W\007Q\274\026#y;\317\340\245<\3079\225\274\221\026a\2759\t\016\275\375\2544=\337\343q<5W/;\272}j=\034\232);jBf=\265\342\263=C\216i\275\303/\353<\236\002\332\274\311lL=\225\304\206=\241\'\245=fA\206=\270\213\357;8 \242\275N\304\030\274\332Mg\275\014\265k\275x\313o\275\021Vo=gS\023\274\022A <}\263\326\274\271\336\233\275\014\0258<}4f\273\321Y`=cC\224\2749\204W=KmX\274\342\362\212<\300\337a=\277D6=\220\376\276\274\304\217\207=\215\221\321=\010\321\026=\360\253\224=\346\214\226=\312#4\275\021,\007=\260]3\274\"L!=\301\367%\274\346\272\254=X;\355\272{}\305\274Y\026\021=\222\375N\274\307\325\346<\234\365\254=\005.\037\274?\270s=\351\033q\275o\357/=\241\267\276=\210\006\224\275\371v\261=\214\340\257=\017l\335\273\237u\261<\354Y\273\273\253\350\202\275\324-\275<I\035\204<\360\361\325=\201IO<b\031\261=5a\305\275E?Z=\024\000\016;\002\337\302\274\345\020\"\275\274\031\314=R\354\247=6\221==o(\223=J\365;=\237\232\227=\233\026\227=\216\360\237\275,/\354<p&\303<H\204Y<E)i\275@$d\274>)Z\275\366\032==?\236\204\275\260\201\227;\310\327L<\360k\210\275\203>\242\275\240\246<\273\276\366\346\274u\331\206\275\320\206\204;\352\023\305\274\007\256\225=\354\372[\275s\263#\275u\211\231=\362\\N\275\362\013\304=\376U\357<\363\367\245\274\321en\275#\372\205\275=c\201=\355\322\250\275\303\236}<\2358M=\273\317\307;Knj=\370\353]=:\273t\272\257e\237\275\333[\251=\351\032{\275\232\207\247=\350\210\235=\324\0322\275\021\234e=v\204/\275!c\332\274+fN=\220[\203:\271\2620\270\016\227\226\275z:\033\275\253 \214\274wD\306=e\371w<\223\265\276\273\307\344\212\274\215\323\267;%#\315<\351\374\204\275p\325\312<L\270&\275N\024\201\275\261zj<L\014\235=Bs\242\275\3533\347<.2\304<\201\207\307=\243l\336=3\365\315=\336\001\206<\252\0316=\3443\200=\312\031f=g\002\006\275\3362\373\273\2132\326=\034\343\331=\365\212\267=\220\005\356\273\n\207\233\275p\313\301\275\024\207\311\274\235\021\313;\026\202&\274\227l\344\274\210\266\027\274\266\267\217\274\002\037\211=F\002\003=\240\374\325\272|\234:<F\275\264\272\225G\256;\215\314\353;\270\372[=\350\215B\275\346\322\250=z\315\245;\247\221\251<R\007\302<i\242\207=\346\r\231\275\365@\366<\177\233\207\273\3243\314<3\3704=I^y\275/.\204=p\013\326\274\356\320F\275\332r\217\275\002,\200\275\265 \230=(\241\202\275\350\013\032=V=2=\014k\035=\2063u=b\304\356\274P\365\200<\034\212\314<?\276\225=\357\235\223=\204\027\245\275k*\222\275\307B\243=,\032\271<\234\236\004\275\226f9=\\\366\240\275la\024=L\321\241\275\245\021\216\275\000\352\034<\036\213\034\275YW\300<`\373^<T6`=n\213x\275\r\230\225\275\236\321\220\275k[k=\314PL\275\213K\n<if\361<\234\337#\273\215\266\273<\351\353@\275\243\265\034\274\360\361Y\275\226R\236<g\311\177<d\233\262\274\262^=\275bq\013<cf\010\273\217\371/\275\020\320+\274\256\324-\275\265\316\037\274\357b\345;~\377J<\277\342\316;\234>\n\274=\347\203\275\353\226|=\204\247\374<\234\031M=\216i\225\275|~#=iy\"=u)-\274B+\366<\2432\322<\315\020,\274\264\203\227\275\330\257\230=;P\245=\007\247\034=\261\226\352\274]\235v<\374\242\253<\370\214\315\274\335tE=hD\240\275\251\355\037=\205\262\336<\026\2630\274\274N\330<\331\210{\275k\264\263:\223b&;?\354\347\274]\355\311<\244\250\260=\344\004\356\274\373\366S=\375/O=r~\t\275\206\267\365\274~\320\234\274m\307\251<\376\255\334=\271\033\314:\274\201\034=\026\223-\275\250\377\n=\222\031\205\273 o\264\274Rd\355\274GZF=\031\231D=z\231\272\275\314\300\247\275a\356\002\274s\215\235=\332\023\262<\234\274\235<azo\273\374\317\t\275\3731\240=bE\214=m\267s\274?*Z\275#U\316;zh\213\275\206\342\245\275\245\300\253\2754\226\300=L#\273\274\37778=k\322\373\274\232\235C\275z+\332\274\311\357\250= \210N\274:\341$\275\223)\213=i\244^=5\335`<vRz\275o\266\221=b\032U\275\274\001\003=\337\335@=\314\360\207\275\316/\301=\022\004\200<\375\006\306=@L\217=\177o\331\273\340\250\210\275l\346\257\274\273Vk\274\375$\251\275{\301\177<\221)?\275\362/w\275\362V%\275\342\326\027\275w9\002\275\323\371\256;\221Yj\275Q\250\3169\225^\271=;\342\205\274\306\310\016\275\n~/\275\021\270p\275s\201\024=\025\261\326\274\341\tR\274q\353\202=q\362x=\304\206W<\002\340@\275B\263\367<n;\246=\t\006\277=\234\324\250<\325\000z\274\013\010\243\274^5O<}ID=\2607v\274\347\233i\275p~\003\273,\001\210\275(\232b=\2478\027\275[\240\223=>\324\013<\036\272z\274\211\300\226\274\"\216\316<6\222\253<fw\366\274/)\r\275U\274\343\274h\032\267=`+\276\272\007\036\211\2753-\217\274W\2553=\261\016\t=B\212\336=\216P\251=\220\316\276<\316j=\274\206\303|\274\001>8=\002\205\251=\264\325D\275\372\2051\275\r&\314=\315=\325\274o_\353\2745\306\267=\\s\320\274\334b\260=\371c\224=^\262\201<\205\000\266=\"\025#\275\017\310i\274C\200\\<I\325O=}\025\313\274\014\227W=)!\202\274x\200);\017\271\362:`\243W\2752\301]\275\240@\321\274Pg:\275\221R\220\275\2223\266\273a\366&\275\325\323U\273\2053\217=\035\342\007\271\374\272\021=c_\251\275T\254\305=\004a\232=>\250\321<\'\370&=\215>\260=\312\225\245=\267]\217=d\000\036\274Jn\305\274\346\3154\275G\334<\274y;o\275\376\256P=\255\314\033\275\301&p\274\313\250u=\213\302\220\273\3460\217<\"\242d\275J\027\203=\331\377\240=\320\272\315<*\253q\275\347:\274\275\314\254\344</e\n\274\025p\307=\360+\205\273\227^\247\274\021g\254\274\245\367\030\275\262p\246\274s\001\216=\352B\016\275\336IO\275\350\237?9\271\260^=s!_=\022\202\265=x)*\275J\333\225=\225\335m\2757\263\227=\313\353\207=\234\001\364;\033%f\275\320\223\304\274\022\260_\275\201\240u=~b\322\274\2519K\275\305h\032;\352A\016=J\177Q\275,93;7\207\005=m\330S=\3120\023=|\272\027\275C\014 \273\214@\031\275\370\251\036\275pS\213\274T\253h=\033*\302\275\267\243\224\2757\333\275=\003]\006\275\245:!=M\215\245\274\315\177\220=Y1\341\274PH\034\275\2417\202=b\2118<p\321\365\274\216S\232\274\244M#<YA7=\327\310k=\361\3604=w\210\203=\301\316\275\273o0\232\273/3\210=\264\265\023\275\016p\264\274\344dy\274\3013\030=h\221\331<\006\330\260=\232\3003=\312:M=kD\263=\374\3408=\0043\252=\t\236\214=\341\0020=)\002 =k\364\235<z\032\200=\331N\200=\003\277\206=t6\367<\205K\004=)\345\024=\337\303h\275\315W4\275\003\324\004\275t\3074\275\310t\336=\244q\227=\037\310\337=\325\325\231\275\271F\263\274\261\363Y=H\006p=\210s\232\274\311re\275\321\375.\275l\007\320<\002\236\037=\253]\221<r!\300=>\207(:`z\257\274WW{=\350\252\255=\022N\374<\304\201\t\275:.\037\275\025\321n\275\276\340\000=\0376e\275 \013T\275\t\303\361\274\233B5\275\224\224\003=\002\266\033\275\r\214\301\275/\266\017\275L\"\253=J\246\306\274pi<=\235\020\303\274@\232\263\273R\337m=T\006\236=\247E\256=\022\317\377\274\002^\021\275&^\004=\027\225\036\275\303\003\267<7w\300<\213\363\220\274\\\216\002\275\331TM=\330\007\211=WD\214\274\371\377\277=\326\327\264<\311\310_\275@\357x\273\343\307\324=z\t\305\274\307\256u=\262\000\255\275\273\307\251\274\201\375@=g\340\261\274\354Wf\274\265j\313=A\234,\275F\255\246=G]V=Il\032\275\034\013\205\275|\023=\275\005Z\317;\336\236z=O\036\266\275\202\010\233\274\250\234\242=A\321\254=\246%{=\034\373\216\274\007\007\212=z\350\250=V\245==8.\242\275\001\020\317=\223-U\275\22434;\000\2265\2752&u\275l\311\266\274~b\266=\227~\374;\253\331\332=`N\236=uB\334;\305\306n=\002\n\307=\272p\352\274{\324<\275G\\\324\274t\367C\275\252\005i=p\352\\\275\2453L=o\236\025\274\037\211\300=\315d\337;{\220\004\275<\211\212\275\320\252\025=\211+\t<\301O\247=\372\251_\275+\235\225=\365\036\253=\037_!\275\262+\372;\277\204\177\274\371\274#;eZE=\027\na=\351\357\255=/u\313\274jH\342=\335q\021=b_)\275\025\3314\274\014\014m\275\030\345x\273p7\320=r\252\216=\274\306\016=;)\333= \2467\275\225\002\034=\035q\363\274\344\310\244\275Q\374\326=IN\213\273\212\354%\274\201\225#:[\3320=\347\013U=$b$=\307&X=\250\326\202=\252\036S=\303\334\225=\210\311;\274/\376k=GR\022:\352{o<\213\341\201\275d\215\001\274nZ\236=\214)\222; \245\243<\307M\234<\254\037\307\275T\263\330=\322\373\307\274;\215\242\273\'v\265=2\351\317<\260\035\246\274\205/\216<,\'\277;r\221/\275\t\236%\274l\364\017=\251\3436\275\003sc=\311\254;\275\242\360\230<I\020\020<6\305\304=cF\270=KT\267=|\265\010\274$\034&\2752+\312<[\351\024\275H\227I\275`w\262\274\376k\262=\211\327\263=\362/x<!\rx=\362l\255\273\255#\306\274S\327z=Xi\244;\020y>\274\344\356\037\275\201\223c=\\\303\020\275s\340*\274lv\316\274z\013U=\220ud=\320\334\334<)9\245<;\326\005=\"\223\316;&\232\022\2751?\026=o\241\200\275\342\035i=\336\265\214\275\320>\213=\3205\260=r_6=f\250\025\275#\347\004=y\364\252=_\272\010=+\354\345\274\237>\272;\370\371\021=^\322\242={\314\341:]`\266;\353\364(=\335\377\032\275\375\232\325=\316\037\020=@t\352<\202h\025<\035\237\223=\334g\014<\300`,\274IbZ=\322a\320\274:\333I\275\253?\255\2754G\n\275uQi=n\336\"=P\320\242;\r\271\276\274\210\252q=\352<\030=\255\0102\275s\234\321<<%\314\274\361\252\013\275\000\342\216\274:\311N\275]\322\036=lD\'=\271t\035\275{\355l=\301\022K;\270\001\022=0\206\250=s&d\274&\016j\275~?z=\201\376\245\273\036\330\217=Gu\210=v\004<\274\316\022\260\2757\256\204=\352\350d\275\322\210\234=4\242%<\2677\330\274\355\255C\275\371\353\317<K\336b=\273\244\232=\"\375&=4\307H=7\3234\275\377\206\220=\010{<\275/\254)=s\253\371\274<\250\256\273\373\320\001=h\"\032\275p\310\225=\235\276\220=\340\014\256\275\312\200\272<\331\031\317<\232\375G=\264\310\211=\305y\330=\347\035\316=\010d\370<h/1<\323h\025<\240c\267=\342\375\261;y3\r=\3555\275\274!\201/\275\234\250Q\275\370\024\034<0\230\200\275\'/\034=g,\226<\330\021\013\275\261\201\312<\324a\213\275\266u\247=\275\006\n\275A\364N\27593\303=\367%\245<\323f!\275\374H\363<X\266\227=\241\350\000\275\302\371\244=\005\362\344=\310\311c\274;F*=c$\221;\266\224\001\274\332]\270=\255@\017=\227\272\316<\344/{\275\322\200\327<\025\326\002>\235\221\310\273&u8=\225\342\266==\261\247=\177s(\275dn_=\222:i=\371\312\035=q=l=\004\202F<\013\307\201<\215b\217<\202W\203<02\213=.\027\266\275s&\245\272\0074C\275\336K\267\274\262\326k\274\202\341!=p\036\036\275\272w~<\333(\024<x\342\255\274\252_\213\273\023\345u\275[\217Z\274\033\212\256\274_\361\033\274\346\223R=.\032\205\274\346\325\246\273wJ\026<\233\367\177\2758m\200;&Dc\275\345n6\275\24224\275\n\345>=R\216\215=L>\014=3\207\243\275u\367\036=3\251\250=|\233c=\246\323l=\344}9\2759\264\314\2748\201T=Y\316\322\273\257\347\272<M\037\347\274\026,\374\274J\270@=N\375u=\266\370?\275\003\001\201\275}\312\376<AaY\275d\364\303<\203:\277<y\310>\275x\361H\275\366y\374\273I\006\235=\014\332\204\274~\370W\275\211\360\031\275\356P\233=\241Z\245=\320\233Y=<3F\275\243\234\307=Kdg=\202\266e\275\240-\366<\245\205\234\274\323\002\030\275\251\251\021\274\3566\313<\035\342-\275-\337E=\355\354\331\274\267\227\347\2748F\323=E\262\006=o\037%=R\331_=>>-=X\340i\274.;\020\275\005D\002\273\313C\231=\021\347\202\275\"\222\300=\036\376C\274\345\264\345=\340\257X=D\272\326=o\271\r<g\234\374\274\204\331\230=\02284=\230.\270\271\330\227\033=qaF=\\\221\\=\r\030I=\003!6=;k\022=\263\004\321=\023YS=Ppw\274\300\226\202\273\336\031N\275\002<W=VO\204\275\330|7\274\330\367\374<@\335\'\274\300\210\313\272\340\214\306<B]e\275\206\200\323\274P)\352<\370\243\223<\274\326\224\274,\317$=/\177\240=\240\374\016\274rnv=(\0330=BSo\275?\374\241\275<)\270<*\220J\275(\262\234<x\000><\274Vb\275\306\330q=0\2233<\023\206\224\275\343\037\257<\221s\234<\335I\212\275\251\250%=\367u(=\305\362\202\275\002\253\362\274k\\\276\274\362\221\250\275{\216\020\275\347\021\217\274\372\261q=1\265G\275\0005\331\274\3739\355;\2079U\275\253\357\201=s\t\311\274\240\254\253<U\241\007\274\240*\345<\r=\235\274\027Io\275\344\032\036\275,\357\270\275\033k\221\275=D\224\273\205\266\212=\343\312\374<^\"\351;\346\354\332<\3207\223\275^v>=\340\361p\275\212\362\217<7\030B=\276\314\220\274b\234\215=\360-G\275\022\353\251;erV=\351\214n=\"\324\203=\362D\310=\353\207\243<3\275\212\275/=\327<0\006\201\275\2708\325<\035\216\254\275O\261p\274G\177F=\0251O\273\\\351L\275y|g=\3133\310\275\211\314\320\274j\310\250=\262\275\364\274\013\320\307=\226\251\233\273\014)\212=[<,=V\033\256\275c\266\236\274b\216C\275\'\374\310=\n\026\335=[O\025\275\033\233W=\235\332\014=\024X\360\2745s&\275\345\310\020\275\345\010\006\274\027(\255<\254\226\223\275\207\305\035<\367\343\222=\\\237\317=b\251,\275\350K\300\273|\307\200\274\310_\006\275[m\226=\362`\013\275\t\214\233\275Xw\224<b\271{=4\356\363\274\310?:<M\t\234\275\"lF=\"\347u=\204\371\271<j\333v=\252\262H\275VEI=\250\255C\274\244Z\241<\370\370\300<\342\312b=\000\204<\275h\343\274<\316\350\332\274\300\303\352<Qz\234\275~4m=\222\ne=p.\010\275$|Q=upp\275\205\002\200=P\232\247=3\204i\275\233\263\224\275\304\3446=\010\370p=y\016\243<\324f\273<\221\356w=\013?Y\275_\270\032\274\352\314.=\220t\277=\022\307\361<wi]\275%\257\202<\260\351)\275\301j\000=\014\226D=\224(\302;\024CH\275\366\247\224=k<:\275aT1\275sD\315\273\032\312i\275\250\320\"=\266&g\2758C?=\355\260\233; x\222\275\030\204\027:\333;\224=\327\273\177=b5\234\275\264\037\240=W\013\025\2753H\275=F\023W\275mO\270;\355p\n\275\245\035\330<U\037\374<\234\032A<N\356\271:]\272\"=\213r\034\274\337\362\374<\264X\234=\004?_\274J\352A\275x\342\257\274\001>!=\013\300\t\275pD\023<\202\374\355;\\\246w=\235\033\323=\315+[=,\311\214<q.\331=bE0=\254\275\241<\231\322\220=\343\214\020=}W\335<\322\3646=\320\347}=s\320\204=\270\204\221\274\315\253\024<#\304\320\274\207\255;\275>\217\221\2750\355\342<\371+\224\273\2401\235<\225(\276<\317\331U=\330\343_=J+\213\275~\006\345;\017\035\227=\357\213\222=\177\306\254;y\362\310\274\254\355_\275Cf\247\275o\213\336\2747\361\237\275\304\302\315<l\016\321=\023\302\232=d0\366<5:\177\275\261\264\257<\251\257\020;}P\245<Nu\216=\000\357~=\263\316\305\2740\326\211<j)&\275\277\241\363\274\n\217d=\220\264\353<\222F@\275\225}\303=\032\256\215\275\355\267\363\272%\365\276;\303\335D\274\203\276\211=W\316\207\2757Oj=\206\226\234<pfH\275,\031\211\275\312\3438\275\331$\276=u\\\241\275kv\303=,]\034\274\212\315\344\274\364Y\315=m\251\r=\377\231|=\276,\244=\237{B\275(I\217<D\205*=\020\037Y=cN\225<`\037U\275\024z\204\275\037\005\303=\"<\017\275\250+\031\2742l\316=\312\027\215=d\320\216<A}\256<\256\262r<0ft=\374q)=HU\264\274\315\347z=\231\305\357<&D\273<\365\363\345\274-\216\350<t\254[\274\317h\335\272\214\021\203=\243\327\320=jb\200=\346\247\037\275f\261L=q\333\211<\324\254[=oE\241\274\274\031\004=\007\272E\275l\007\262=\330\327#=)x/\275\203\345?=\351\306\341=\033\302\033\275\231H\271=\244\224\231;,>w\2747\022\033\274y}\211\275\214\033\204<q\177\014\275\324\366\032;u\215@:<;\005\275\274\003A\274\007\253\224<^a\\=\024\220\227=H\222\027\274&\227\315;\034\324L\275e{\031\275\324\2345=|+\216\275\355\261u=\027\376\224=\352\341\236<Sm\221\274\027\373\202<\r\261\253;9\305\237=\026\022\035\275.S!<#\013\374\274\271J/\273\'J\327=P\363\255\275\273\240\305;]\314}\274\326\027\032\275U\366\231\274]\327\014=R\204\217=\266\233\367\274s\362f\275f\305m=&%U\275@\241\236=\"/\006\275\326\277U\275\377z\377\274hB!\275\206\272\031:\224*\307=\020\360\252= L\200\275\234\361\177\274^rv=\234\217[\2742\350v\273\334=\251=\307E\240\275\3235\014=58\227\274\347\330.\275\'\'\242\275OK\340=\263\024\317=\030,\255<\315\3568\274A\342\006\275\277\n\303=\\w\220=\374\223\320=}%\206\270\030#Y\274\267\274\177\273@A\354\271@\363q\271[R\024<\264B\241<\005\034\227\275\016\317\311<f\246\213=\365\234\"\275\342a\331<\304;\220=o\265z:\336\362\355<\206\276\217=\334\241\300\274\'\026\203\270\233hZ;\362{\215<-o\003\275hC \2754\014\271\274\235|Q\275\371\314\272=\216T\177=\353Ra=\2652\271\273\322<\251=\315&`=w;5\275\311r\262\274\r_h=\353\031\201\274Z\350\224=\366e\375</\354o<\356r\226\274l\017\247=HZ\326=\032\t\013=pT\334=\311^\355<j\251Z\275\006{\275=\307\"t=\'\017\242\274J`a\275;n\t=\307\323L=\334\377+\275\"\247U\275c\031U\275\271$\023\275\026\000\327<RJ\250=r\312\242=G\260\207\275\016V@=\037\213+=\204\264\242\275:~\341<\004\324A=\220\350G=\250\312]=\020\303J=\374\330\257=6\231\276\274\272*\333=w\316F\275\025\360\314=;\363E\275\027\320o\275\302\240\312=\037Kq=\202\016\244=\374@q\275\360\314\031=\214\"\377\273O7~=\354\201\246\274H\254\262;\264)\222=\014\264\253=\245\027\326=ZY\'=;\350$\273\3006o=\t5\236=\002\255M\275\235\323>=\353\035\273=\265\253k=\036\250\213=\033>4\275c3\274=\261\024\312=\036=\264\274\207\234\325\274\003\266\203\275\231:\207<(,\204=\224bc\274\212<\217\274\361@W=|8\017=\006\0219<\263\213B<\220\3254\275\370\321\342;\227H\266=.ng=\307\272}\273&5S\275\314mU=\247\331\201<d\004\260<\303\334\343<?\245\233\275#\n\246<\231!\246=R\277\343\273\324\235|\273\377C\036=\254g\033=\235\244}=\232<\323<Z\343\210=\332\372\221<eb\206<\245j3\274_\001\241=En:;\007\312\307\273\364.\036<\\A\300\275\240\"\333=?\200Q\275\345\343\327<8\013u<A\210\'=1\027\022=\2268R=\307/W=\316\345\243\275\257\231w<1\2500\274\\\355\346\274Zs\215=Fn\223<\035\226y=-\033\303=Y\361\243=\240Y\365\274\305\026\n\274\035*/<\207L\201=\270n\305\274\262\210\320<_6\224<\310Dd=c\320\217=w\312\247=\304\025\223\275\246\311\026\273\\\334\020<\030C\223=f\321l=zB\234=\221\335|=\233\027\017=\032\240\037=f\254\233=3\243\227=\355\375X=o\354\277=\314\334\256;-n\346\274\000%7\275\245\212\304=z\261I=6\360\000=\223\201U=M\302\006\275\026\2128\274\247\006e=\320y\213=\034I\234=\313\333\244=\225\3418\275\251\231f=!\340\306=\2648:\275\020w\223<\245\240+\275{\"z=\355\037a=)\264\217\272f\333\031\275\037\374\236=\244q\013=<\325\316=n\211\311\274P4\274\273F5\201=_i5\275\351\237\212=\364O\224=\030\322u\274\203\032]\273\221VF=\237\214P\275=}q=\263{\216\274{\350\204\275\025\004\253=M\334\207=\370U\023=tMo\275#\277\005=Gc\256<\245\336\177=\207\007\251=\343\005\313=\010\240U=\240-O=\002\235C<\3725\201\275\021\231P\275\002\252@\275\242\273D\275\277x?\275ko\212\274\312|\307\275m\215\265=h[\244\274\361\211A<\r \355\273\034l\t=dhd<m\024\252\2756\234\266\274\205\023T\275\302\010s\275\225\023\034=_mp\275:\221\213=4O8=c\304-=\024\307\244<R@\251\274\203\312\335<\242\351\212=\361Z\247;\023\321g=\030v\227<\354\270\235\275\312\373*\275\tW\202=$\372\252=\317\203\025\275\325#\003=W\363\344=\341R\332\274\341\321\235\274#\213\244=\306F\304=!\021\304=\366\007\314=\r1\267=\001M\234\275\237\036\265<\316<d=\005,h=\363uy<@}\221=\255h\217=\331\300\275\273\266\300\363\274\212\255v=<\320\033\275s\203/\275Dl\241=\210\366\002\274\235\201\202\275\330\322\037=*\320Q\275\374\330\214=\276Q\235=\367\231\225<\200\214\247\275\321t\'\275\277\263\351\273\245\330\331\274\342\"\235=r^\237\274\223!\254=\267\3737=\345\303\030\275\231\342\003=)\033w\275\231\260\221=8FG\275\207\027\211=\223\375\204=1o\034\275`^?<\276\252\256<\253%>=U\363\360\273\345\305\365<;\327S\274l\200\273\273\305\224\346=\330\033\361\274\265\2672\275CK\312\275\r\234\207;\3410\032\275\374\3114=\364\300\275=4\034\234\275\261m\312;F-0\275\300\n\255=\'\024*\275\237\223\214=\245\221!=\016nG<\306vH\2757O\'\275\360\332\241\275I\266Q\275\243X*<8m/=\265r\034<\007\211\322=]\311m<l\240\237=l\0059\274u\252\316=\360\370\032\274\231\'\001\2754My\274Y\234\352\274|N\207<\341\311V\274h\217\033=\351\261\233=d\310\225=\016\346\205=\250\016\332<\227\362\262;J\231\002\275\360\336Q<\250t\177=\354;\314=W\272\025\275\342pW\273\010\301\346<\321\330\312\274h\363}=\226\262\343=[\364C=S\320I\272Te\304=\022f\362;\2447\263=h\233\017;\004\031\325=x+\315=\223!\305\274\312\255\276\274>\337\230\275\352\273\\\2748\t{=^h\360\273\250[\234<\331\270\235\274\205\205X=]\220f=\352b&=B\331\317<I\257\336\273\201\200\013\275\222@\220=3c\330=\205/\207=\020k\202=\354\211\372\274\002\255\205=\222=\246=\242\301\243=\322:.=?\030\223<m\263\372:=* =\231\"\307<x\246=</\002\317\274%\246\215\275}\001\026=\215\242\260=\343\255>=/\252%\275\377\227T\275\240Kv=~\035\257\275\330\034\271<\255\300\237=E\004.\275\264\207\005\274\260\032\301\274\336S\264=\246\254\200\275\273\270\376\274,\366L<\n\355&=\370\342\325=\223o\276\274\375\021\263\275\352\255[\274\257?\207<Y\220\036\275\303\n\372\274\364\236\354<\261:\363;\354\213\201<i\220>\275\237\330\327:\237\005\206=}q]=;\304;\275\376\340\264<\245\023\020=^o\236<&a\270=\355\372\217\275Eo\246\274+:\234\274*\264}=\270`\250=\240E\353\274\361uI=\230\026)=\351\177\304\274\306\340\345<h\335\177\274\252L8=\365\236Y=:\275\262<C\317\244<\315\227T\274\257\317\312<\361\'\320<\277\273\237=M]\275=\0004V=[\311\212=cb-<tW\"\273\374\212\210\274\264\313\316=\226\267\366<m\026j\275\221Y\277=\347\305+=\303\301\216=\207hY\275\366\344\013\2741\222;=\\\351\242==\334\273=2FP=W\010\336=\325\027\000\275\307\350==Qz/\271w\016\225=\\\273\030\275\336\302T:\346\206\246=>Kp<\252\242\363<\255\207r\273\264.\022\275V\266\201=f\030\313=N\261\002=\033Q\277=\271\262\024=1\305\035\2759\037\232\274\020\205\010\275R\312\261\274\365o\307=\377\250\034\275l\354M\275\023\326\233=\232l\317=\216b\337=\351+E=\213-\305<\000X;\275fa\301<\367@\024=\352\353\345=0|\026\275\237|\226\273\336\260\331=\010F\253\273Ly\245=4A\362;E\257\314=\006\002A<\3703p\274\256=@=\230sn\274X\274\226\274\327\235\215\275\320\241e\274\rF1\275\326\361C=\362\030\323\274\212\204\"=\320Y&\274Nmc=\340\247\211\275-\344\221=v\177`=\274|\227\275,\303\222\274\300\254\242\274\014\301\236\274x\300\203<@\016y\275\214\352\335\274\343\260\236\275\2518\200=vW\327\274,\311\222\274D\355\307< ?\350\274\345\200\n=\230]n=Z\340\325;-@\317<}\336\013\275\3539\260\275{\211\234\275C\356\210\275\375}P\275VHu<\271H\277\274\n*\203\275\372\360C\275\014\266\221\275\357\334\224<\005\366#\275\217\035\273=\223/\213\275\353\3334=\242o\307=r\330\222\275UPw=:\">=\010?3\275?\rh\275d\274(\274\321\224B\275|\335\270<_\211\3038\027\306E=g\250<<\244\307\002\275\355\035.=\202\\\003=m\224\213\275\010\270\205=\311\202\304=\037\254\004;\317&\025\275D\365<<\004\242\203\274\205\312\346\2744>\204\274&\207I=\256\334\211=\"\362\327\274\201(t\275\016\342\234<\313j\321=l\024\305\274\316\206\204=\005\215{=\032\314k<h{\224=D\265\241=:\313\021=\377\375\335;\310_\327<3\2129\2753\377\216=U\315\214<\264\373@=(\342\350\274\032\353<=\014\227B\274\255(\341;\017\354$\275L\276\221<x9\273=!@\257=\225\2232\274~\001\262\273\004\237\313<\275S\022;\276vu\2756\0000<\030\363\232=\204\274\244\274\363\217\027\275W\212$\274\nI\317\274\307D_=r\301K:)\322\035\275\346VE=)_\235\275\302K\275\274 ,X<\3608\014<>24=v(E=Qn\211=\356\245\235\274\370\3143\275l\035\237\275\257\327\214=x\313#<Rfk=\252g!=G\307\t\275\245\032\241\275\370a\034<\340\"\024\2730\247\237;p\272\001=\021\315\204\275\000\217\242:\314\344\270<\252S6\275\000H\262:38\204\275\204\242\033=A\262\344\274M\034\346\274)bD\2756\302\210\275\265\222\034=%\211y\275)\337\362<\002.\320<2\216T=T\341\343\274\201Z`=\307TT=!\330v=>\317}\275m^F\275\334\337#\275f\257$<d\315\002\275&\210\026=\357\306K=2s\374;\353\357\216=|b\214\274\035\257\331\274A\324\356<\302\203\304<\351\220\031\275\234\303\227\274hng=\320\257\203\275lhy\274\275:\254=A\017\202\275!\217C=\230\2346\275\275\226 =\326\277\310<5>A\275\0362\202\275K\312T=\017\022\215\275\261\226N=\262\225\014=\222\245/=IvN=\207\375\314=\310\307\\=D(\024=\2054\373\274Q\211\320\274^L\3307%Qh\274Y\3415\275_\320\020\273\372\216\035=\3258\271=&\006\254=\346\333\332;\023\261j=\320~T=\240\014\007\275\355\351\020\275\264!7\275\323\350{=\264\0377=En1\274GUF\275S\355\"=\336\215+=B\220\013\2717\354@<\230B\007\275\242z4<I\272b=3\235H=w\325m:\224vI=\306\242\007;!\250~=\221\244\237\274\316\330t\274\270\271\347\274\2408?\275\236\323\315=y\277\273=\314%H\275\357\177\257<\326\372\211=\367\372\'\272\366\003\204=\257 \254<\025\226\235\275\013Y\255<t\311f\275\212f\362\274i\264\311=*,\250<\005\330*\275I`\270<\212\200\010=\nU\302=Ukk\273\326`\257:\214\031\207=E\226_\272\245\023\257<z\342&<\0305\254=\014uP\274I\240\177\274*\372\267\274&\211\345\274Y\037\203=r\000\227=\232-\210\275\327eg\274\021\010\261;\003\260A\275\366FQ\275\211\312\220=\326\201\253\275\214:\304=I\322\255\274\341\223\300<*%H\275\255\nA\275KP\000=\252\3019=Q\013\024\275f\016\300:/M\370\273J\004\212=\2125n\274\243r^;_}\021\274`\256\273=\231OG\275F\303%=\345\034U=\363\317H\275\274^\314\274\324\033\221<\356\3201\275\340Il\275b\215\257\275{\271_=\211\237\260\274\224\307-\273Lm+=kG.<\027\332h=\357\236\323=\353\205\262\273\235\351\340<;&\270=tp\303=\254\'\202\274\\\036\014=\266\022\255\275>}\226<\263\013\305=8\371%\275\337\326w\273F\314*<\252$\262\274*\270T<\033\360N\274}\\\263<\376\221\315=AM\336=8|~<`\025?;\007\241-\275x9o\275\021\035[<<\310?=]\025\245=H\366\302<g\261}\272^ex=^\002\324\274\315\363@=T\326U=\222\261\306\273\256\036a\275\037\264\250=g\303\257\275\252\214\241=SkQ=\2123\233\275NU\223\275\351\334\237<\000(u=\255\0010\275\t\315\250\275\330>M\275\2512D<\010N!\275*4M\275\235A\017<\000\307\231\275\364\376\222=\207\212G\273m\335X=\347O\365\273F\2053=\236\006\004\275\376&U\275~;?=\022t\031\275q;\266=\032\226i\275J\245o\273,}\214;P,\305=z\013Y\275\216\200\240=\001,\237=e\211\323<\250;\303\274\323\377\366<\277k!=\330\227\303\274\361S\300=db\r<^G]\275\256\013\005=+\300\031=X\000\302\274\344\261J=\343+\253<\321\354\206\273&\276\226=\010D\356\274a\273\312=\013\317\224=\030\226\273<\241\261\001=\343O\2527p\007Y\275)t\315<\032\2318=Q\330\266\274\261\373\367\274n\324<\275\272\312\201\275\002Oo<\340\336\365<\225_3\275\0069\272\2742\362\217\275\342\213\234\274\205\276?\273\301C\223=#zH<\212|\240<&\261I=/\346\002=\301Z\245< \221\270<\034\016\320=X[W\274\300\313\035=\302`\004=!{\007=\035\233(=\340\250\340=\237\231\013\275\266R\"=\335\241\371\273AB!=7\306\352\274\216\376\230=\253\320\001=\265r\353\274%W\246=Yq.\275M\265^==>\200<\\9\275={\344?\275\237\204\313=\366\323\007=\276\373F=c\207U;o\006\025\275\025\377\001\2751\223\220\275\202h\000\274_{\227=\005Z\007\274\346\267\211=\251\255\213\275q\222\325\274\260\010\255:\032\335\274;\214z\254=V\272\244==\030\250\275%\322X\275\371\214\222=\017\313]\275\200\337\236<\261\"\203\275E\212w=\2417\254=$\343\251<\201\235\375\273\241\001\204=\377\253e=\220\0240=\367\210*<\032I\211\275\032\202}=\002~\301=\277\355a\275\254\332\321<$O\346\274\351^\204\275\367^\327=)\313\363\274*\021Z=\360S\326<\0206\034\275T[\030\275\025\274/=b;\302\274\303\200,=\262\014N<\010:\005=\336\252^\274\227{<\275\337\260\247=k[J\274\275\262E\275,\313\301=\321X\266;\371\331G\275#c\263=@\034\034=\177\334\222\275\210\001N=\333\366\344<\242\346\217=O5;=w\245\325=pJ\270=;\'\243\274/\247\343<;\340)\275\006\006\303=\2619\016\275\245\307\260=\264\370\026\275\\x\275<u\366\214\274i,\020=\"S\354\274P\302u=\330A\223=\310\334\016=>\234%\275d\245M\273\302\277+\275\023\000\326<?\214\016\275ie\232\274VR+\275\244\356\254\274\2076\005=q\037&\275\200x\201<\033\n\316=`uT\274\364j\213\275\305l\246=\217\315#=1\277\326\272.\260\262=\234\260R=H\235D\275\322\314\036=QNP=\336+\032\275\024\216_=\n\265%<\322\032F=kv\241\2755\211\277<\2131\240=\251g\217\275\272\362(=\234\356\330;jH^=\305q\236<\326\366\343=\033\242\226\274\222\211\025=\230\331\253\272#\350\252\274\357\024Z\275\320\304\204\274\243\361\254=?\003\310=\311\0312\274\3102\346=\'?\033\275\013<\001=\242Z-=\026\277/;\'\352\222\275\333].=\346\3017\2733x\253=\250E\330=\224\274\034\275\013\371/\274V\243\326\273\246\210\256\275\300\032\311\274\017b\272\274^_\240=\225&\342=W\213\271<\357\016e\273\235ZS\275\305\326\"\273>\314M=S\024#=cK\r=\031\310\212<2\2403<\241\305\310\274g\024\251=D\021\003\275]\374y=j*#=\004Z9\275\024zq\2731\006w=ff\244\274\315\332\367\273\013\261\325=\323\252\017;\206\333\244=\337\277\245=|\002}=8b\004=\212#\267=\373\312\331<d\353\244=\210\363)\275\360\363\214=|\236\257=\023\026\261\272n\222U<sw\264=\023\322\034\275\375\241,=,]\222\275\2365\320\275\365r\231\275\277\254\016==\345\327=|A\302<8\022m\275c.L\275\276\265\330\273Kr\230\275\233\035d=b\205\266=/.\327<\246\320+=\204~e\275\013\255\033\275\313\300\365<$\277\214\275\212f\\=sA,\275C\204\372;\355V\200\275\274\272\013=g=\250=,\231L\275\276\255T\275l\036\316<\306\235\n=1\264\233<u\036\'\275a\200\203=3\374\202\275\014\311y<H!\203=\r?D\275\216\315!=3X\315=\313\343\001\2755\267I=b\330\216=\210,\014=\232\2171=\\1\016\275B\374z=\244\206D\274\273\035\022\275\300\244C=\224\022\314=K\302\374;\207\313B\274\352\250&\275\014\357\236=\360\303G\275\355\265\205=\t\r-=\270\314N<\255A\275=\375%\004=O\313\375</\236]=-y\325\274\207\2526=9\315\"\274XG\221=\340\324\303<6)\023\275\372f\351<\273=T\2749\010\211\275Cv\265\274Q\261\222=\244M\033=\030r\r=\326\355\364<\250!\210<~\242\014=\2143\336\273\360\315\006<\037\247*=\375\235u=\216\315\214\275\276\263\242=Y*\251<\311\251\242<\342\263\025\275*\315\275\274\236\t\246\2754\026\237\275\274\r\016=\243z\252\274\335Y1\275\026e/=\032\0048\275n\351\205=A\"x=v\227\217=\t\307\034<\251E\276<\203\035G\275,\362\357<\201\215\225=\027\273R=\' \264\274K\247]<\276\205\277<\217z\373<\243v\"=\231\243\217\275\374$\203<r\010\266;\357\ro=\302.\022<-\211==*m\223\274g\025\023=h\372\201;\207\"G=\303s\323\274Ip\376;q\221\256\275\344Y\177=\300\321\357:\270\334\026=2\265\310\273PCR\275\301T\333=\211=*8o\321\227\275\264\371\222=Z\tj<\215\032\030=\036g\331;\215\202\261\274\332\r\277\275\032\251\243\275\333\350Z<\311/v=}\026\257=\357\221\237=i\371;=J^\201=H\031a=]\264\270=i^w\274\345\034\200=9\013\266<\177q\272=\035a\234=\025;\005\275\004hs=\354\210w=_\260K\275\334\316*=\032$\010\274\264\036O\275\216y\206=v\352\243=\334\347u<~\265g<\237\232\344=\",\330;Y\376\357;\355\324\216<\035\0208\275\324\267\273=\272\306\232<W\365\306\274\013\212\252<Ia\314;T\376\246\270\347\231\263=\210\265\322\272\344a\226=\371 \273=B\221\316=xd)=f\014\204=.G\027\274\224\321\277=\307\nd\274)\033\020\275~\256\206\274\017b\347\274\246%\264<\275\377\347=\371.\244\275\235L\005\274\255\316\260=\027\211\224\274\300\365\200\275v\020>\274N\334\256=OA\303=\241c\315=\306\232+\275\276\222\245=?u:=\241\316\354<\027\246\'<\267\324d=/\251\244=\201k\340\274\236\337\247;\004\306g\275\010v\330; \253b\275{\235\207=\345\341\323=\377\223\213=\244\255e={\231\220\275\021\233\213=9\014\"\275\013\263\250=\326\013L=\024\004\013\275t+\001<n\364\003\274\373\035\031\275\3367\273\274\256\236\276\275\217\273\305\274w\020\337\273\244\036\273;\325\3135\2756cE\275\017\2119\274\345-\200\274\345\002\330\274\333\223u=\203\n$\275&\242=<\327\332 \274\336f\217\2752nr\275;\247\300=\242%};Quh=;A\202=\0004\211\274\340\037\016\275\023\322\300<\020~\356\274\n\333\035=\367\014\256< \316[=HD\323=\"\306B=\305\226?=vj\t\275\325\326\345<\376\310I;e.\270==\246N=\002q\254=[\256\024\275\270C\251=a\357]=\010d\311=\334!U\273\230M\303=g\005\005=b\024\234\274Q\324\010\274:O\2339F\246!<d\021\242<\3418\035<\355|D:\346\005\330=\260$\200;Z\332\251\274\177%\t\275{\345o=\273;\205=N\354b\275\020=\002=l\303y;\250\365\022<\325\034\276<\371\215\204=D\353+=_\345\274\274\034\0332=vPS\274J\347\303=\375\263x\275\312s\276=.c\222<#\361\371\274\025\245{\275o9\265<\257\016Z=u\274V=W,\207=^J{\274\322V\304=e\350n\275\332\334~=v\361n=\364\016\355\274\222#b\275\222\2642\275\262\036\216\275\320\226}\274*9\026=0W\316;\247\361\212\275\243\314\214=\356\nr=\320-\352<)\331\236=a\267\226=A\311z\275p\236+\274\272G\373\274\330T(\275\244V\201<\275z\004\275\232\375>=Ma\006\275\000\331\025\274\204\231\307\2747\212w\275\306J\365\274\300\330;\275\323\303\252\275AS\327\275E\031L\275\214l\253<\304\222U\275\246k\260\274\253L\212\274<\023V;\3657\243<\343\250\375\274boG=v%\371:\352\271\202=@IM\274\357\'\207\273\316Y\244\2755XB=\247\252\213=\273\240\013=\263\233\002=JH9<\010#j\2758:\014\274,\371l\275\001\313C\275(<\261\275d\304\345\274\230\022(\275MK\317=x\254\005\275\265\030E\275o\212\006=\006\304\204=\355>\237=4%\214\275\003\256\306=R\206\220=O\300\276<%V\224=\264\n\220=%\300\250=\326\300l<\221\342\037<5\230\263\274Y;U\275M\332u=\200\2278=\341\270#=T\214\272\275\362/?\275\325\177H\274:\241\226=m<Q\275\340\n\312=M\324\020=D\000\335\274]\215\333<\357K\334<H\001\330=\237\212\344;T\367\323\273\230c\201\275Q\001!\275\330~\322:\327\273\031\275\322\237U\275\236K\237\274\245\010\0069\216\007\245=\337\364\265\274\n\337\n\275x\247\366;\324\330\337=\247m\013\275\320\267\335=\257\363\247<L\240\351;\326\235q=\267\206`\275;Z\245<i\022\004\275\252\330\231\274\027\\\364\274\307y\037\275`\305\316\274,\354\301<)\354\235=s\001\237\275\322\202\222\275\260\360\'=\337Jt\275\372\351\234\275\310\264u<\331\027\217=h:\025\274\204\374\240\274\224\333\320<\016\357D=\230X6\274\357\377\024\275\212&\025=f\326q=(\273\'\275Wb\205=6c\221\275\240\211W;\200\034\026\272\256\2039=\350\243\373<\026{==0M-=\242\207@\274\321\374$\274\024\220\224\274\0236\203<\355\001\024=\213\235\265\275\336\034\373\274\352\276%=\227\026\3249\322\331T\275\357\275\246=\2705\203\274\267/\225\275\314\261\313<@\216\254\274\301\025\205\275\345\363(=b\2534\2757Bp\275\334\362\346<T\200~=\253O\344<\010Zp<\233\334\230=\277\377\236\275\364\307&=z\025\033\275\203N\263=\252\323g\275\240\226\271\265\025\276\332\274\224 ^\275e\245\310\274\026Q|\275Hd\346<VO\362<\371\304\000=k\241\265=O\205\255\275\342\314\266\274\354\0163\271\362\nI=\351\352\207==U\366\273.\347=\275B\006\312=\025\255?\274\221\365\375<$r\005=\0212*\275\216\027\243;=\246\023<Ekn\275,\203\254=\014\310\221\275D\330\027;s6:\275\320Tq=\376h\335=/\244\227=E\212\317=LU_=GT\237\274c\355\035=\313\345\\\275x\227\"=\222\001\206=\336,\215<\272%\245<\025yG\275\367)\365<\257\230\213\275\037\367\221=\307~\240</b\037\275\266\017{=\310\3333\275\327\315\005\275\002J\315<\241\302H=\027\255\032;\027\260>\275\2225m\2755\3554<\204O6=\006\326\264=\237~\324=\003\031\200<\373\ti<h\235\206\275u\301Y\275\002\273\223\274\277d4<>\332\027=\307];=B1\"=\320\020\302\275\374J\230\274{I[=YV\177=\317P8=n=\263\275\022(\320=\027\305$\275S\000\212=\202\212\"\275\r\330K=ah\027<\001\222\275\272\343\255\206<\251>\250\273\230d8\2744\013\030\274\004y\225=\255\260Z\274\356u\217=d\337y\2758gY=\310RS\275U\270\275\273\363Yx=\014\020\305=\251\354q=\247\252&\274\330\034\235\275\0056*<,\3449\2750\311x=\226}\241;\374\314\300=]\252\035=\334\200\014=k\305\032\275+~\201=\t}_\275\001\r\361<\231\367\214=-p\036\274?\236`\274\007w\270<\212\237\235=@\241\325=]@\030\275\360\262Y<\244\271Y\275\\\002c\275]\233\257=x4_\274\271\313\302;L\333\243=iq\270=7t\371<Gmq\273\203\177\022=\373Q\026\274\335S\271\274\271\t\177=\234\352\020<\365e\302;6\3521=l4\261<\375\014\226=\324@u\275\256\312i=\241s\246=$\027\223=\300K\233\272fE\250=\335\2017<\202\341R\274\013\226\337=\347!\272\274\331\342u\275k\242\304<\323\345\025\274\334j\326<\343{\013\275\230uZ\275\023\264\223\275\330\014@=:\241U\275\202\200\270=\266%\221=\273\037%=)\'M=@4>\275\337\377\034=\351\244B;#\275\272=\036E\003=\267%\203=\330]\305\274\213\271\253<c\221\221\274\320\317\302\275lQ#\275\252\370\251=\343O\275\274\255\231\302=@\017\021\275dh\231\274\271\253\236\275,Z\310\274cA.\275x3\324\274a\216\336=\376\330\305\274vj\340\274\335D\214\275\356\272\237=!\224\306\273\313\244\272\272\004q\020\275\377\333\201\274\204Z\036\275\231\372\032<\262?\260=\362D\317=\257\343\227=\346\250\247\275\201\035\272=\027\212\277=EI\224=\r\207\227=\277\347\177<\330\323\335<\021\340\204\275\227\355\234\274M\243+\275\200%f\275\270\005Y=\370\364\251<\032x\231=\025u\225=\277I\277=\314\215\203=\317\313\306\275qK\255=,kV=\020\310\204=\r\277\330=\201\336\007<#-\t\275\244\374R\273\204|\271\274!\315\216\274f\202,\275\242\030\212<\305\200\236<\350\275\230\275\347\262==\364\234E==\317\022\275{p2\274\n<J=\204\367k;0\336\2679;D\030\275\346uV=\334\203G=\244\207\003=,\321\214\274\276\3626\275\276w\372\274\235E6;b>\203=\374\353(\275\266\033\177= \037\202<C\244\326=\210a\215\275E\263\366<\3355\345\274w\n$=\276.\202<\014s\000\275\354\262\036\275\216\217\376<\275~!=\234\002\014\274A\356\346\274K)\213\273\212L\321\272\2426b\273\351\264\204=\201\3649=\264\004\037\275\316! \275d\025\262\274\254#\245\273\361\372\264\274\024d\221<ucD\275\264&;\274\2125)\275D:\243=\365\232\204\273\271e\322=$\355\275\274LB\375\273\025\005\326<ol\213\275\360\326\262=\2219\207\275\223\236\260<\234\227\267\274R\364\214\275\\\242\213=\230s\016<\020\250\275=\266\373\271=\n\337\210=\352\t\276\271\005\373\213=\255\006s=\001\376\216\275\006\202\350;\363\005o=\223\335\224<\036\200\320\273\372f\243=\344\343\241=\014\253k\275\005\000\244=\335x\316<\251\250\370\273\032\351\276<\257\326\007=^\372\274=\276\241\032\275\233\364\325=\\\003j\275V\'<=R\223\330=`\t\013\275\242N\371\274\"\311\232=\331\356.\275\301\024\314=\233\3108;\205\257\234<\217\364:\274#\267\323\272\034\230/\275e\245\360<\244\336\034\274\311\245\004\274\305\310f=M\335D=\356\021^\275t\022\236<\007 \265=\325\324T\274\n\311\242=\233U\227\275\365\241\217\275\324\316\347\274\256\3532\275\211\353\206<\345O\241\275\023S\017=u/$=r\242^\275*\246\237=M,\250<\320\214\313<\350\017\004\275\n\316f=\233m5=@t\353<\331\327p;\226r\324\274n\r\027\275Nk\370\273\315[\033\274V\027\274<\003l\367\274\214\244X;\212D}<^\310\225\274a\007&\275\314H#\275\025f\020=\320%\273<\342>\233<l\207\252\273\366z\213=H\303\202\274\021\267\202=X\333W=\322\244\275\275\033\001\033\275;\251\347;\022o\266;9\262\260=\306D\002\275\231\374\256\275\007\377\243\274\236t\035=\"\215e\275\220\352@<\225J\241\275\350y\344\274\020D\000\275\303\236_\275$\014)=\323e5\275\315A\210=\nW\332=\321\335E\275Hv\270\275}\254\231=|r\024<\230\253\265\274\324\222&=F\255\214\275\271H\227<\0314\256=\377\322r\273\262iO=\320\2614=\220[N;\300r\330<\240SP=\355\324\021\273\004\375\315=\234I\351:\375\305\034=\031\216\331<\360<\026\275\255\\\326=\3217D=\022\333\225=\207\367y\274m1\222\274*\\\264\274\353C\322<\262\315\234=\r#\200\275|\3465\275\r\364\263<\203\363\206\274t\004\244<\232kI\272Bb\360\274\241\177\310=\341\260t=Y/\257\273\003\306\t\275\265\222\246=<)\014\275\266\371L\275\344\2303=k\006\205=\250\331\302;\214\364{=\266K}=\222\020,=\250\232\254=l=X<H\270\033\275\307\005\017=\274\365\013=i\030\005\275\206\003\342\274\227\033\302<\303\n\254<\204\r\203\274\366\260;=\240\024\023=\362\322\217<\211o\222=\346\331!<\3744\203<\227f\277\274\267\205\036\27437\276=%:\323=\335\213\240=\003\363*\275\r\347R=\365]\022\275\3635\034=\274\250C\275ul\341\274\261\316\010<\372\305\t\274po\331=\010\024Q\274\313\327\261=\361v\260\274\354T\341\2747g\'\275\324\233\306=^\027\026\275\"\010\220=y\3562\275\021iI=H\337\306<\2010N\275\026\374M<\233\265\234\274wr\254\275l\3017<\214\201\232\275E\221p=KF\n=r\351:\275\210s\376<*\3204\275\2176\341<44\205\274\243\341\205=\021\376\256\275[\271\314=\342\335D\275I\006\033\275\270t\"\275l\227_= \356\247=>R\372<EM\035<^\266\020\275\316\375\t=\225\275(;\320\357\210<\231c\255=\222\314\343\2745\257\310=\262_\240\274\327\216\331<+\301A\275l^`\275gt\205:5\375x=\241y\205=\311g\205\275\223X\352\274}\357;\275\006\t\"\273\234|\376<;\016\223\275>@w\275\026$\253=\322\254E\275\332\017\223\274\241\305\227\275N\336\010=\306\332\260=\322\237\216\275\365&u\275\264\000$=\333\316\t=l\310\216=\347\260\007\275\026N\215\275 \213\341=\023\3275=f`\326=\210r}<\250r%9\253\266\230\275\304\013\251<x\327\232=\317\r\210\274\335\220\033=b\345\343<\321\r\005=\236m\006\2751\345\035\274\265v\314<CI\315<\244\327\010=\371\304\302<r\3401\275Ui\256=\304\246\242=\343\024\261\274m\204#<iL\014=\243\242 =\332\223E\275\254;P=\020\'\264\274M\017m\274\006\306\262=\"\213U\275\331K\272=\027f%\274N\273\020\275\231p\333=s\351\005=\305\023\202\275\261L\271\274\320R\231=\321l\003=\2347G=\320\357\324=\0268\r\275\255\253Z=\243d\003<\265\022+\275\263\331\247\275\222a8=\347\336\301=Hq\014=IG*\275\003J\326\274:\330\007\275/\314_\275\204n\210<[r\212=\276\355\212=}\230\373<\231\275\227\2754\035\300=\365\020R\275mk$=\257\225\300:\251\375\322\274\247>\205\274 C\252\274F\256\201<\3371\275=v\234?\275\014\213\202=\010\323t<\333\240P\274S\365Y;\023\273\260\274\207\244l=;O:\275\217\254\277<Z\\\275\273\2269C\274\342\334\302=\211`g=i\327g=S\220U;\210\\J=n\320\233\274\314OB=Z\036J\275\'@\026>\001\312<;\277kA=7S\325=\262\021,=\004\020\305\275\022\020Y=f\252\221<\254\310\362\273l\371\213;\233\244\273\275y\356g;\215j[<\273DJ=5q\247=\244\306\230\275\033\200\337\274\270f\372:*m.<\016\035\345<\333\207\234=\032\216E=:\331\323<\211\272\370<\262\372\275\274~\306Z\274=\013G=\261M\004\275\227z\230=Oc\204=9\305\375\274\225\315k=\223\024\241=\242\263O=\252 \\\275\207\3421=\"\210\262\274\224!\204=\235\356y\274\3006\216=e\243\315<+\214\037=)\335\016=\345\225\\=:#\206\275\3548\226\274\341\332\247<\r\026\242\274\202\366^\274p\231\253\274+ |\275g\030k=\235\270\221<0\303\351<\013\031\"=\020\312`<6\326\223\274\320\022\254=&\352\230=fR(\275\265\205\250\274V\005\223<WX\321\274?\224\004=?\031\264\275\232\271\216;\355\340\001\275EX\317\273S\013%\275\264U\000\275\337hQ=w\315i=+\334\017\273\373\304\227\274\036\265E\275\230\275\266\274\340\312\211:n\007\221=\326b\374\274\216\177\320=\360\356?\274\260-u=9\001:=\303\370^=G\342\032=,o\236=]\257\267\275\336)\354<\261%V=lI\336=\316Q\341\271\347\362\346\274\316\325\371\274G\261\216<7`\322\273e\333L=\016\330\300=\246\324\241\274\014@\202=n*\341=\230|\026\275`\313\030\273Y9\310=\037\026#=~sb=\210=\220=\327\340|=I|\\=\301O\262\275\272#G\275\354\207\007=]\313#\275\365w\266\274\022p\031=\354\374\240\274\310gw\275\225\217=\275\344\305\022=\353i\224=\000\023;<W$\245=*\317\r\275 \356E\275N\355k\275\0011.\275v\205Y=\242\016y=\202#H=}\246x\275b\233\325\274\2714\243\275\216gK\275nJ@=m\312r\2754\324\240\275@\244\316\273\370\316\214\275\030\342\262\274\020OY<\000\350D\273/;\205\275\256b\230=\225\231\203\275\014\325\r=vW\310<\241\003\013<lb\272\274\316@\360:\211\363p=\t\n\227<\324\036i=<\256\2378!n\005\275\232\255\217\275\377vb\273\352w\025\275\317\212D=x]\023\275On1\275\360\312\254\275\236}\213=\307D\354<\033\246\307\274\256\274\305<\227\237><dOt=\2743u\275\257\271\221\274\t\277Q\275I0\375\274\273K/=\344\210\037\274\314\206 \275\3642\213\275\216\242\225=\327\024\013\275l&\236\275oi\200= B\300\2721\245\213\275\233\247r\274\320,L=\016\201\236=\003\032\334<\033~\220=mV\346\274}\336\207\274\373`\242\275\\\262v\275\343+\021\275\310\271\002\2748\253y=\325\200\027<O\033\002\275\275\2108<\204\202==\306\360h=\326\350\207<\206\241 =S\306\205=\0077\217\273\017>\343<c\372\305=e|\n=I`\223=\345\322\270:)\r)\275`-\376<U\034\026\275\304\n\237<h\211X=\244\255i\275\t\261\025=p\341,=\006g/=\216\331\242<\300n\026=RH\323=x\337\025\275\025\'\344;\374\273\363;\200\261\270\274\353*\210\273\204\226\n\275\020nk=5\301e\275\357E\220\275\356@a=\274\3160\275\301\367\226=Z\007D=\214\332\344<\374B\342<\354J\271<.\275\237\275\240*x<\340c\244\275\264\231\357\274f\201%=x\035[\275\210\365\202\275\340\354\231;\327\322G\275\350\320\002\275&\370\t=\366\305J\275\372\241\007=XN^\274\222.g\275\340fF\274n\0164=\252\025\027=\226z\\=Vxi=\030}\013=\023sQ\275\275\265\214=x\016&<M\2455=\302\035\274\275n\362`\274\360\030\203=\006Z\234=\353\246\214=tJ\034\275@H\224\275\334\372\306=\233YC\274\"\266\202=\216\361C\275o\354\212=;\274\266<\017\016w\275\203\257\254\275\023B\246\275\207\017\220;]\007+\275BF\210=\373\032\242<%\275\003\275\203k\023\275\267H\366\274E\310\370<\360i\300=\251\325\234\274\3337c\275\273$\242\275\005\367\317=\021\n\030\274Q\372\244\275\275!\255\2744P\204=c\276=\274~M&:\215\343T=\244\237L\275\301\2469<\255\026\376<\325\225\324;\200\002\207=\022\024\347<\036\322\246\275\200\216\204\275\025\214\306=\311\200\331=\003W\233<[\305\230=pC\014<\036^\241<]]\226=\311\017\212<\261\265\240=\342\036F\275a\356/=`\233v\275\',\255=\016+\225\275\221o\233< j\372<\253\300\216=e[&\275\3154<\274\204\'\256=S\263\250=2:\257\273\331\361z=\033\250\343\273\\\331\312=[Cl=\257{\206\274,~\220\2758T\262\272o\360\252\273]\333<\274\2533\002=\315Z*=~\240\271\274#\231\217\275M)h\274\037\2136\275\r\336\254=Q\253\371\274\305*{\275\312\314N=\024\251\000=?w5=\212\016:=p\227R\275\362)\201=\245C\276;$\212\214;\365;r=7\214Y\275\344\371\207;\201|\236\275X\002u=P\241b\275\247\212t=\3434\001=\nb\317<3P\303=\002L(=\227\264\241<>\202\350\273(\273\262\273L\240\312<\032~\327\274>*\267\274/\013B=\001[d\275\034\016\207<\241V\001=\321=\254\275\r\361\020=.\325\210\274\223\342\207\274jM\250\274\311Dq;P\032\214\274\036\257\255\274}t\343\274y\236\313<\354\263\273<\217\200\251\275V\257/\275\330*W\274Y\211\222\275\230\023\220;\224\313\177=\"ml\274,\341\244=bat=,SL=,gg=\361\231\207<\r\255)=\343:\316\273\307\013v=\212r\354\273\302H\216\275\361f\256\275\272\360f<v\204_\275n&{=\312\0234=\035\210\237\274\332\211\007\275a.\021\274Wa\315=\n\225\325\273\020\201\033\275K(\250\275\227\024\242\275\200\303\320\274t\362\037\275\336\346\212=\207T\\\275\366\2474\275\341\323\363\274\n\367\216\275-\316\314=;G\203\2733\323\207=\366[\316\273\322kH=\202!]:\267\302\254\275\364\304\036=\265\307\244<\247q\317=\007\251\312\274]\274\246\275\357\020\242<:\231\264\274*#L\275\214\321\275<|\244L=\271O<\275\261\021\205;@\354T\275\216\214f\273Q\327\233=\233\361h\2758m\021=p\343A\275\0257\213=Y@\231<e\033L\274\210\217\320\274\364\334\220<#\003\251;>\325\317<\025\342@\275\247q\353\274|)c=@\301\225<5w\231\275uv\235\274!\222?\275\331a~=\025\014\320=$\327\\\275(iQ<<+\262=?A\233=\021\"\020\275\345\323>\275\217z\250=\342\200\246\275\362\263\237<N}\007\275\323\006h\275\037,\354<\237E\006=p\004\226\274\255\215O<J\335\376\274]\245\312=;\244\231=_\247I=5\314x=\227\\\316<\273\021\320\273\200\035\207\275\264%O=\220\353\217\275\026\364\023=j\032?=\212]n\275\236\315==8V\340;K\346\323=q\354\336=\343.b<?k\031<\032\250V=\332\366\224\275\274e\024\275\222\212\220\273\274I\213=_\207]=\rf\205=R\232\255\274}c\274\275n\'+\273*\340\234<e\322\324<\311P\210=\221G|=\211C\017\2750?D\275\244a_\275{lm<\245\274\213=)\250V\275\337+\320=4\003\242=\202q\207\275\306\311\243\272\246i\\=\303E.\275h\252\026;J\214\207=Y\340\002=}Y3\275-Q*\275\t\306/\275Q\343)=\254`\002=\366F^=\326e\336<\212\016\305\275\304h@\275\252\241&=\222\243\254\274J\302\025=i\326\226\274\260(\036=R\334\221\274\312\360\235=\214\223\023\275d\274\201=\322\005\307=\3264\261=qW\203=\362\256C=\3158_=\224.\004=\037\320f\274\305\221\026\275\256\023\315=\363\307\310\274\324\017\332=\006\213\004=\373$\261\275\022\247\274=\211\266\266\275\321\375\227=xi\234=\273*i=6\023\265=\205I\024=\261\007D\275\014\3448=\244T\231\273@\302\246\275\251>)\275<I\261\273O\333\225\274\202>\217\274\370\271B\274\013\256\211\275\340\273\315\274a)0\274\020\0042\275x\233\311\274/\310G=8\302I\275@S\272=n\206}=Nt0<\346\253\260=\256\260d\275\305\262\220<;R\266\275\255\313\276<\242\017y=R<9=\263)\277=\221\310\320=\315\304`=i\362n=\274\243\265=_\254\005\274\222\313N\275\313\250\367;S\023\244=\013\315\313=\345\002\032\275iY\263\274\365\000O\275W>\246:\272f\235\275\tC><\203.4=\264\301\225=\302\232>=\221V\365\274\221\376\316:\374YM=,NX=n\340\266=\267\223\240\275co\207=\273T\256\274`\3412=^$?<\304)\377\274{\223F;\177)z=&\201U=\364\323Y\275N\306\261<%Cm=k\366?=\362\273\303=\270A\262=\007a\302\274\250<4<\313\301\333\274\372p\322=\\\351O;=\356\325=\214\027\235=\336j[\273Z\245\237\275\021\270\251=o&\342=\330\332P\275b\203\221=|\232\244\275\037x\000<\014\304\251=\004g\222\274Ce\274=\314\204r=\313Z~=\223\360\"=\026\352\335<\337\032\202\275\231\260_=kVe=\252\222\231\275\202S\322=\340\343\214\275e\350\227=\337\244\345=U>\266<\274GH=\265\005\311\274\rO\313\274\\\356c=\331\356\330=iP\003=\305\362\031\274\362\273 \274\211\350o=-\345\350;\266\361\225\275C\213\277=\3352;=\206\241_\275=\364\r\274\352\210\007=\226\005t=\370\025L\274\377\002\241=vG\312\274\366f0\275*IZ=\352\363\235=\307q\301;\244\007u\2734\347\023\275\334\233\315\274\202\213\235<^`9=\246*\220=\324S0\275u\217\335\274|\237\270<\276$J=*\014\224=\017j\031\2741\320]\275\200,\242=\275n\242\274\231\213\307=^\002q=\210\251\002=_\235J\275\240\271\227=\336\375\237=\312\304\001<\237\r\301=\223\3522;\343\234-=\223iY;R\334c\275\032\027\263=,I\304=P\267\303<\177X\211=\212\267\247\275\233\243\002=\223\340\010\275JX\302=\221\213\250=k\212\002\273$\177\025\275\232\3713=\016\304\303<\245\334\265=\362\367\211<\354\214Z=gY\211\275\261\300\253=\020QA<\362\022\033\275\200\331\361\274\320.\014=\305_\023\275\210\365/\273\262\017\036<\336\037\237\275AM\341=L\256L=\250\361\267<e\262\347\274\312\275h=\334Ca\275oe\204;\235a\270=\335\267K=\322\313V<S\r?\2754L\230=\377$W=\336\272U=pAa\275N\360b=\341\274M\275\022\301\335=`\273=\274\201s\342=\016\'\036\275\010\203\302=;\033)=[\242_\274\253\277X;<4u=.\346\205=?%?=\317\247\024=\2755\t=\302\3577\275\203A\204\275\201\242L=\252\226\315=+\203\205=\377\2438=\211^\037\274S\260\277=],\200=\366}}\275(\2352\274wZ\273<@\325F\275\207b\210=U.\206=]\277!\275j\251\032\275\235|\340\274\370\203}\275\321Kd\275d\366\216\2728\036\337=\245\344\017\273T\273\321\274\313\210\274\275\260O\361\274\226\266\351<Ja\344;\306$\211=X\263\022=\340\005\017\274\311\353<=\307\243\220=uL\322<\314\257\261\273\277|,\275~\362\030<U.U\274\355\301\033=\224f5\275\':`\2753\256^=\242\232\213<sY\260;\334\260\246\274\360\261\036=\272Z\341=\271\221\222=\360\272M\275\231\310`\274O\006I\275\033r\r=\332\355^<\243\363\263<\306\204)<\243\323\262\275\270\360\027\275\216K&\275!(\277=m\331\203=+\r\222\275|\006\240\274B\331<\275\262\277\211<V\365\362<\334\256\345\274\344\375\211\274\215\\\265=\214\236V\275\221\003\207={\255\177=\304\352}\273\343a\201=\024e\017\271E\274\312\275\322\023\333\273\237\272\205<\377\262J\275R\362\325=\344\302\261;G+H=o\373\217<F\237\365<\031k\351<\336d\326=1\262\355\2738\025\010={k =\322\245\263\273\321\250\360\274N\017|<\031\376D=\234Dh\274\311\256V<n\205F\275L\300 \275\202\021\251=\220\304q=PD\237:4\215\230=\3537\377<+A6\275,\256\221<y3\024\275\355\267\302\273\220\334\232\275Sm\311\273\325K\355\274\264Y\034=r$\376;\006\245G=\375\223\020\274Z\004I=e\274\332;\3224b=\3351+=\2701\266<\363\305\243<S9\225=\333\332\212=\367\334\330\274N\t\321=+\210\351\273\347\210\005\275\272\225\236=Y\326g</\024\310\273\336\0023=\024\374\303\274\242h\202=%\357-\275Do+>L\363G\275\224\316\261= \260|=\334\343\325\274\265\274\022\274~\013\201=\377&L=<o\004=1\222z=\247\2418\273B\313\016\274[\342I\275|\260\003\275\3350!=4\243\266\275\"\306\010\275V\032\003=\374\253\362<\032\374l=\263\305.\275\2665I\275H\324\335=\253\207\327=\226\241X\275A\327\347=\r\214,<)\200t=\216<\340\274\210\337 \275\350\204\371;\237\033\022\275\35738\275d\227\210\274\t\221S\275\227\224\260\275t&\334<\304\367\022=\332\252\210=\233:\306\274\213\245@\275\3560\207\275\237\0212\275\014\205:=\260\'\224<\016[\211=m\302x\275g\355\252\275i\324I<\017\321\207=S\307!\274\372K\240=\377/-\275s<\237=1\220!\275UIU\275\314\233\000\275\265\234\341\274\256H\242\273\226Q\225=\035Yy\274O\246\251\275\371\203\004\275\303\220\331\274\312\234\242\274\362\302\266<\241\324h\275\344a\241=-\223>\275\343\037\223=\251\267\270=`@@=R\031\312=un\t\2743\024\244=3\036\240\275Y\022\341<\n\212M;\350\307\\=\341E\234=\271\216\221=\307E&\275)\217\027\275M\034\236;\310\377I\275\2555-\274\330[1\275\224\350\354\274\264\352-\275*J\304\274)E\214<]F\220=Q2\252<\266\203\336\274\032;c=,.\375\274\224\035\313=\274W\t=\224 1=Wy+\275\350\017\215\273\205\230\276=\034\n\221=\354\t\304\274\220\263\002=*4\210=\227\325G\275\306.m=\213\224\360<\234_\016:\262\360\023=\342\307\213=\010$6=\360\216\\<K\023j\275|r\013=\365\330\005\275\224c\317<D\321\004=2\321\237\275\360\031\023=6.w=\300\031\301;\374P\265<\024\030\342<di\234<x\213q<\272yh=\030\206H\2754\343G\275\200\272;\275\220\327\355\273\330\030\217<\200C\022=\306qL=d\017\217\275\235\002\202=\032\267S=\310\221\037\274\010\273\201\275!g\007\275\332m$=W\375\031\272\007H/=\3212\035;\312\323h\275/z\300;=\265\\\2757\224I=\307\313^=7p\030<\271J\376;\274\027\025<\336\024\202\275\2167\224\275\023\003\245\274\211\240\203\275\261sz=\2532\220=f\332\360<$$\254=\262\271C\275\237\r\226=\276W.=\210\004w<\347\240\034=\372\355%<\320\275\270\274\273\217#=\357\276$=\001\201\214=\201?\247=\0245\014=\203\343\004<-\210\221\274\331\205?=[o\251\275\007\3308;w\336R;\254\247\227=\311\253\276=\347\354\005=\205\272;=\3671R\274d5\200=L\220A\275\001\220\334<\306)G\275\227\347\326\274\300\340\214<\264\315n=\314\327d<-4\252\275\250\341\312\274\232\341Y<h\344-=\3050\250=z\374\215<\362\367C\275\314\035\306\272\343u8=\346\350\227=\272a\304<\312\331h\275]\326\305=\022\317\250\274\350A\320<\251\253\001=c9\313=s\223g\274\006\205\237<\212>\017\275\375\371\303\274$\277:\275\360my=\n-\336<)\236a=\263\207e=\260\215\237\275\2136\032=+\330\320<\035\327\321\274\341-\366<\203\t\316=\np\201\274p\353\245\275\210\223e\274\224\311\206\275\205\t-\275\010zs\275~p\007=Hl\034<\032\005J\275\366\031\027\275\330>\r<\362\377\201\275\306#i=\010\350/\274\006\336\014\275\214\250\031=\356\302\250\274p\274\212\273BGf=\300\352\317\2740\251C\274C?\240\275\270\314\247\274jgb=,\335\223\275\356\325O\275\0267\007=\271[\177\275\204p\232<hq;\275\271x#\275\372\016`\274\376\336\013\275\016]\242=\"\246\036=\202\354\204\275\245\246\251\275\001\"!=[\331\023=\206R\246=g(i=?\265\002\272wb5\275\007Nq=\"Gt=\330+F\274osV\275\314\273:\275\322sX\275\0165\r=\334k:=\314\355\273;a\227}\273\250l\223\274\2109\r=1,/\275\203W&=\2566U=\207?\250=7\000\t=\364ta\275c\355\000<\000\365\255\275\001N\250=O\322&=\257IB=\311T\032=\257\353z=\"\0070=\266[:<PdW\2752{\355\273\\\030\307=\'\031\026\275\235P\256=\273&-\275d\366<=h}A\275\030\327[\275\020\031z=\225|6\274\254x|;F\356\t\275\036`6\275B\255\202=\233\352\341\2748\333\005=^a\307\274\274\333\301=\r\256\353\274\253\320\023\275\224\245\315=\273&\003=\201D\336;\377\205Y=\006\026\337<\005\260D=i%_=\326\205\'\275\000\343k=G@I\275-\272$\275\303\201\243=\327\334*\275g\005\006=\340\0214=oVy;\301\306\203\273\352\301\340=f[\262=\006\340-=\233.\252\272\225?\023\274\\\273\246=\362<A=?\204\251<\"\323\272\273\261{\375<\354b\255\275\246^\021=\372\002.\275\037dO\275yY\317<@@]=\221\344\304\274\360#Z\275\240\271\001=g\307\004=wN\023:\234\216_\275-&x=\003a\016==\355\205=\323\314!\275b\337\202=?M\233\274O{\257<\220\001L\275% \260\273[|\322<1\342\266\274|\344\003=\332\351\247<9O\026=\003\360 =V\n\313\2739\200m\2742\241k\274\263\340\356;\t\275S\275M\025N< \032\231\274\205\220~\275\266cD=Z\355\313<\2059\317\274\351\2673\275\235\336\250=\006\212 <k\333q\275i\017\221<\261\371[={#\242\275\252\371\026=\273\036E\275\275\3618=\202\311L={\275\302\2759\300\005\274i\303\272=l\264n\275\205\004\311<\332s\327<TM\270;\000\256\000<wb\006=f\204\205=\',