node {
  name: "x"
  op: "Placeholder"
  attr {
    key: "dtype"
    value {
      type: DT_FLOAT
    }
  }
  attr {
    key: "shape"
    value {
      shape {
        dim {
          size: -1
        }
        dim {
          size: 8
        }
        dim {
          size: 8
        }
        dim {
          size: 1
        }
      }
    }
  }
}
node {
  name: "encoder/conv2d_1/Conv2D/ReadVariableOp/resource"
  op: "Const"
  attr {
    key: "dtype"
    value {
      type: DT_FLOAT
    }
  }
  attr {
    key: "value"
    value {
      tensor {
        dtype: DT_FLOAT
        tensor_shape {
          dim {
            size: 3
          }
          dim {
            size: 3
          }
          dim {
            size: 1
          }
          dim {
            size: 8
          }
        }
        tensor_content: "v\203X\277\316\203@\275lC\331\276\301\314\">\344T\354>\363>4\275\355r\306>\377\n|\277+\241\004\277\341\365\'?\n\373\256\276\265!\202?\275\372\024?q\r\000\277\324J\n?\261\351\336<O$\007\2773\274\036?\274X\361\276\301\203\225\2763\340\342>H\tM\277\036u\234\2747\022%?\'\230\362\276\263\320\263>\0320\265\275}\025\335=\021\027\003?\362\241\031?B\227F?\354b&\275)\351\315\276\202\262M\275v)\247\2754\317\n>\252c\226>g_\005?)\010I?\252\025\377>q\257\353\276\271\325\020?&\225\216\276\013l\245\276\025\267<\277\310{l=\315E\344\276\370\246\035?s\366J\277\343\232\004\277.\304\302>\357\014\243\276cK\257>\030?=?\230\230\017?\0323\311>O\336\013\277\351\001\221\275K\250\211>\026:\310>\2140z\277\243\0169?\202\275\331>\372\252;?\026a\013\277m:a=./\033?\253\327\322=\177\362\201\277\260\265\227>\252/S\276\316\353\355>"
      }
    }
  }
}
node {
  name: "encoder/conv2d_1/Conv2D/ReadVariableOp"
  op: "Identity"
  input: "encoder/conv2d_1/Conv2D/ReadVariableOp/resource"
  attr {
    key: "T"
    value {
      type: DT_FLOAT
    }
  }
}
node {
  name: "encoder/conv2d_1/Conv2D"
  op: "Conv2D"
  input: "x"
  input: "encoder/conv2d_1/Conv2D/ReadVariableOp"
  attr {
    key: "T"
    value {
      type: DT_FLOAT
    }
  }
  attr {
    key: "data_format"
    value {
      s: "NHWC"
    }
  }
  attr {
    key: "dilations"
    value {
      list {
        i: 1
        i: 1
        i: 1
        i: 1
      }
    }
  }
  attr {
    key: "explicit_paddings"
    value {
      list {
      }
    }
  }
  attr {
    key: "padding"
    value {
      s: "SAME"
    }
  }
  attr {
    key: "strides"
    value {
      list {
        i: 1
        i: 1
        i: 1
        i: 1
      }
    }
  }
  attr {
    key: "use_cudnn_on_gpu"
    value {
      b: true
    }
  }
}
node {
  name: "encoder/conv2d_1/BiasAdd/ReadVariableOp/resource"
  op: "Const"
  attr {
    key: "dtype"
    value {
      type: DT_FLOAT
    }
  }
  attr {
    key: "value"
    value {
      tensor {
        dtype: DT_FLOAT
        tensor_shape {
          dim {
            size: 8
          }
        }
        tensor_content: "\261=\'>\311\273\035=^g\010>\0252u>\347\210h=y\356\226;Y\230\262\275Z\317\004="
      }
    }
  }
}
node {
  name: "encoder/conv2d_1/BiasAdd/ReadVariableOp"
  op: "Identity"
  input: "encoder/conv2d_1/BiasAdd/ReadVariableOp/resource"
  attr {
    key: "T"
    value {
      type: DT_FLOAT
    }
  }
}
node {
  name: "encoder/conv2d_1/BiasAdd"
  op: "BiasAdd"
  input: "encoder/conv2d_1/Conv2D"
  input: "encoder/conv2d_1/BiasAdd/ReadVariableOp"
  attr {
    key: "T"
    value {
      type: DT_FLOAT
    }
  }
  attr {
    key: "data_format"
    value {
      s: "NHWC"
    }
  }
}
node {
  name: "encoder/conv2d_1/Relu"
  op: "Relu"
  input: "encoder/conv2d_1/BiasAdd"
  attr {
    key: "T"
    value {
      type: DT_FLOAT
    }
  }
}
node {
  name: "encoder/flatten_1/Const"
  op: "Const"
  attr {
    key: "dtype"
    value {
      type: DT_INT32
    }
  }
  attr {
    key: "value"
    value {
      tensor {
        dtype: DT_INT32
        tensor_shape {
          dim {
            size: 2
          }
        }
        tensor_content: "\377\377\377\377\000\002\000\000"
      }
    }
  }
}
node {
  name: "encoder/flatten_1/Reshape"
  op: "Reshape"
  input: "encoder/conv2d_1/Relu"
  input: "encoder/flatten_1/Const"
  attr {
    key: "T"
    value {
      type: DT_FLOAT
    }
  }
  attr {
    key: "Tshape"
    value {
      type: DT_INT32
    }
  }
}
node {
  name: "encoder/dense_1/MatMul/ReadVariableOp/resource"
  op: "Const"
  attr {
    key: "dtype"
    value {
      type: DT_FLOAT
    }
  }
  attr {
    key: "value"
    value {
      tensor {
        dtype: DT_FLOAT
        tensor_shape {
          dim {
            size: 512
          }
          dim {
            size: 32
          }
        }
        tensor_content: "x\262\251>\217\320{=\356\003\270=2>T>\337%\375>\347\357>\276q\375\356>\253&\254=\025 \\>L3\346>p\n\306<Oy\334\275v\314\342>I\226\351\274S\365+\275&62=\016\000\010\275\236\226\277>\203\241\365\275I\021\250>!\253\221=\037\273\276>=\243\253\275\223\307(=-\247\231=\3543s=/7\235\274\262\'R\274S\017\304\273\255\273\001>k\243\027\276Hl1=\321x/>\273\204\177<9\353\227>9=\032>\245\324X\274\374,K>j~\r=\377\340\373<\330\321\261=?G\220\275y*\307;\001!\016=7\006\306\275)7\213\275\366>u\275\005 \260<\305\210\371<0\207\216>};\001>\377\241\230=A\036\215=\321\304\251\275p\341\210\273\276\321+=\013\271x\275\206Zg>\316\016\335\273\225\017O>\347\3464=\235\250\267\275\253\373\021>a`\r=\363rN=\260Fv\275\256\275\333>\377\300p;\264mV>;c\214=Z\326j=\360\213\031>\216\313\004\276#\256.>[\025`=m\202\370\275(s\366=\310-_=P!\326\274\371\327:=\007\374v\2761~+>\274\032\311=\375R6>\261\362\214=\3375I>\324\030\311\275\310\013\304<v\366\031\273\376M\271>\365e\375=\321\032\253=;\2333\275\326W\303<Nr`=I\300\365\275\372\313l\275\353Z\236=\375\002\300\275\370\247\345=\253r\346\274\265\340M<\237l\342=\375\005\002\276i\241\002>D\360\366=(\350\026\275\367\352\205\274.\330\032\272\216\333\273=AI\264\275I\353~<\301\213\232>\371\370F\275\231L\231>+d\\<>F\213=\345J\317=oO\324\275l \250\275\327j\336\275c\204\333<\005\333\r<\277\270\263=k\236\031\274\222d >\203\037*=P \333\275\237\347\253\275V\250\237\275\231\362M=CY\222\272e\234\320<\230\371\225\273\020T\240>\214\220\000=\000\204\313;I\254>\276\240\r2\275\014V(\274d\361\'\276\237\264W=\225\332\306\275\320o\210=Q\217`\275\017y\022?\204\332\217=^\241P\273\223\276\327\274Y\031\t>\256Z\000\275!\203\261\275\207\235\010;Q\2134=Uo\223<<\256h>c\236\331\275\275\374T\2751\276\221>)\312\310\275`\200W\276o\302\304\275\354=\331\2764\352V>\221\335\253\276\211\251%\276(\017\222>\337u\016\275\240p\325=\372\"\272\275\030-p<\344\251\214\275\000\032\325\275!\304\\\275Ce\274\275\336,\365\275\227\312\272>\242\010O\276@#c>\022\005\220\276K\026\276\274<\276\325\275\323\310.=z\215\375<Ie{\275Q\211\277\276\202\263$>\020`k=\271=\237;$RU>\251\203\027\276\264#\256\275{\321:\275<\r\210\275L\033\003\276\n\016\220>\230\324v\275\027\321\r\275\035\006\327=\264\241\373=\016\213\373\274Mx\230>\277\323\203\274\223\373\370\275\025\3614?\235\366\035\275@\277\263\275\367&.\275b*\327>\365\260\300>5\022\325\276\205\341s\276\322\320-=\350\335d\276\266\304\234\275\2749\360;\177[\312<\226#/\276C\325\241\274\211O,>V\251\342;h(%>7\001k\276\247\201\250=\002>\266\275\3605\337\2757\341O\2766H\023>\245\267\351<\330<\310\274HH\212>\227\255W\276\3503\357=\007/l\2750\032\260\275\366\013Q\275+\302\202=\305\277K=\245x\322\273\214\271\354<\t\0025>Q\242\004<\003qm>s\344:\276>\236N=uD\222=\\\200\235<\004%_\275\232(\022=f\035X\276FF\342=\347>`>UX\302\275P\347n>\246\0100\275y\225\254\275V\344\363>\324\206\315<\313\035\036=Il\\>\365\203G\276E\274Q\275\261\005p>]\265e\275\354\374\033\276U\t&>\244\233e=\370\300\352\2751\265\327=\260\025\226=-\217\342\275\365\002\026=\261\344Z=3~\324>cj@?\035\331\220>\211>\244\275\261\257$\276\301\031\304\275s\360\262\275\'\034\006\275\255\tW>J\353\203>\366Wi=}\251\376\273\366\036\206<!h\324=]1U\275H\024\353\276\364\256\n\276RYI\276\327\305^>\306\315\241=\"\016\254>\272\207\277=q\227\273;\310\351\004\276\03401=\355H;\275m\031\315\275\353\266\037?\233Z{=\241!!\2759\013\351\274\236\204\252>\221\3679\276\376~\257\276-\240\205\275\202<\324\275k\270\203>\261\365\001\275\305\265\341\274\275\357\206\2754Y\235\274\034V\270=\236\212\225>\344\372\005=\356.\353=\020\031\306>\271\327\252=g\243b>\221\355\010\274\347D\017>P\250\017\276\001\310\317\274x\027\017>O\231\363\272\311\204n\2739\373\001=\000-\215>\006\316\017=>\320\302\275[\301i\275\361T\226=.\3009\275\271\313\242\275\207\254\216=\204]\\>\335\352x>E\201k>\221#\223=:U!>/\265\332\275\331O5<\004\254\234=\\\003\204>\311)\006>\377\375\262\275\316\001\236\273\236]\327=\322c\343=\244\364b<D\241\300\273\336`\347\275\340w\271=\206\277\201>\363\001a>E\030\263=\035\243Q>j\365m\276\225\371<>2\360\221\274W\342\366\274\246\276\356\275\362\314\022=\342u\277\275HI\205=x\241+=\014<Z>\327\237\033<\252-\206=\240\351\374\274\334\016q=\035\351\230\274\000oS\275\0066K\275\236E\262\274\272\366\022\276\244L\217>\220N\033>&-V\275~\007\314>q\376\307\274\352\334V=\360\343\316\274\224\334\004=|\"D\275\2243\215=\230\260\223=\272J\032\2751Eh=\372u\023>\227\333\260\2751~z\275\320%\222=c\262\305\275\262hU\274\352\253\354<L\374\232\275\314\247.=H\342j=\241\277y=\226\341\340=W`\232\275\227\351^\275\212`1>-\216\211=D\230\'=+\022\326\273\367\255==u\030\013\276\3169\305\273\371z_\275\005\332\335\275\233\3024=6\300\206\274+K\324\273a!!=v\202n\276#\352\305=\357PN\276\252c\256<\022\252\330=\271\271\246\275\261\214\253\274}\347W\276gAl=\363\306\212;\233\331\315\275\312\215\257\275\371h\244\275}W\354\273\320\016\237>c\336\225<5\270\354\275\026\2373\276\020\314O=A\216\331\275\231\365:=\247\023\024\275\313\207\351\275&\\\257\275[\256\311=\025\213f>\2630\315\275\211\211\014>R\370\222\275\3418\310\274\007?\377\274\373s\r=\013U\216>\020\366\003\276\337\026\000>Y\021\016?3L\000\276X\302 \275\204\362\024\276[\234@\276\256\273S\275A\240t<H\017Q\275Y\343\234\273\250Z)=\207\206\206<\010\312\n>\327\346\244\276j\312l\276b|\201\276\n\340\225=\226\035\203\276\025m\233=k95\275-\351\022\275 \036\231=\300+]<\027\257\200>\366~\327\275k~\255=\254\347W>\322\"\237\275:\026\034\275\227(\277\275\027\365\t\276\323\247.>\030\266\261\274b%8=z\"\203>\275?\244\275A\236z\275\207\245k\275<\214\200=\364\320\207\275\300\230\266\275\312o\257\275\303\010\253=\034\3260\275\230A->\271\377`\275\240\260\037\273\270\035\253=;E\032<\275q\203=\270\020\247\275]M \275\2714\246=\332\031\321\275gN\004>M7i>\213\313\321\275\204\035\310=\333W\025\276PM\362\275\221\306S>\363k\001\275$\266\005\277\224\350\023<+\271\303=\371\001^=\306E\312\275\253\237=>\256\013\241>\345\270\034?\3705\244\275\200\266\304\2754\225\361>$c\306\275A\\D=\306\220Y\275\205c\263>\357p\236>\202w\206>\377\261\207;T\322\333\275\277d\314>T5\014\274\320\242\242=l\204\260\275\232\265~>\\\252\022=\013\373\305\275\225%\254\275\322H\225</\214c>ui\226\275\233T\350\275\220\344\336\275\373 \266>\260\254\230>\363\227\330=\353c\205>\370\201\336<z\035\215\276\004\240\274\275\303\336^\276\322\357\330\275\035\325S\275\021d\025\276d\3755=f*\225\275\307j#\275Vq\352\274\024C\031\276\"r \276\004\023>\2755s<=\316\217\234\276\342\016\177=\315|\222\275\003k\005\275\327>\304=\202\275\227\275\354\004\237>P\217z;\202\3156>\ri\003\276,\254p\272\333\300 >\177\210\034\275\202\305\207=d\252\353\274\346\342j>\267j\322=wlq=\351\3140>4^\004>\253H\230>\371\245\027=6\362\213\275\250U\245>\326K-\275\307\342\250;\326\376\365\274\"\365[=\372\211\242<\343\222\214\275l\3552>\216\373A=W\353\374=LD\222=A\305\201=l\326g\275\216\037\205>\367\217F=\325\226\343\275\206\n\026\275@\337\253=8\235\334=b\207f:\303\207\351\275\177]\333\275\243\357\210>\275RN>\354\317_<8\014!>\217Q\216\275\372\347\225\276\262\361#>\215\016$\276q\212\311\275\266\336\240<F\320\006\276\272\200\245=\260\201\267=\306\350%=\321\302\333=\323\332W\274U\265\236=\210d\243=7C8=[.\326\274\273u\307\273\2315\222<\346\222\003\275\247/\231\275\202_5>lk\002>\037D\204<\214]u>\254\337\321=\036\321\227\275\341p\314=\351\277N=\265\250`>M\021\235<u3\007>\375/\020>\274t\372=\'?\235<|\251\024\275\360\325\304<g\310\221=\371\245\024\275\345d\026\274\200\3741\275\017\\r=U_\277\275\036\214~\275\262\364\000> \217\273\275\274\364O>\007\371\207=\341I`=\3440\204\275\315\310o\275\242\267\304<\204H\013=\345\027n>\354\tv>\021\030y\275<\004><\273:\206=\007HA=\313\034\255\275.L\025\275g\365\006\276\005}\'>\310\002\324\275n\005\265<\027\333\200>\214\177\033\276\221`\300=cd\256\276\326\345\320\275S\316\027:&\031\342\275\214&\007=\001\266\207=\245\243D\275\034V\300=\013l#>\341\304\261\275{G\007\276\333|\354\275B>\274\275\255\231\262\273\035\374.;\301U\265\275\306b\002\276\010NH=d=d>\022\0253\275\214V@=ee\212\276\262\237\326\275\315\177z\2760O\346\275\372k\305>`\030\245\275\221=\n>\251R\276>!\277\234=\306\240\257\274\357\266\016\276\317\371\350\276\266\341\307\274\226\325\222\275(N3\2760\256.=\322t\237\275O\362\024\275\027\027\321\275\266\222\263\275\232\322w\277\021\001q=\031\247\030\275\301\'\002\276\3705\300\275\322\t\201\273:\200\220\275<8\342\273b\241\016>\366\367\225>\205\006A\275N\330\002>\342e\000<q\230\270\275\247\255\214=O\341\004\276\201i\t=\005tC>o\372\004\275\033\222\032\275\326\031K=\344\006\247\276\333\216\340=\346f;\276\017\270\354\275\271\n#=\206\020\332<h\246\260\275\032G\307\275\002\330\314\2754\3332\274M#\277\275\245Z\210\275\224\030\252\275t\240\366\275\330\027`\276\001\201>\275\005\334 =\005\242.<\204\271I\274\276!j=\307\324\274>$\333\030\275M\361\217\275\341j5\276;X\361\275\207t\361=\302\3451\275{\252\300\276F\324\227\275\221\036,>\211Y\314>\256\234~\276\016\362\326<i\n\351=\241\236a?\224\216\204;\320\376{<\342{X>\313E\231=0\212k<:\354\007=\324&\325>\030\265\207>Hyh>\212\372I\276 \014\001=K\254\334=?g\021=\261\335m\275T\2451<\357!\370=U\017*=\316\247+\275\3140]\275lJ\247>W>A>\326M\305\273\330t\215\276\005(Y\275\270Cm>@\314$>\"\177\225>\t\351\026>\370\252\230<\320\232\257\275\013r[=\273\303\240\276`\246s<\252\302\343\275rc\026>Z\0372\274~\\\247=\233\270\331\275 \357\266\275\017\336/\276\203\314\330\276\037b\203=_\001o\275\0332\357;\377n\307=?\233E=\333\033?=$\235\177\275\343\326P>\367\237\231>47{\275m\232\345\274\277\020->j\033\271=O \261>\252~i\275\003\267>\276\374\201\304\275\327\333\203=Qf\205=\370\247b=\031\2614>\217IW\2753\351\332>f0\334\275\231v\211\274\213\340\002>>5\270\275.\341i=r\241\233\275\243O\223=.\263\245=\233(\233>\243\233\207>vK]\273\347i\202>^x\337;\366\017r=8\376\230=\304\022\201>\344\035\372=\240\004\'\275\265?\255=\220~\265=\260\035#>u!M=\240\3550\275\026\220R\275|\365`\275;\320\304=]\251u>\224}K=E\346\257\274\231\021K\275\234sK>\321T\351\275r\306\350\275\226\327J\275LH\302:\370\313\214\2752#\233\275f\2039=\312\267U\275\351\312A\276\336\003W\276\003\361L\275P\301\267<\343=:<\014\237\004=\203\206\206=\226\373\220=\267\244\004=;z\220=t\303u>\324\225H=\037\224\027\275\027\227\256=A\267u\275\236\204\377=\266\256\242\275\303\007\370\275\305\244\t\275\025KA\276Q\350h\275\226R\364=K\026\034\275\271\302\327\274\364$\223=\224\223\033=\237\200b=\357\311\336\275h\002\343\275\200\022\366\275\321\220\n<$P}=:\275\344=e\244\n>}\257\377=\3357{\275@\300\327<\226\340\224=\212\230i\275&\220\003\276`\225\022<z8q\275\264j\001:\261\235\026\274\027\331\032\276I2\241=\225\200\323\274\013\246\016\276Km\207\274\"\006\3639<\"N>Q(\030\275+\036\252\275\3369\335<\002\342,\276\252\206M=+oo\276\340\312\246=\315\317E\271\033\314\n>\322kf\275\327\224\361\274\004\344\243=\220\200\003\275\223\202z\276\246U\222\276\034\240b\276\272\301\307\274\316\002\241\276C\324\000\274\210)\301\274\216\367\372\274vg_\276\nq\014\274^\261\323>-\016\307\275HV\266\275\363$\237\276\277\2309=\267\326\256<4<\321\2748\243/?h\2664>\325\2124\276]\324D>>m\n?\350R\035\276\325/_\276&x\245\276\253-\234\275\007\016E\275>\017H\276\344\341\214=\364:\254=\327\025\213=\024\367D\276\243e\214\276O\037\245\276\355\230\014=\325}\340:\037\233\316\275G\246\355\274\367X\343\275\352\201\332\275\034;\213\276\257\311\274>\246r\264>\354\366\306\275\2053-\275E,\260\275\363\267m=\230\225\343\274\020\266\234\274Y\320\r<\213\217\272=}\375\n\274\326\\P=\315\325\014>mL\177\276m;\232\274\234\211\216<\215\340\251\275\312\316\327\275\034\205\233=\274qB\275\272\312\207=\017\352\356\274G\0278=\226m\r\276N\030\223;\240qM\275O\"\352\2744k\035\276>\005\205=6\340\250\275\322P\234=Z\202)\276\322\314W=v3`>\317\210\252=\\\226\201\274z\2340\276\323\243\031=\376{:>\2369\252<\252(\n>\345T\361\275J\343\221>f!\200>\205\262\r>\201\356\245;\205\324%\274\230 \340>\006\203\233\275e^\362\275 TB\275*7\212\274\250\\\247\272A\334[\275\362\276,>\017\236\204>\337\236v\276\033\362\007>@\301\216=\020Q`\274\212\323\374<\216{\222=\277~\226\275\375e\r>L6\267<\371L\254=\254\005\034=c\356\222>?wd>\377\320\t=\270\333\313\275\237\260\214= *)>\024\205\273>\"\367\031\2764\321\342=\302\373\237>\231@7\276\362\263\203\276\322\207\344\276/v\362<\325Y\322<\204\232\017\276\235mI=\261\211\243\275\217\273\200=\2326\226\273Z[\376\275\247P:>\263\247;\276\364\221\203\275\001D\213\275a.\311\275\273\212\205\275[\365\341\2740\201\031\275?\342\221=Gd\345>\027\262|\274\221\352\005\276s\177\213\276\031\323\332<^e\030=\005\345\317\275\305\340\223>\223\321a\275\353\223\024>j\313&>\221\"Y\275\247\346\031\272\373y\232>~\007\030>/\023\251;\\c0=\342T\240\274\240\323\007=\321\304\210\275gZ\243\275e\226\016>\315\366\264>\316!\340=\30048\275\202\273\377<-\020 >\236L<<\224\246\252<\355s\324\275\361\361M>O\024\352\275B\360\310\275T\334\302\275\370gZ<]d\346=\'\035\227\275\212hL\275\355\373\230<\250I\204\275HkN> r\004>bD\355\275\356`u=\312tH\276\324L\217>\021\243\021\275-\334*\275\010\211\266<(\307\244=@\010\372;\022\244\257\275g\217\226=m\221p;\035\207\007\276\261L[\275WA\213<\222c\347\274\020\022\352;\026\3630==\272\317\274N\266\205\275\242}\241=#\273\036\276\013$\215>\3625@\274D\274g\276eh\025=k\010\235\275{\006Y>\032\306\372\2744\032(\275M\243&\275\363\372|>\356\203\"<(\026b<_\232\220\275\327\n\264>uZ\211>\0022;\275\026~\325\275X@@\275\231w\225\275\276\324\260;\276Ky<\210\026\025>\010V$>\347\256\225>\315P\243\274\232\275\234<\357\277i>b\217\317\275R\226\314\275v\032\303\275\316\203X=\013\220\036\2764\270U=K\341\212=\001@6\275\321f\260=\211,\332\275\360\2334<M\363\200=\244\033\347<\"\213\221=\032\204\210\276\3604\001\275\264;\265=`$D=\373\374\311\2760R\\\276z\\\007\274\n\214f=i\356\n>}O\217\275\234\374\r=\310h\335\274\003\262\'\276*f\245\276\204^C>\001G2\276`\311\"<\rS\"\276\257\244)\275\270\331\311\274\231\322\337\275\035~\306\275\276\345\006\275e\231\277>\"\351k\275\177 \213\275\031\020\322\275\211-\331\275\032LK\274\341\024j\274=\262\323=:{\255=\344\367\234\274\025\316\305\275\241\244\361>7\024D\2751\200t\275?\217\260\276\317o\306=Y\031j\274v\272\312<\224$\247=\225\016\260\274\261\254\271<\306\275-\276\364\3607\276X\231\255>\351\334\022\275\267?>=.\244Q>\036\236#<\377\262\177=L\330\261=\020\021\017\275e\265\337\274h\265\226>\356i\275\274n\276\320\276\0360\014\276d\"\213\2756\375)=w\036\227=\305`\007>K\377\247=~\252\312\275\364\202\000\276\255\203r>\352\337\336\273\357\240\177\276\217\214\017\275\3743-=\327b\227=\207\177\245=\370\360\374;\216B\261\275\205\237\342:\220\244\364\275\003\221\264\276\346\037\224=G\265\253=}y\223;\017G\354=\013\302V\274\372\314\014\275\373\342\231\275\2552\215\275}l\371=\206X\213>\010\327%\275\017\r\245\273\323q\202\274\013\251\177=:\222\023>\213{\277\274(\235\332>1\227,\276\216l<>{\235;>\207\"\306>\342\364-=\306P\212\276\300S{>\220c\236\275\341\006B=k\327\002\276\251T\324;\000^W\275\221\216\255\275\017\373\243\276\374\255\376=\n\330$\276\314\037\244>\261\230\343\275\224\241\023>\356M\243=BQi\275?3\231\2748\216D\275\\\263\010>$\266V<:a=\275m\027T>\254L(>>\005\035=\242\364&>\020\303\240\275| \214\276(\021 >De\263=]V\217\276%\244\002\276\267\006\235\275\315\374|>\343\371\332=\307\2724=\322}\375\275\275\353)>g\"\354\274m\375\010=\025*\313\275\001\277.\274 \343\035\276\031\245\323=|\222\275\272\233>\211\275\370\2644\274\315p\203\274\223\261y\275U\2201\274\272\014\243>&x\316\276\215l\212>\275\212g\273\372\037z\2767\316/\276\222\334\272\275\016\r\314;t\010\252=\335\030\350=\004\031\346\274\017D1>[\344d>\022T\232\275S\351V\274U\177\225>\262\005y>\327h\260\275\362\271\251\275\215+\342=z\207+\274\277\317r=\344D\300\275\205\000\356=t\202\226>\005{\256=\347W@>A{\254\274};x=\222_\330\274\020\363\203\2755[\342\275\260\245H>\020\006&>\377\202\213=\0100\240=\267\025\244=_Cd>\207\032\201\274q2r\275*W\227<\036\013@\275\375N\370=3\200\035\276n\005\234\275\177\226Z\276\217\014\220=\rJ\003=a\300\337\275\243\244\265=d\250\235\275\016\023\014>;\2131\275\247C\210=\256\353\262<`;\202\275Qt\362\275\347)$>Tf\022=@\357\r\275`,\234;\036\202\205;jn1\275o\257\321\275\342\325\246>\314\206\204\274\270\264\260>Mn\202\275\375}o\276HT\367=\311\233\333\275\274\244p>yr\265\275(h\241\276\273\023\004>7K\225>y[8>\226\021\202\2759Q(\276\007\245\234>v\010K=q\0050={(\010\276\245\312\376=\031\273\001=\341,7\275|\232\201=Ns}>\305v\232>\014\304\322=\014\005\367\275\366^\300\275\023\344\217>\323cu=j\326\322<9\253c=\341\215\205>\300E\263\275\315\037\252=\"\267\266\274UCx\275\365\336\341\273\2647\016\275s\315}\275\334x\347\273\301m-\275r\1770>\006\240\360\275z\345J<\032\317\010=\007WO\275\023\325\007>\334\370\254\276\377pU=\376\030\237=\275\227\262=a}\314\274y\016\014\274\266\327\257=\232\213\213=\241\215\214\276\343\346>>,\t\222\275eR\253=\177R\227=V\264z\275\346\333^=\200\025\335\2747\016\027\276s\217\200\274\234\330\237>[x\224=F\366\305\275\036\324\226\276\241K\345\275\373\224Z=`v\305<;\311\320\276Xc\203=\250n\233\276G\n\251\275x\317\224\275\374\264\\=\007\244\006>\327!\347\275\002\376\203\275\222\242\310\273W\003\376\275h\314H:\263\242\301<\353\370\211\275A\025\320=H\2149>\006x\031>\255\251\232\2750\006c\273\221\001\211>@\000]\275\226ob\275\001\351\255=\311.=>\245fy\276=\021_>\321\237\232\275\374\006\314\276\025\262\214\276v\373\006=!P\033\275<L\016=\r<\'\276\333D\202>F\350\232\274%l\244\2750u\276=\004AG\275\315\337Q>\235R\200\276x\363\352;.\224\277\273Tu\035\275\327\212\236=\036\305^\275\274_;\275\275 \001> \2102\276\353\312\027>\324?\355\275-\246\005\274\245s\335=@]-=\0322r=\036[\254=\271\320\272=\367p%\276\263\225M>{sQ\275\310\003\377\275:Y^\276\014\271\203\274S\032\006\276\343\201u\275P\301\332>\225\np\275\220n\003?\265z\260=\006\233\315>\343\342\337\275\365\314\035>\355F\245\274\007;\001=\254\264\261\275\312\315\343\276&\005\304=\224\233\361;\003$\266=\014\315\366\275\035UM>\377Fc\276$bJ=\027\351\215\275\361\302\005>\267r\203=\247\315\200\2755\214y=,\307\005\2765\"\352;;\256\220=k9\214<y+^> \256W>\215$C<?\262\267\273i\326;=\224Vi\276\n1\326>3\216\032\277\256\255\201\275W\342y\276\332\346\230>!l\326\276\274\332r\276\220\365\231<\356\204\277\275\033\312\315>Bm\327\275\026\271=\275\020\222\243\275\205\304\274<\022>\"\276\277\251\354>\313|\300=A\010\232=\222\307\313<\263/\262\275\201\026s<<\327z=o\343\332>p=\201>\373t\014?y|\346\275IB\256\276\323\263\275\275\361\024\301=\223\254\003\274\244\360\206=\303?;>\371)5\276\272\006\221>\264L#>\233\243\217\275I\243\375=\372[X\275\227.\201>\034\350\240\275\307$\022\2755\301\002\276\206>\262\275WC\317\275S\330\032\275\236\277p\275.\274x\275\026<\247\274e[[>\024d\265\275Qd\210=\336F\021\273\262[\211=4\223\355\275*\025\001=b\350\326=yO\210\275_\210l\275\344XV>ox\027>\233\320\222\275K^\006=l\202e\274~3\222<\002\036]=8n\312=\341\270\031\276\253-6\2765\r\316=\004m\241>u\232\342=\235j\001\276\371\177Z=\362\202\013\275C\310\254;\'\020Z=\013\214\002\275?\026\016\276\340\376\326<s\003\260\275\213\327H=\231\303\"\275!mb\275\206\301\352\2750N\322\273\331\246\214=\264C\n>\321\0206\276\001\210D>\260\372\255=\274\031\365\274\240\2269<\265S\357\274\233\237<>\204\030\212\275X7\254\276;^\013\274\003\014\010\276\236\322\201>\002\013\302\276P\211\276=\310\'\202\276F\306!?g-\n=\313+\275\275\356\251]?\221h\243=\227 ^<\032\371\374\274$\253\336>\273f\247\275\354\234|>\006\250$>:\253\351\275/\335\277=\341\177\222\275\212\307\005\276\223\264G=0R\364>\200\271\252=amT>\031\357\221\2750\253\202=\031\326\230>>5\340\274j\237\200\275\022x&=q\1779\275\236&\241=\333!\206;\005\031\372\275\002!\025\276\373\262\016>\272\267\256=^@&\276\242\333\205\275+\231\245\274\257\206@\276\036A\226=\240\363%\273\t\"\366\275\021\333\023>j\377\260\275\325\315\236\274T\346#\276\036\246\223\275\200\310\250997X\275\331\210\266\274\343V\341\275\267@\213\275\372\324\250\276H\tD>\305\001\335;\302\262:\276j+\r\277c\236.\275\275z}> \346f=ZU\245\276;\333J>9\273\237\273\234P2=\023ve\275\034I\316\275\237\037\226<@\276j=\311\226f\275\313\305\026=$Mc>\222\305\263\275\371B/=9nw<\303Z)>;\332E>\267D\202<*\007/=\005.\n\274q\341\000\276L\3513=\'e\027\275\365\374-\2742yq>\371\303-\276o\362\206>\314\354+\275ki\005\275\014\253\370\275\274\250C=t\230\021\274\0178\253=\250O\225\274\343L\231=\001\377\203\274f\327:=)iR\274\r-\265=\207Fc=\274\313\230<|\202\223\275\246i\345\275y\377M\276\220\000\222<\030\t\036\275\026\230\326\273 \274!\274\324!\237\275n\374\222\274Y3\022\276\272x ={E\360\274\246\370&\275\202\352\343\274\306\260\331\275\'\261\342\274\366\301=\274\002\313\203>@\207\031\275\230CE\276\232n\264\275\351\276\305\275\nX-\274\251\344\220\275\363\223\273\275\311\\\221\274\245\315b>\321\230C>s\324\n=\22316>\225,,>\000\370V\275\277J+\275y}\317;_4\013\275\003\317\227=\326|2=\010\242\270\273y \217\272\314\350\263\275\355\001)>e\244\002\276%\260\002=l\347\261={\344\252=@\323:=.\365\310\275\253\202\245\275y\034\036>\357\036+=*\333\246\275oN\312=\371Bs>\262\236\026=\324NL\275\271\214Q<\035HL\275\315S\244=\200\221\314\275\370\200\275\275E\245\241\275\303\034\246\276\001\030\311>E\253\001\276\313\351\216\274zOt<*Rh\276{\203\233<\353\340\243=25\366\274&f\267\275\253\303\205>>b\241>\211\343$=W\263\255\275\013\307\n\275_\013\275=k$\305\275&\251\245\275\275!b>OuR\276{!\245>\304\244v\275\265\035h\276\340\210\205\275\275\006\352\275f{==\211\303\225=#\006\'>\021W\255=Xsl>ute=K\371\231>-Y6\275\306\215\335>\3114\022\275\314.\225\274\325\271c=:\253\324=P\267}=_?\246=Mm$\2750\037<=SU\211\275T\273+=z\236-=\366t\013<$\302C>2\347+=\240\257\366\273\034\233l\271\007\334V<\216SK>\302o\375\275\201\033\226=j\343\034=K\234\347<eB\230\275q3\215\275d!;<^N2\275\247*\207=i<\342=;\211\001\276J\233%\276\235[\236>\372\332\257\275\304\337\237>:\324c=B\277\245\275\356\220,>OE\220\275\313\347C\272\203}!=0f\352\275r\251\234<H\375r\275\033\036\262=\222m<\275Bp\037=F\003\351\275\332\267\351<\230\026\027=]/N>\310\037\356\275\301\257>>\233\325n\274\320.#<E\247\371=\324\305r\275A\247\203\275>\013\310\275\345\004m<\236\255o\275\n36=\225\316\376=\010\366\232\276\365\252\242=\253b\274\275\026\251\300>\023iv\275k\232\215\275\243\360V>OKO=\252v\361\273\341\371\356\275\347\261x=\334\rz>D\253\017\274\360\322\366=\237\246\016=\246\341\203\276R\010\324\2754\337\241\275\2532/\275+\277I>\001\013\027\276O%7>\030\202\250\275\301\025r>Mw\035=V\216?\275\326{V\276\'L\010\276\243\226Q\275\327I\342\274\210\263h\276*3\304\2758\256\\\276V\2250>\231SN\276V\266\251>\343*l\275]m\310\274\340Q\\>vT\257\275\027\320\212=\251\213%\274\343\236\371\274,ax\275%N\022\276 L\024\275\r\336`\275\240Ya\276jk\002=\'\002\251<f\351R\274\177\313[>%\205\225\2731\274\325>[7\330\275g\022\000>&\357\022\276g\2406\275\324\003\\\276\010G:=*\304\254\276\007\2476>e\241\235\276\371\240N\276=\"\226\276\354\265\273>\327\034\013\276\236\227\265=\377\230\n=>\005\250\275\240\"3=\312f\215=.+\n=\315\305\252=\372i\032>G\276\237\274~\244\373=\204\213\237\2768\303\021=\r\027]\275F\313\332\275\207\301\023\275\300+T=\177\350\340=;\235\013\276\3660\271>\304\021\230\274\021ps\276\236\367}\276\316G`\273\030\342,\2768S\014\276k\246\244\275\242i\311=\251\326\025\276P\240\205=\347\211l\276\026\236\216>\335\243\"\276\005\"\342>\312\265\211\274JXO=z\327\212<\036_\242\275^\324\266=C\337>;\375%\373\275\\+\337=}\235\241<\271]\355=\316d\316\274#5\206\275\243\270\303\275Fz\027=Di\331\275\001\356\027>k\034\201=\020\327v>\355D2<\261\343\323=\310F&>1\231_\275\325\277\264>\022\036\352\275,\211\022?\303.\031>q\263F>P\230:<[N\221>\316\020\247<S\217\265=y\256\023>\371\327\236\275.G\204=\032\346\234>zP\216\275?=Q=\345EB=\334\252\021\276\200\313\007?\374\373V>\005\315\001?\275xx<\215RU>\272\275\202=\236U\236\275^\310x=\317\304\217>\300\001\332>\257r\304=\304\334\230=\362\357S=\017\2243>g\273\260=\026\310\034\276\021RS=i(\221\276W\346l>dv~>\312\000\233\273o\037\227>\252\226\323\275\203\213\220=\275\300I\275u\"\246<>\372\326\275\263\314\345>3\225\231=\342\020\356\274/\325\213\275\246\005\360>\317\247\276\276\365I5\276\023`0\276\327\270\264\275\341\252\020<9s}=gW\362\275\'P\343\275=s\222\276\340\354\273>\320\301\020>=Q\276\275\303i\214>\3721\304\275\016\211\236\275\332\204\222>a\347\032\275\032{#>n\223\016\276\305Le\275\266\r\206>\201\030\205\275\236\342j>jm\201>\323\201\317<\'[\374\274H\322\335\274\006\207D\275Rl{\275\340\203s\274g<&=\214\370\201<\030\214\302><\205\312>\\\023\022>\316\366\311\275\305-\334=\007Ir\275\234\275f<\000\366\006=P\263\204>\221\362>>\".\347=\337\375\330\274\0223\016\276\277\023\317=Zg\332\275X\243I\276%G\261\272xI\244\276)\034\267>\t\004m=\223\366\307\276\254\224\330>PEo\276O\253J>)\021%>\344/\217<\016\014 =\005\206\253>y\237Y\274)\335\200=\222\032$=\263\277\331>\341\"\273\2761\366\270\275\031\013\206\276\231\200N\275KU\016>\244_\200\275\351\2431\275n4\036\274}\276\304\276q\365D>-\365\365\275?\252\311<\252^\230>\341\013\312\276\375\003f=\225\243\266\275R\322\223<\r\362\215\276\301L\006<B|.<\022\n\315=\025\376*\273\275\256!<\'B\234=\323~\206\275\020&\337\275\021\237x<\203b\244\276\353/\217=E\361\201\275\301\005\253\275\336w\250=\026\324\266\275\212\205\353=\213\345A\276\230(\237\2755\274\201\274\372\346>\275h=\317\275)\0216\275\323\364\356=\310s\026\276Z\371.>\320\357\302\275@\271\207\275\326\303Q>\013y\265\273z\007\325\276s&W\275\204\254$\2778_\365<\222\267N\275\343p0>\345\211\301\275i\034>\275Z-\343=L\000\330>\327\273\232\275\323\027\273\275\250\253\253;J\243\363\274\200ZB=\ns5\275\265\360\002?\035vx\276P\211Y=\\E\234\276\2453\326<F\313.\275Kl\334\274\033\220\303\275*\232\274\275\311+\020\2759\021\r\276\213\273\006\275\366\024\217\275\335T\203>\250r\014=\005\377X<\345\241H=\264\244[\275^\205\203\276\200\264\323<\341\241)\276\324d\232\276g\272(>\032\226i>>\005\225\275\250&\211>\032\265$\275K#\\<V\356<>\314xC=\027\242\026\275\203\032H\274\316\237\366<\343\232\205\275\354<\010\275~\022\232\275d2u=6sr=\006^\366\274\254\330;\274\313\233\022=\261\027-=A\221\203\276?\005;<%\023C=P\302\256\274\361\247\345\2759\336\255=\333C\214\275\347\022\335<)\204\021\276\321\245\300=\0310\201\276\320\325w\276\264\201i>\227\317`\276m\006\345;\272\".=\251\246\030=N\274Q<\003\317>\276\373\212\013\275\305\037\232\275\020\206\020=\024\202X>\210\336\021\274\327oz>lY\231\275\036T\356;F\230C<\242q\345\275p$\005<\024a\025=\260\242\373\275(g\234;\331\330\352=\250R\237\275\276\316{=\0160D\276\276\\n\275\355\245\033?~\357\340;4\201\227?\241\231\230>=\371\316>SS\006\277\003Zd?\000\021\023=\006\353\235\274#\025\230\275\3119\241<\367[5\275\325O\235>\310\017\315\274\'W\262=\034\333\210\272a\232V\277*XW?\035=\224\276+$\216?\354o\336\275cN\232\2761T\227<\017\3059=K\273\252\273\007\267\005>|v\200>f\231g=\217fu\275\303\216\255\274_W\004\277\311\264\354\275O&\032\276\034`\270;\310\272\276\276\267\370\177\275\\\232\216>\351\372\364>6\265\025\276\205A\311\275-\'\034=\235\236\242=\274\210\007\275\323\320\t=\347\365K>\363\262\322\275<\370\311<H\357\007\275\212\277\231>\355\212\262\276\221*l\276\267D(\276o\207\201\275\374\203\234<\033\234\261=\266E\337< \323\034=\004\2026=P\302@>~\326W>6\027\313\275\004@M>\236*K>\340\340\216\275d\237\256>\227\033\304\275\324\371,<I\240\030>\273N\300>L\3461\276\332\222\204>s\007\260=\312\200B>\323I\253>\022\305\215=p6%\275\230,\266>\']\310\275\376\261\307\275\375\247\253=\300\353\372\275=\336\'\274fK\346=Kp\233>\307\353\306\274\'\000V>+1\262=\017g\202=\206\267\001\275\213]\031>\227rq>\374zt\276tvP;9\274_\275\\\"\316\271\253\231\355\274j\232\363\275O\304\200=\022\340\263\276\246/\217>\267$n=\031T\263<\361QS=A\330+\276\024\345\005>\032@\350=\212\341\203\275\202\202\214=\277\236\t=T\315\372\274\205\211\312\275\037\325\227=}\347\206>\037\227\035\276\016I\261<\323%}\276Fs\232\275V\007\342\274$\217\231=i-\366<\341V\344\275t\202X\276\271\341;>\377\"\256>\312U\244\274]\270T>\245\2322<\037\201u=\277\265\364\274yH)\275\271\317\351\275\302\"\343\274\237O\340\275\210\352\275\275\204\206L\275_\370\370\275mO/<yEP>\250&`=\372\340q=\251\315\344\275\36021\275a\237\312;\275>\240\275\331\215\270=\370\363\245\275\362\235\220\275\221\336.\275s\237\033\275\023\250\303\275B\254\234\275\365\331\020\274\3747\267\275D/>\274\361V-\276\3329R\274tn\303;\215\003\210\275R\363\202\275\353v\340<n\310\022\276\034\301\222\2751\305\344\276\316\336\333<\201\243\224>\232\201\030?\031\177\257\276Y\305\332\275\271R:>\246\266\246>\232]\303<\322\307k;\217If>\326R\331\275\177*\027\275\247V\233=\301\241\357>\037\227\317\276\305\325\024\275\227\201\207\276c\337\306\275\343\\\340\275\304\234U\275a\221,=\030\352x<\030S\205=\247\005\311=\351h\263\275\330o\225=\266\346\366=\247\202\326>\002\211\301\275>\220O>\240\366=\275\023\032\205<K~\224\276\272:@\276\202\377\317\275b\037\006\276`\213\234\275\002t1\276\213\030%=\233]\245;\344\263U\275\235dR\275*\235Z\275cH\006\274x\005\"\274\310\224\013>&\250~\275R\342\001\276\320\353)>\357].=\220\216$\277\373\313\212=.\201\000=\260\226\"\275d\275K>\241\223\246\2759\021\233;u-\260=\016<0=\263iY\276`\267\303\275\215\327x\275-\217\321\275\374\320\026\276\230\373\316=0\367\000\275\350\315\023\275\255\006x>7H\331\275\254\200\021\275HM<>#\316\245=\255\341\234=\022[D>\315\364b\275\201z,\275\223-\020<{p\337=@\263\362\275\313\262\010\276d<%>y\264\225\274\020\022W\274\\]O\275(x\351\272\002>5=g\032\347\275Q\010\266>\204\245\230=c\333\031=\332\315\202>\365+\210\275\301kJ\274\266\034\333=\0327g\274\355\311\202\275\333\241_>\244L\026<\253\354\024>\367\3460>\364\265K>E#\252>\233\027\253=\033\241\322\275I\004\211\274\210\264J>#\t\265\275?;\017=.;\211=W\260\211>\'[\255>[l\034?\327\371\t\276\307\327l\275<\307\337>\274\364\267\275\325\234\001\2752\205\200\273\271\226*>\025\360\215>\337h\317<\230\177\322\275\031\002\346\275oJ\301>\300+\337\275\343q>\275\303\204\264\275n\363\">=w\331=\210\352\314>\233\216h>\235\005\013\276;\271K\276(((>r\301o\275lo\216=\006.\234\274(\245\r=\361\022\312\275\314,\231\273|\025\361\275:\336\326<=\032F>\343\315\025\277\267\347\333\275\330\361\016\275\236\205\221\276x\334\334:V&\310\275|\265\250=\315\305\272=\230\3271\276\325\300\033>\331\\\333\275\017_\334<<\354\260=\304\\\270\274y\352\'>=\226\366\274\005\333\027\276]\"\373<\355\034\267>X\2357<R\"\230=\035\034U>\265\032\207>o\272\340>W\271^\275\364M\211=\361a\337>\231w\260=\013$\037\275^\233\007\275\311Z\231=z\235\223=\200r\325=\267\265\000>\236\244\301\275{[\224>\276)r=3\366\226=\230 \001\276\317\210h=J\"g>\303\010\256\275\256T\037\274\253\2057>\360pO>K\222\230\275\'H\034\276\320k\350<\020C\020\274\265\341e>E\017\007>\037\222#>\244\260$=\030\037\252\276\317\377\013>\242!\312\276\276iD\275\233X\242<\251tE\276\355\322\210\275\216\203\\\274\275\261\340\275\372\347l>{\'I\276A*\204\275\241=u\276TL\204\275\225JZ\275\037%v\275\266m\361<\"Uh=\236\210)\276anr>\375A[>\225\305\245\275d\353I>\223\312\324=r\036\245\275\361\2020\274\016\205\225\275\265\304\232<\334o \275\305\325\361\275\030F\272=\223\372~=\360\356\347\275\367V\024=)\010\345<I#\256=&\271\317\275J\322\177\275p,\"=\346t\010\275g\334\037\275\365\364>\275\336q\276=\322\010\213\275\035G\263<\272\322G\275\334\340\227\275e\024\276\275\352.\016<(,\354\275\232\273\266=\303\307\211\275\273c5=k\024\232<\307q\235\275\r.\205=\221\231\351\275za\252\275\302`\215:\374\366\276>\3629\237\275l\271M>}\036\014??\005\001\276\030\316\"\276\276\003\320\275\262\222\301\2753\234s\275\025\252\204=\220>\266\276H\'\000\275\t\321\260=\245\304=\274\252\304D>\234\373\341\275\255\324\004\277\251\253\013=E\221G=y\005\327\276\245\373\341<\334\360.\275\354\013\306\274\364v\275=&l3>m*\'>\001\314\345\275\214\203j>F\231E>\214sI\275-\307Q>&A\205=\2260d>&X\235\275\211\231?\276\037\213\213>\375 \266\275j9V\275\003g\213\276\224\312\350=ee\275=\371\226i=M\017\004=\232\303#\273y\364\036=\355\342\262=\300c\373\274\224p\356=X(\300\276%r%>K\334\213\275G\267\260\276\342m\237\275\301\216\034:i\314\332\275F\205\351=V;\034>\343\027*>\2646I<\333\026\226=\313\033!\274\267&o\274\017\202\221;\030\270\342\274\036\346S<\213L\001=\033\320\322\275WI\035>\275\264\022\276\374\330\022\276\354[\030\276\332\236\327\275\332H2\274\353\036\324\275\355\350\007\274\374\275\345\274\241\316\353\274s\2452\273\017f\250=\3073P\276\333\321\210=\025^\260\274\376S\252<.\001:\276\326\033\211\274O_\210\275\237;k\275:\317\342=#\3712>\177\356=>)W\237=\242r\355=\343\271\363\275\305q\t\275\032,\323\274\024\013\215\273\265\235\252\276\\\304K<\256\220u>\247\003\305>/\356\320\274\021\220:>\240:\330>>\206\025?\004I\022\276\274&\212\274\203\201\215>\016l\333\275\371y\250\273F\320\320\274\237\034\266>\337\242\020>\n3C>\344\303\216\275\211\'\257=g*\343>cl3\275\331\004B\275yXz\275\265\023C>\200x\270=\361\314\350<\013\365-\275&\016)>!\364\326>\270\205\307<r\177\361\274\265\027\372<\306\266c>\267\337\221=\317\014*=\366\025\222=8\007\020<\222\251\021\275=\023;\276\212v\010=\206\274\224\275\r3T\275\302\016\335\275h\316\254\275 \263\327\2753_\350\275\362\204D\274\010\372\245\276\035\301\213\275\304P\221\275\000\342\021<p\347\356\275\t\031\014\275\225\213h<\361\363\247=c\265@<\"\236\232\275\007/\205>h\356\201=9\035w>\255l\252=\257\224\204\272\305\373s<)\213\230=\272\250B\276\235\000\002\275e\243\257>w\013C>\333f\210\276\327\210\220>F\001\037>\237\3343?\377\343\001\276\210\310[\275\223\270\342>\245\315\214=u\0005\275\025Y\240<\345U\206>A.\222=\224D\351\274e\255\260=h%\022\275\303F>>\227\022\025\275\241\207M= \322\216\275r\332a>\342^+;\016\036k\276\210*\036\275\247\373Q>\363\306u>\215\307\337\275&F?\276\002a`\275\354\303\001\275n<I>\363\322\310=\232\223\034<\315\326\363=P\301\027\276\272\263\021=>\312\017\276R\3064\275\2414\342\275\014gC>\275p\220\275\207\337\211\2758X\367\272\334\037R\276\211\230\344\276\375 \252\276z\266\005\275\223]\223\275\200\2254\276\211\004\346\275\003\014\307<\236\035/\275B\220\030\274\305\323\201=\326}\322>.\n\027\275\235\207\371=pSU\275\332\212n=\274\0341>\000|\271\275S`1\274\307\367\206=uX\003=\347\331$=\257;v>\005L\240\275\226\342H\275\246\272\206\275/\244\341\273\002\272\211=\304\233\242\276\234\344\300\275\246\317\273<\034\370~\275\004\262\027\276\3142\264<\370Yl>\330\026\334\275\251\221\307\275W$F\275a\3203\275V\377C\275TY\023=\244\016M\275\243p\346\275\330\224\021>\004\320\221\275\257\2222\275\265\034\017\276pV^\274\022\365\301=\235o\204\275q/\367>C?\260=\022\222\001>\3776.\274a\237K>\304\364]\275\360\211\213\275\n\232\336\275\375 \211\275\025\3370=\267\036\227\276\346%\253\274S\277\250\275\251\305\263\274Y\315\007\276\303\251\251\275\274E\035\276L\313\302=6\220e=+\302\321\275\321\300\303=\246\220v=\212\206\332\275\357\335\037=\215/\022\274\317\216a=`X,=`\336\361<\007\361\034\275\210\034\211\275\364\214\271\274\201\007\344\275\014\204?>\252wM\275f\374\302=L\370\375=\211\205\251=k\373!\275eN\360\275\371\214\200\2757\022\234=2\021.=\204{\236\275s\027\336<\232\210\\\274\375$\265\275\335\320\203<v\027A>\341\347\265\276?\210\020>\247.\251=A\204\213\276q\347\254=\234C\232=9\020\242\275v\"\024\275\350~\234=\302\262\034>;\364\230;m(\032>\023\3546\276\224\3625=\375cg\271\"\216\223\273\304\303\234>\316\3402=1M\215=\357N\027\275$\365\375=\341&\300\275j\023\"=\370\356U\276&-h=*E1<<-%\276\344\322\260=\320\205?\275\031\315\250<\220\272\245\276\265\263\201\276\370\331\344\275D\372z>\334-\343\273\311M\036>\231\004\253\275\000\2061\275Ft1\274\221\337\210\275\021\346\226=\277\307{>&Y\300\275/\302\234\275\376\232\024>\263\234\302\274\311G%>\000\022\024\276\343\017\311<\226\264 =\333e\267=\367\372W>4-I>\343\265\370=\213Qr\276\254\353\344>\305\320\317\275\033;\341;\304\264)>fw\003=\237\356\236\275\264m5=m\270I>?\376\005>:\262A\276\223m\301=t\326U\273\017\001\013\276X\"P\275,\226\221=o\002\234=\245$0>\033<\240>\204\032\201=\306\025i\275^\021\274>#\313\314={vv\275P\325\203:7\3553\275\273\\\262=\000O\327=\232\265[>\224A/\276\021\362;>\375\273\320\274\263\324\274=\2721\"\276\004\360\222=\210\322\004\275\315N\032\276j\226\315=g\373i<\306\276/\275\334)\224\276\300\224\244\275\223\204\270\2767\306\037\276\262\000O=2\0178<~hW;!\241\252\274\245\265\025=xe\203\276>\310\215\276b\307o>\000Z\327\275\303\217D>E-\300\276\227\025M=\304k\334=k\200,=\'<9=\026\236#\276U\016\314={b\321>\223PO\276\002\343\277<B\331 =D\224\005?Fx\227\274\020-a;\234G\203>P\333\354\275a\272d\275\006\377\242=\257\311L>\014\361j=9=~\276\366(\274\275C\334\350\273~@l\275\327U\241=\324\177\377\273\251\376t\275\273\316\221=\2649\214=\345\205\021=-e\251=\344B\204>\336\204\177>\326yi\275e\007\213\275\246\306\035\276\026\351,>`\241\341=\336D\217=\';\205\276N\262c\274\253\357\267\275\326\030\314\275\352\260\345\274\035\237\341\275\025*\250\275O#\021\274\016\326\254\275\224\026S\275\203\331c\275=\t=\276I\336\034\276\330Ea=\201\200?=\016\020\324<\262\232\031\275\334\036J=i\214m\275\271\3465\274\247\332\231\275\2746\246\273K~\225>!\335\"=\200\330\334\274\266\353\203\275<A\263\275H\362\314=sL\264\275\003\246\002\275\222il=\275\314\221>}vS=n\0364\274\t\367\306\275\n\020B>\006\025h\275\023\321X\275\263\245\241;\220og\275,W\332\274Q\265P=\216\305\013=\204\207\233=\022D\242>D\256\231\275\247%\265\275\241j|\275\010\327?\276m\362\212\270\254\030\275<\255\001\325\275\3203l=\034.z\276\240\231\022>\277\177\207\274\364\261 =Y\301\257\275\032(\353\275L3\214\275\223\231\325\275V\234\275=\336\n\226=\020\207w\276a\203:\276>\365q>{-\017\275\032\353\262=\306~\234\2766\334+\275\306\215R<*\245\217\274\316\217\323\275\365z\203\274\005iC<[\207%\276\217\020\235\276\000\370d>\312s\221\273\346\332\251\275\001iq>H\324x\2758\241\004=\341\253^\275T\r\226\275\261\035\255<\234}\206>\207\333_\273\245c|\276:\004\300\275\340\"\236\275aE\351\274\014<q\273\215\230\207=3{i\276\255\231\255>\211\024\024\276\031\203\017\276\240\3361\275\024\264h>z\036d=\232\201j=i\0020\275m\301\241\275\202\221\300\275\206\374\224\272\325\356a=0A\261\275\312\250\331>\227\177~\276\257\2623\276\014!\263=`\246=\274sz-\275\337\245\344\274I\316\307\275k\256Q=)\334\257\276k\261s=\353)\354\275\242\333~\275\3248\246\274\315\236\271\275\231\275\377=\222`\226=\200\000\210=\323\341T>\236\023\213>\315x \276JH\206>\364\032\250\274\3479i>\377Z\333\276\342\250y<\263z>=\036\360\036>\344\221\265\275\276\304:=g\310B\275V\304b\275\305\264\034\276\007b\320>#\337\207=\356\357\234=\203o\000?\021_b\2758|\010=\004f\373<\321\3307=\374\n\211>Q\037N>J\303\276\275\334Zi\2766\007\254=\013 4=*\3755>\2206\034\275\325\301*?e]\215=\354\334\366>9\241\366>\224\257&?*\363H>\265\244\270\276\266Zi>}\020\215<\265\340-\275H\225\230>\210\311@\275\202\207\276\275\257,\206=\r\003\340\275\351\266\037>\341B\254<\341O\360>/\360\271=\347\276\251>z\260\023\275\233\265\007<c\331\204<\312\rj=\303wU?\371\302\"\275\323\213\202=\266*\333>\203\240\272>j\274\267\274\001Ct<\374\216\371:lp\257\276\306v\002>I\243\331\275\213\206&\276\026\305\031\276\21588=\203a\274>\033S\225\276c\275D<\033\036A=D\361\245\276n\000M\273\3329\340\275\216\227\335\273k\316\305<\000D\242>\251)\004>sf\320\275\334G\255<8CF\276\027\230\331\275X\227l\275`L\273\274\3639U>\306\017\n\277>t\244>p\244Z\275\361\274\256\276<\316\212\276\3026\233=\346l1<\n\337\225\275\367\370\275>?\245 \276\210\210\351>\232\264\304=cd\302=\353\025\217\274u\377%>\177\"\307>\000\014\221\274\021\031\202\275|6n;\266\024\225\275\246\275.=\306y\216\275Ws\036=\251\013\222>\326\225\214\276\377B\267\274\206\271\335\275\342f\322\275\020\023c=\331\330W\275h\244\227=VY\233\275\035\316\344<n\274\325\275\025\363\324\275\3507\330><\353\005>\363\246\366\275\256J-\276\007\250\315\274`@\014\276{kO>9P1\276\253\271o\276\036#\027\276x\013\235=\032t\252\275d\034\247\275{\353\331;\020\034\300\275\340\"\345\275\004\345\022\273\237\374\207=\376\322\360;\327!\305\276\373\202)=m\337\323\274\306\002P>\273\377\231=\262{\253\275\220d\'\275\340(\225<\305\312\244=E\310\004>a%3\276\216\333\335>u\032\300\274>\217\370\274?\225z\276\301\200\320\273\340w|=7!x=\267Z|\276\001F\223=D\357\315<\333\027\034\273\nB\222\276\026S\312\275\304v\317>\"i\027=@\350C\273b0\005<\004\022\021>\267\243\262\274\371#\346\275u&\366<V\333\204>i\t\036>\331\357\331\274:=\211\275_\302k\275+\"1\275\002!\310\275\'\220\207\273\221\036\247\274\271\253\361=\376l\235\276\262\305~>\265\263\312\275q\352\002\276\226\310q\276\034\0379=dZ\353;\026\000I=\304\343]\276\037\260\367\275\361\352E\276\351\372\237\276\023+\231\276s\001\007\276\034,\010?\212\0300;\004\224^\275\314\203\005={\323\307\276(\325q=C\\\223=\324\311\245<\326\027\226=]\017\205>><\177\275\261\254y\276v\201~<\200\t\257\276H\305\226\275\0244\301\275\263l\331\275\307f\355=\357\034\034\277\023\003!=\354>r=\035\321\216\2761\204\330\276\324\2237=\\\324\267\275\226\305\006\275\021\246\253\276\2521G\276\200\"Y\276,m\375;\3103\311\276Z\341\207=\274|\203\273\304\326^=\272y%=\271\207\227=B\275>\276`\316+\275\333f\265<\235\226\311\275\224\253\t>k\022a>\256\360m\276DD\210\276\325\300b\275\230(\255\276O>\037=V\324\200\275\026L\316\274\236\324)>K\215\333\276\321$\315<\333\267\217<\333F\027\275\270\326\360\275\226\325L\275\363&(=UN\341\275\325\006\355\276\244 \210>\345!8\276#7\355\275\236\300\213<\255+K=8\306\333>\021It\276\315T\213=\253\300\372<\225\t\272=\361,\227\274\311\022O\274\235\341\300\275\353\342\341=\203g\026\276\235D\002?v6\013\275~\"\217\275\202\002\375>\034d\222\275\246\265{=\243\213\260=\240\340\017>u\305\203\275k\242f>\363\372\254\275\214~\322\276v.|\275?\254\267\275xt\270\276\370\233\343<\356\005r>T;b\274 5\255>\320#\363=\311`\201?/\013\r>\205\021n>\007\352\354\276\322\230k=F \000\275\221- \277\313!\233=C\265\311\275;\014\005\275\031\r\242\276c\342b>\"\213K>\207\'1\276;\234\210\275\340VZ?\326\321\213=}\305\237=_\307\257=8\n\230\276\261m\217>\037\177\373\274\306\221\271<\"\361-\275\214\326\323>\266F\273\275PB$\276\216\350\277\275\232\303\373\274\037\353/\275@\252O\275\002*B\276\300v\313\276i\210}>\344\363\244\276\370\014\310>(7\232\275(aq\275\200\225&<\231K1=\232\322\362;\016\273\252=\347\255(\276\310\022\\<\364\265m\276\3247$\275\2137\227\275\227\205\217\276f~\276\274\013\210e=\001b\300<X>R>`\350m\276\326\'\261>U\325_\275]1\004=\232\242d\275 s\320\275\215\327\262\276p\3156\274\251\315\336>\002u\334<w\213\372\274\215\215{=N \254=\277=\002?v\345\026\277\352\005\300>A\351\326<R\036\347;y\254S>Nl<\275\030M\236\275,\010`=++\r\276\351g\210\276i\300[\276\334_Y=\006U>\275P\264\330==|\207=F\nB=\304N\215=\254\024\240\275\301\256\230>\351\301\203=&th\275\304\301\333>\220=V>\321\252\271\275\216h\375\275T\373Y<\'W,\276y\301\236=\332>\220=\3656 \276\215s\353\274\003\3718\274\t\2121>\301\241%\276E\313-\275\226\027\207=\002\020\016\276\206>l=?\217|=W\276]=\177\304R\274\014A\331<a\346\210=|\311\003\275\306\2105;\331\017\236=\217\264\235\275\"(E\2752BI\275T\371\230=\344\212\t\276\346\010\262>\265\306\223\275\354[\033\276\210\010\005\276\255\306\316\274L}\">\026\nf\275uQV>\211\005\275=b\201\230\275\334Y\032>7\331\270\276v\0244>Y,\226\276u\372\020?\376\373\371\274\245\202t=\347\343(?8v\013=R\200\201;\376\243\225=O\266\210>\0324\247<\335 \025\276wC\271>\316\345\005< \234\212\275\364\340t\275\234\236\327;\310\227\n<\325\253\257>\223\265\222>\205\007\247>\353`\255\275\263\005\220>UG5>rK\200\274\312\304A=\n{\315<lLG\275XV\330\274h\257\024\277`v2\275\004\265\322\276(\241\005=\375\246\224\276HR\233>tC\225=\206\237\276\275\251+\276>R\021\230=\353\304\002\274(4\020\275\342\305\304=\316\370$\276\0016\331\275\352mJ\273\013\212#:5/\274\276r\243m\275\243|\335<\222&o=\315\232l>\363\023\227=d\247:=r\367\276\275\243\257\242=\272\3011\276\031w\233;n\346\000>\342\355\212\275\246\035s\275W%S\276sCY\276\263\352\245=Rl\021\276O r=\307\262\273\275$\367>>f7b=\001\274\243\275\273\203\"\276\373\212\310\275\367\036\367\274\'\371\201\274\353\344\373=\n\2252>g\207\233\276\324pG\276\377\035\233=/,\004\277\363\372\254\275\032\353\355\275\036\347\346\274\346\237\270=\372\212\200\276\344\267\347=\275\331\033\274\005\3219>\021_\014\276\225O\016\275\204\261\275>\024\364\307\275\360:#\277\326\371\263>\002\276\360\276\001\254q\273\215\324\273\276\326\033@=\340\201\211>\204m?>\255\351\262=\336\301\373\275a#\020?t\335%\275>(\250=\366\256B<\0318\370>\317\r\256\276;\3103?\365\035\240\274y~\376<\264\007\021>\251\2155\275yX\'=\311\213!<q\033\362>\252\277\263=\240\202\217>\205\003\236<0O\352\276$0\034\276\210\220\265\274\232\363\222\275\305N\360<\023\3701\276\301\254\022>\001\014\235>VQa>\347O\025>;@\023>\332D\025?\207(N\275K\257N<\2434\353\275\025\203^\276\224\243\022\272-\277B\275arf\275\377\2759>&\232 >\216\242\224>\315\305v\275\316\005\212\275a\023\022?\312\201.<\032\222\224=\310sO\274\227^\314\273\336\t\265=\343\350\364\274\356;\000=\nW\350\275\265\371\373=K>\214=\216\255\272=\235\017\340\274\007S\235\273\033\314\202=Ds\356\275\013\244\266\273\225\261\007\276\231^\273=ri\237\276\034\233\355>\331\237\260\275T\035\"\274\035\320\010?L\t\352\275\303\241i\275iB\010=\375wW>\2027\205<\265l\202\275V\371\244=\231\225 =\353A\t\276\361\0226\275Gnf=\357q7\275\022\007\007>\\4I>\362fW>\217\025\202\275\271\005\027\273\241e\365\275\036$\252\274&\n\264=\206\326\211=\026\303\360<p1\307\275r:\266>\222\243]>\202\242s>\362M\034\276`\271\306>\277\371\006\276\207\321/=\275\363i\275&\354\266\275\232\267a\275_>\240\275\211\030\252<\234C&>\313\201\004>\251\353,>E\320\254=>\202\237\273\343h\204=\003\223\352<~\033\256=Q\221\236\275\"\256\277\275\263aQ>+:\355\275\032\t\244:\220\374x>\271e^>\323a\242\274kE\"\274]\346L=\\\375S\276 \311\313=\271\265\007\2768\304\327\275\210Ut\276\277\277\226>\255\030\237\276o\227\214>\304@\016\275\362\251w\275\310\352*>#\300\273<u\212\313\2758R\222=|\202\010\276\"X\034\276o\240 >S~@\274<\265\236\275b6\332\275\032}\262\275\263\202\314\275\372R\260\274\200/G>eA@=\255\363d>\215H\310\275qg\214=\233B&=I\304\337<\337\221\216\275\250i\347\275\302\311\304>Y/\343=\254\275\035>S\246\363\273\226\333k\275\254J$>\277A\210\276\311\317\326>\343*\346\275\201p\267\275\265\322\225>O\354c\275eJZ\275x\236h\275\302\226\255\275\227.\021>\233}D\276M!O=\232\345\315\273\220\322\014\276\365\306\254\275Q\334\311;t\321\001=\307\225D>/!\245<\260\232*>\277\261\332\274\227\277\256>VX\330=\203Oe\274\037\005\276\274\227v\032=MTO=H\216\315=\007\264\200\276-\373V\276\360\261\025\276\334\220\234>\000\372\264\275LG\264=\227\365\207\275FI5;;16\275\006\202\016=\255\2735=z\205\n=<\2453\275n\345\227\276*/ >(\367\361\273\307Kh\274:]k\276\313\006z\2751\005\250=\177\230i=)\344\024\275J\316\331=\212\244\246>\205\214d<n\276\335=\376Tw<N\n\204\274\271L\305\276#\000\376\275\310\230\253=\205\306\341\275\223k\177=\265\222\366\274\302\376x=\343>\322>\374,\275<C\264\303\274^\362\217<\353}\026=\211\\\276\276\317\252\270<\311\025X\274\327B\223\274su?=\030\230\355=\177\262\211\276Y)\235\276\016g\254=\242\374\243=!\357\264=\264g\013\275\266\013=\2757H?\276h`|\276\036_\254=P/\244\275q0\200>S\237J\276\235\004\257\275H\260Q>Yt\334<\321\240\206\276)9H>\270\036@\275\254\263\032\275\257\263\352\276i\335l>\217\207\311\275\234m\237>\210\003/=\002\r(\275\265\231\004?R\350g=\300\324\243\275\016\005\212\275\224\336\252>o\207\341\276G\247\305>\307\356\004>D\007\252=\206\257\356\275\002o\343\275\221u\343<\2335Q\272\'\354\346>\2068\256<b}\260>\352\024\334\274x\235\364<\266\352\262\275,\306C\275I\371\223\275\217\204\342<\373:\317>3\000*>\214N\372>\250\201\255>\230\216x>B\350\324=\236n\316<d#\200\274\007\003\300<|S\323\275\321\177\322>\006E\300\275\263\303\014=\212Z\r\274\317\323\277\275\370C\263\274\"\245>\276\352\'K>\t\315$\274\231\337\027?\367\231L=\030\252\244=\367_Q\274!C->@\217\247> \027%>D\251A\275\036\2737>[z\261>\304\274\251\275\027\237\031>#y\264<\207\376D\275\023H\326\275\002\311\225\276.\353\335=Gx>\276\342,\000\274x\202\252=h\334\202=\000\245\226\275[!\247=8\377\225\276\227\312\235\275\'JM=d\360\265\274\304U\204>B\035\240>6\025 ?\374\326\224=\2706\225\275<x\327=\206\2579\275\037\330\260\275\001OG=\2321\337=(\332\262=\3341\223=\000A\024\275|\266\365;\272\316\227>\014r\265\275\340\274}<z\222\306\274\t\301;>\2432\253<\023E\273>\201\177\223>\324G\022\276\2665\025=\307o\214>(-\r>\350I\371;\365e\006=n\003\204<^\302\335<y\314\254\275\370&\264\274\255s\267\275\032\260l>8\343\353\275p\013M\275>\242\317\275:p\205=B\026\247\275\242\'\332\275\301e\235\274\213\217\211>\201\022f\275^\304G>\343\312\342\275\354\213\220=\200\363Q>\264\231H\275\357 ,=\207\211\204=\344\365\032\276\337\260\342=\235C\312\276\333\200\334\275\241\346\204>\352\373\253\275\312[\215=Oy#>\355\360\260;\241\346\002\275\333\206\215\276\274X\206\275\376\233\224\275\347 5\275\371@=>\254\223!>S+\033?\205\325\364<\277#\213\275\177\031\311<#\221\037=\225\211\t\271\340b`\275M\350\014\276v\210\374<#-\255\276\350\226X=\340}`>QJ\246\275\263\350\237=\0036\007\275\340\267\326\274\376[\014=\316b\274=\225\"K=\210\031\227\275\006\036\364=w\036\016=\326\270\"=\034h\027>\335\327m=,j\305\275\241\342\330\275}\226e\275e\251\037\275b\235\005\276\345\362\301:QH<=\324\211\235=\335p\305=+\340\235;\353U\266\275p\313\261\275\036;\210\2751\212\216<\337HU=\232\212@<wQ\266\275\253$\372<\240\304\201=\223\344\253\274l\003o\272\273\347%>Uc\246\275A93\277[:B=O\031\261\276l\0135\276\303(g\275r\257\376\275M\234\366\274\235\301\306>a\240\214=\244\037\310\275\366Q\214>J\311\220;T Y<,\006B\275\331\233\251>\277\216\233\276\2475+>\270\334/\276\277\244v=\264\237u\276z\314\354\275%v\006=Yk\300\275uYJ\2756\252\355\275_\202a\2760Zl\275RC0>wf3\276\014\337\332\275\356\215\240\275\373\306\r=\201e\321\275\331\036\236\275:\347\007>\367\036\357=\336`\350\274\244\224\366\275\370i\033>Z\\)=o\315\257=\317H\373\274\224f7\275\335\030\242=\367x\301\2750\355\307<W\374\230=k\031t=,\251\212=\241p\215=\322\000u\275d\317k\276A7P\275R?\355\275Y\231\262\273\033\237\314=d\344C=D\260\336\274\204\273 \275\364\315\014>+\321\214>\025}\"=\242\305p>\246\377m<T\251\202\276 U1>{\361Q\276$\203~\276l\367\254>?\351\347\275\240o\363\274\305\005#=m\002\202=f\232\025=\010 \246<sFp<F\2374=\333=\301\275\363\354\224=\016\315\237=(\177\231>\226\257~=\213\2471=\257\022a>\350\312h\275^\337?=|\356\213\275n\032\334\274Tom\275\270\357|\276\013\266\257\274\224V@>\237\022\267\276\326\234u=\302-\t\276K\271M=\210\033/?C\230\363\274Y\202\241>\303\035u>\254b\354>\265\202\030>\310i\330\275B\365\005\277d\254\300\275-\005g=/tB\275h\016\004=\250\262\323\274\256\341\t\275b@\324\276D]\273>\264\350\t\277\227\247\225=\010\203!\275tk\232><#N\275n\376\230=6\025\343\275S\210\323>L\371\031\275\373\311B>\210\366\237\2750\266\301\276\026\232\241>\321@\250\275\003\261(>!}t\275\266\030\362\275.F\240=\370)\253=\024\332\010\276\327\361\264< \236\222\275\276\336H>\270T\301>\234\337\225=\215\250\265\275\242l\322=\276Q\274=1\325\263=\032\325V=\224\233\377=\014\304->\355\242F>\003WN>\313\211\334<S\270\000>\201\r\035\275x\301>=\333\005\262=\307\354\024>g\237\212>iw\224\274\'\364\227\275m\233\344<KH\036>\275\353\205=\014\231~>\031$\371\273\026\007\200\2755\221\377\273M\022\227=\345xC>\377\000\242>\335\267\006>%\351\377=9\336\277\275i\312\212=X\023\351\274y,O>\375\3321\274!\'\215=\013\234\206\274\221Uh\276\253\026\023?N\250h>\271\323\261>Q\016\337\274\241{\213<\004D\207\275\324\210\035\275:\374\t\275\247\275\224>a\256W>\310\007t:\273\260y=\306\221\350\275n\201\240>T{\302\275M\242\346=\027V\274\274\331\264S\276\022]\242\275\357\312>=\307P\225\271\314\005\351=\242U\361;\264\3576>o\365,>\205\300\232<\314\355\320\273\031\346\037\276KC\201\275\212s)\275\234\363\225\275\211\320?>\232?&>\002\025\345>\302\211\225\274\332\373\310<\010\362\305=\033\327\022=^\265;\275:pU=\247\314\214=\326\322~\274\372\352=\276\234\276\265\274\313\362\317=l)\215>\313\343\233=vG`=\365\251\006\276\343\365\322=B+\210\274\"0\365<\257\302\374\275BBz\275\262p\223\274\"\247_=q\342\013\275\255\222o=\006k\351\275\3745\227=s\227=\275\341\321\244\274\232\270\370:\005\"\220\275\266\010\311\274\331f\017\276\276\242\301=o\t\237=\236\300B\276\n\272\247\275\230_\000\276\252\357\013=\003\3247>4\177\273={K\350\274\014V\333\275j@X<kA\026=\305\025\023=X@\255=J\021!\275\221]\200\276&\004\262\275\244\001\303\275\333\016g>\264\351\263\275\266\243m\276\255\314\331=\020\215\257<\251\336\345\275\306\270\376\274\326\\~=\223$\207\275l\250{\275\303H\014\273`|\201>\027\377\346<\271\206\226>\223\242^\275\276\240:=\035.\315\276r;\217=\334\370|\275\340_\204\275-\232\332\273v1\321=\342\322\304\275\351\347\211=i\311\230=r\346\277=g\366\253=9i\035>\222;\212\275R\256G\276v\365y\275\302\013g\275|b\017\2763|\334;\301\336\300=He\250\275\353\271\266=+\037\223\275\225Ce=\241\210\201<\304\271\325<\321\023\023<Z\024\241=\220\017\212\274\372V\205\274[=p\275q\335+<\004\036\225=\313\243\251\276\317~\344\275\201b\202=\374\262\203\275\270\321\013=(j2\275z\006\225\275\213\307\301\275\340h\373\274\377E2\276\221L\317;c\221\362=o=\002\276\342 \006\276\335\312\253\275t\345\247\275eN\215>\274\376\024\276\353\221\013=\206t\020<\247\264\202>m-\177;\371\n\335\274\260[\037\274\325\025\322\275\326p\230:\374\355a\275=\224J>;\225\030>\360\356k>9dt=\025\264?\275\323{\210\275\240e\251\275\216\363p\275\001\220\022;\301\243G>\321b\264=\262\303\226\275Qmf\275Q\322u=j\334\334;\222\261\005\275\256\325\213\275\313B\364\275>!\236=\344w\270=\246W\211\275\346W\316=\007\310\244>\272?\252>\003\367:=RV\273\274\351\364\332\275V\343z=\016l\350\275 \022]<\320\002\221=\213pZ\275u\\\277\275\200\375\263>\3543\227<\223\366\305\275\023u\010=]!\277>\237:\001\275\005~\356\275\246\277\247=\264`\025>>\311O\276\221\310u=X4\313\274\301\246\036\2769\251\007>\001\020\232\273A\254\370<\373\\\356\275E\004\361\275\2356\251\274r/\213>\244I\n>\305\277,\276\177\223\344\275\037\376\n>f\0232>\327\254\007\275\274\303\213\272\266\276V\275\363\010\322\274.\342\314\275\357|\206\274}\224\336=\237\311\306\2757RE\276V\343\202\274*\3539\273\225\0344\276J\307\227=1\246y\275\347jp=\340r/\272\t\033!<\351\r\330<\001;\260\275\206x6>\2057\034=\276\004I\275\036\2703=\202\031\316\275I\002i\275\244\202I=r\330\326=\020u\210\276\272\357\203>\216H\207>\315\235\337=\206F\316>\0171\034\274(\271\205\274\342\347\211\273\276\3474=o\n\245\275\330RG\275T\2749\275\375\314G>\353\307\321\273J\220\013>j\245F=\014\264\372>\1770\213=c\023\340\273]*)=\003\273A\273\027\225Y=\301KV=\271\266\223=\235an<y\373:>\335\212.=a\222\340=\034G\323\274hV\007=\260Q\234\275u\256E>\0137\'>\226{\213=\315\360V\275q\341Z>u@\031\274\3611\320\275\017\306\210\275|\302\'\276\017R<\274SO\221<\307?u\275\350A\240\275N\t*>+V]>\343\315\326=t\305\240\275\242\242\022\276\360g\225\275\367\271\023<\364\357\230=\231\367\237;fJ\006>\203 \324\275\232\214\322\275|\263\277=\356:6>\237\261\304\275\310\361j=\3061\007=\2032?=R\3418<\230\207\230>\256\324/=\364\303\240=\244\020\001=\270\215\235=\005J\000>K\225\021\275\361e\373\274RN\237\275\r\007\n\274\247\301\256\275\326&\207=\316\304\275\275\215\254\007\276^\016\201\274\036[G>\236\213\200\2759&\030=+h\345\275\326M5\275\247\026\203\275\342(\305:B\345\306\274_\206K\2755\372\270\275:Z\372\274\236\225~=\276tr=\215]\236=\006\357\266\275\245?\345=+\0069=6\371\233=:\032\243>\375\323^\276\252\035\206\276\217H\'>@LZ<\3324\201\275\334>\034\274m\334\352\275\233\'\264\275\304\336\341<\352x\000\275\334\002\325=\005\361\220=0\237\232\275\361\334\250<\314l\334\275\027\323\251\276HK\320\275a\337)\27497o=\252a\243\274\217T\330=\n\023&=]\025\006<\345\334\240=\314\253\353=\300\303\303\275\205\264\211=\215\347\263\275\232\370\251\276(!D=\007M[\276\200\034\230\275]\253\204\274\314\004\201<\270\310\277\2759\241\355=\325z\203\275\246\025\262\2753\230D\276\315U3=\216\305\000=qus=\347\324\356=\267\022\332=\375\002M;\373WH\275\364\'n\275\277;h=:\264\333\275\023\362\205=\177r\261\275s\000\001=\303\304\356=\264:\360\273\361\267H\275-N\"\274\213F\202\275\331\027x\275\261\270\367\273m`\236\275\234\224\261=\020\350\026\276Q\031\225\274\337v->^y\333<\253X\033\276hh\221\274\313\334)=\344\273\332\275\327\372\356\273\375\035\036\276B\321\201\275PaO\275\377\275\222=zR\032\275\215\303\361=;d\343\275\217\304\005>2G\227\275\337\247\241\276\253|n=\001\266\372\275\364\331j=\025\250=\275\277a\217\272\334u\2679\274j~\274\335\320\273=}\204\277\274U.\271\275\377_L=\362\375a=\324\243C\276\316+\004\275m\364[\276$x\020>\210\3635=\036}\307=a\216\351\274$}\241<\031G\236=\231r\211\275\210K\204=\202J\003<\355!\306\275J\267\345\275\346\242^>\0144\305=>+2>k\216\310\273\220\376\t\275\326\274 =\322\317\203\275\351&\300\273\274\021\245<#\251\307=\013\316\254=L\232\317=\353\302\276\275\326\244\022\276\334]\014>\010\037$\274w\200\034\276\215\275\235\275&\035s>\020f\200\275?@\277=\320\023q>\307\3659>$\365\025\276,\256A\275\353K\322\275\016\017\374\275B\351z=\357\315\344\273\363\r\272\275\002\004\205=\013\234\317\275H\224\033=K\324\032\275km\037\276:4\261\275\013\037d\275\007]9\275;\033v=+/\241<\355\rP\275\353\354\"\275\033\'\212=\221*v\274\232\020\271\275\014I\317=\252m\177=\217\0055\275\022\024\215=\245\233\177\275\276\222\345\275\364q7=bdY\276,\232>>\321\376\t\276%T\370=\236\365s\275;!Z>\361\301\341\275\247\321\326\275C\214\010>;\272\212;\013\006l<\277\306\213=\324\3279>\351\331!>\"Y\222=\223?\316=\317\342\037\275);\365\274\353nt=7\331^;<\260X\275\036\303:>t\272\202\275\016n\t>\334\265s=H\362m;(\2138>\017\334\000\276=G\025\276\312\035<=\253=\347\273\374\344?\275\253\311\351\274Z\362\343\275\350!c\276\014He\276@\030\223=p\370p>\371yF\275\346\344\223\275R\232)\274\341,\246=w5\276\275.zq\275\231Z\205\273\0066&>\246\'\200>\225\371\002<XLx=\032\375\031\276<\216\260=\000\347\346<[G\177\275\364*.>rj\253\273\310\000\202\273\342\206\323\274Pt\035>Q\326\237: \"\366<\223\224%=\270%u=\213\257\371\275u\256\001\275\343\3363\276\317/9<\r\247\333=\335\224C\275D\312\222<\301\243?>\003\276\224;\005\"\216\275\336:\351\275!]\323\274Fy\325\275\270\206O=aJq\275M\267\325\273\240\370\267<\276\310\325\275u\225\"\274\273\214\002\276\342\032\325\275\023\301\376\272\037\344\251\274!\275\277\275\360c)\276bD\253<\013\343\r=\017P\367\275\312+J\276\242\372\r\275\367\366\343\275W\005\375\275\215\231G>\\z\216\275\304\201\200\276:2\235;\226\352\026>2\247\255\275uT\177\276\364\262\230\275[#{\275\2376r\275c\230L\276#.\265\274\033\026P\275\235\254C=\366\2706\276\226\037\337\274c\356H\276]\230\206=\266!\324<\341\274\222\276n}\346<\253\261\027=9\016\010=\243y\004\275\300\253$\275\255\032\302=E-L<\254\026\254=\004p\027\276\243\207\t\275Z]3>)\3563\275\273N\335<\206P\234\275\223\031\r=+\223\271=\232\345\200\273\200\342\216\274\204h/\276\326\007\340=,\303\353\275\277\363\255\275\267\302\024\276\2342\253\2750\250\342\275\253;[\274n%L;\027\344G>M7H\275\t\346!>.\327\014=~\335\245;\275p\224=\260 \256;\345\330\277\275\251\251\270<\n\244\217\273:>\346\275\321\2266=W2\212=,\032{\275\264\000m;N!E=\'\022l\275\004\231\'>:l>\275\0357\035=Mn\311<\332\235$=\327\335\200=\r\357T;\234&J>\033H5=\022\304\030=#\'\003>u\327\216=\222c\302\275\030\006y\275Y\353\332\275\\\025\244\274\033%\350=L|b<\032\265\261\274;\370i>\262\301\204\274q\242\233\274E\321\324\275\020&}\275\257\"c\274\021\303?\274\010.\275\275\217\215\240=\343\024\306:*\333\310\275\347\226\230=p\321\232=\344\001\313\275\300/Y=\377\245\226\275\360{\343=\033\0024>PO\026=#\211\017\276,\243\260=nK\232<\347B\334\275\335\316.\276\320\241%\274\215\003v=\234-P=+\005\314=\206d\n>\307\355\202\275O\to=\236\347E\275\024\304?\275U%2=\002\261t=\r\3526=[\3625<\036\024\017>0\371\267=c\374\363;\307\031\321\274gq\343\275q\305\354\275\022lY\276\004?\303\275\377?\350\275\335L\027<\2210\255=\232\010\266\276\210\232}<\373([=\270p*>`\266\251=Y\350\322<\252:C=1\r\225=\000\225\344\275\271e\320\274\210\246Y\275\373\316\333\2752\274\207\274{\003u\276\326b\310\275\357\356\013\275\361s\n>\"cH=\355,\014\275\024\255P\275%\365\'\276\236\2765\276p-M>/kz=\216\260\203=\007\225\213\276\315\375\274\275\347\202\304=\002\315\205<\277\367U>\230\210;>{&\204>\250\036\217=\327\344#=\311\356\244=\026\'\247\274\301\031\334>\260\326\341:\177\"m=r\337}>** \275\322\330k=\327\231\351\275\3012\267=\351\264\031=\261\341\363\275Wec>\017^\273\2717\265\253=\\\244\216\275\234\213\266=\304\002\354\275\214\006o;A\355&>\276\272\242=\"\3152<E\331\207>M\302\246=4r\362;\362\244\360\275\251\247\335<\272d(=\216\242\345<\242L\215=\337\303\034=\250ii\276$:\217<F\214\320\275\211\314\274>#\3269=m\224o\275G\362\214>*\321%\275x\227r=\270\271\316\2742F\343\275\325/\276=\204q\254\275~\337\244>]\336I\275\242\351\211\273\354:#<k5\257\272H\313b\275\212\234/>ns.>~\231G<w\257\035\275\220\213J>\'\364J>\352\267\226=\254u\334=\2732\006\276q\272\314<\014\253\333\275\265\245\253>\216\315\027>]ja\275Q\372x\273\346\270\237>\365\247\312>\221O\237\274\261\322j;\316\025Y\274X\210\204=\"\206j\275\221\033e=}\330\363=O\202\262>\035\364\034\276\236\341\345\275\000\000\324\275\264|\230\275\035\004\252\275\026K\375\2755\344\247\274w\251\016\275\230\302\302\275\346p/\276kG3<\372\032T>\310\276x<\231\324\227=\331\353\267=.\267;<\313\341\313;d\0319\275)\265Z\275\245\221\n\275\271%\215=Kz\374<a\361\010>\224\n\035\276\2339A\275\274\303\271\275vD\346\275\373\224\217\275\312\214\273\274a%`\275a\333\303<-=\213\275\227sz;p\363+\276\334@i\275b\017\334=h\365\341<\231\237\205=\250\031\034=\224GL\276x\260`\275\014i\347=3\350$<xJ\365\275\250\337Y\275&7\223\275\351p\007\276\347\373\232\273\255\024\n<\255,\202\275\313\327\351=\235\312\275=\217\261\315\275}>\226\274\334i\254==\211\226\275j\211\237\274qb\374\275\324\013\234<\310\217s=\033X>=\033K\030\275\255\247\223\275\000\375\376=[\300k\275\251\325q\276\340M\210=\262\277\037>\242AE\275\234\362\233\275:\270\001=\265\214o=\225\241\311\275\222\254@\275\255I\266=\375@\326=?\344F\275\215%\030\275\301\373\263\275\253\256N\275S\347\014>\243=\023\276\"\351\205>\"\374\311\275`\243l>-(\271=\345\201\207>s\362\303=\313\267\225=\032(t\275%\327\216<\016\036\225\275\213V\350\275\003\253,=I\364\205\275\315\022\235=\353\022\341;\273]\375<\020\326\201<\220]d>\225\016I=$Jt\275\245,\300<\300\016\356\275\251k\274\275\263\363<=\032\217\221=e\334\242=\210c[;\265\r\314\275P\337p>\005O\353\274\270]?=,\001\226>\005\304\300\275\277}V>\253\235\321>b0;>K\250\014\272\343(\034=u\215\177\2751\271\n\273\333x\210>\252xO=vW\242\275E\022^\275\206\302\000>\275\362}\276\272\354\257>ow\355=\272\314\212\275B\010\306>\231D\350\275\361\246\005\276\\@\370\273U>X<\351\322\013?TB\'>l#\227=\363\360\237\274\n)%>\373\252\035\275\355 \007\276\326\225>\275\233\221\035=)Q\221\275\364F=\275\336-}\276<|h\276\211+\327<\003g\236>3\027\257=\310\372\311<\362\230\270\274[\244u\276\305\223\351<^\032\207<\221\267\302<\367o\031\274\341 4>\334\352+\2765&P\276kBE=\317\037\226\276-\346U=\266\242~\275)\237\312\273N\022\364=\233\353\314\276\330P\032>\270\267d\2752&:\276\225\255\240\276xG\013=\2537\037>M\272\255\275\246\360\315=\313\206X>\2019\036\275\311Y\215>\201\205\250>r; >;p\223\274\366\256\222;\310\271\217=\342}\242=\271\344\254>\233pd\275\335F\254=\327H\201=\363\212\270<\033\375\003\276\334\335\312>\266\262s\274\245\327\262\275A\235\244>G\343O\275L8\022\275\226\255\225\274o\220\330\275\274\224\324>\324\330\236>\375\276\303\274\275_I>m\007A>\317>R=\035\'G\275\311\366-\274\r\261 \274\250h\242\275\265\226H\275N</\276\023\360\013\2764\236M>\372\254\345=a\377\326=\004,\351\275\344n4\275\215\207M\2760\217\276\275\255Q\354<_\224p\275\273\376\035\276\276\256\231>7\023\263\271\306\244&\275]\336\305\274O\346\024\276\341u\352\275R\354:<Mq\311<\246\360\302\275\330,\301=\244\010*>\360\343<=@\304\200\275Ok >\247\222\231<\031\235\301\275\262\361G\275\211\023_>u\200\241\276\313-\310>\003\241\333<\234\005\361\275i\201)\276\363\022\230>\213\342\264>\033\353\035\275\")\026=--\223\276\330\261\236\275\222\016\313\275\200J/\275`\2260\273\017\356\324>\3438/\277\024\240\367\275/5B\275\305\371\177\276\336e\r=\243\033\310<\247\037q\275\313\355\230<\351wZ\276\212\271,\275#*R=\260\307\202>\005\001\027\274\353\202i\275\254@\202\275\344hA\275p\3010=<\0322\276J\313%\276~\267\324\275X,F\276?#\026\275\323*M>o-\025\276\222n\235=\t\340Q=.\024\225\276\223\342`=\324{\361<[S\254;\020\003\000\275k\345Q>\246\026\266\276WW\016\276\270M\241;<~\250\276h\342T\274\210K;=N\233\002\274g\0173\276u|\332\276\211)\277=4\3058=\327R\240<\354\203B\276\352\006\331<\315\275x\275Az\341\275\366\311\006>\267O\023\276\322\002\250\275\220\305\315\274qJ\021\2765\364Z=$r\346=\347\3326\276z[\277\275\026\'$\274\002tg\276\220o\205\275\346\025\204=\n*\213\275\303(a=R\0174>\035\020\200\276*\002f\276/\031\315\274\272\3568\276\212\021\266=\314\227\217=\036\026\372\274\252\343\274\275:\200\205\276\002\256U=Ho\351\275W\376\200=*[q\274\213\253\255=\325X\270\275\235o\372\274\306{\217\276\265\000%\276q\016\265=\000?\311\275=o\262\276A\300\312\275\276\317\006?;\2016>R\013\312\275\373V\362\273\250\202_;\225\315n\275\202\022\344\275\035Wn<\230M#>\245f\312=h\200\036\276V\3537\276G\231\027=\246\317\177\274\307f\350\275xg\2278B\345K=u\211\031>\216\262\325\276\246\316\370\274\236Q\251\274\233\3710\2764\ng\275q\260\346\274WK\216>\"\237\220<\323b\374\276\032\303\252>\324\303P\275SI\'>\236\343m>X\205:>!7l>i\020v\275\276\343\312<\225\214$=_\252\243>|\335\261\275\0147\264<\344\020\254=89u>:|.\2768a\006?\307B\346;\024\276;=Mq\000?\002\302\266\275\213#\210=\200oc=\263f`>Y\210\341>\346\215\201=*\261\003=[\377\306\276\350\323\354;\231\254\374;L\256\345\2759q.\272H\221\211>\202\237\273\276\236\274A>\3176\332\275^\2724\276\rx\223>\260\332\200=\264\372\331>\324\222\t\275\372\254\361\275\3502\331\276\225\261(;\025\366\331\275\270%%=\010MK\275\224=\211>\352*\372\276,\313H\276\305h\177\275\334O,\276\351\023\202\274\023\013n\275N5`;\352I\353\275e\251\\\276\254&A\275@\026\215=QO\345>\005\241\032\275%\310o<\226T\366=9\355}\274\034v\223>\377X\275=\001\220\256\275\257\032\216>\0240\303>\334\354\246>\362\361\230\276\264R\007>\277_\266\274\266^\324\275\004\253\255>\275\201U=\027\351\260\274\247\261`=\333\262U=n8V\276\346\230\260>\rz\222\274\205\255\206\274\347^\341>to;=\004\323\215=IPY=N\370\253\275\346(\351>\323\372R>\227\315>\274\004)J>{n\224>7D\240\275\236>\206=\222\243\245\275bj\342\2739~Z\274\250y?>jC\020\276\303\253\020=\004)I>~\341\243>\211\302}=\016\341k\275\345B\260\275\0263e\276\242,^=\376\272\016\275\315\342\203;\254\254\275\275r,\031=\035\376M=l\276g=\307&\325;\326\247\373\275\266\303\t\274E\214\301<\325)\247\2754\334\235=3Q\234<@\322X=\262`\354\274SX \275:\225\000\276\354\356\267:6)b\275\317p\005\276bL\027?\262\202\322\274\276\364s=\226\261\024>\004\005\005>3pg>\010\316\234\276jd\\>H\261\345\275~\267\244<\242\224\320\275\177_\232=\234\326\317\275n \256\275\'\026\037\276\034\263\304=\317b9\276\016\007\036>\342\245\261\275\022=\t>&\'\251\275Q%\356\275Ier=,\226\351<\235\333\004?\201\t\321=\364g\362<\273\257\n?\377#\305>$\227\206=g\334\204\276\357\214@\275w\205\331>\307\374\364\275\350y\\=F\250\274\274~\244\251\275\256\377\204=\362\262i=< \226\275\360\351\222<\341\312H;\010\320\357\276\000\007>=\022U\004\275\337\366Z\2757\3055\276\205\013\265>\035L\266\276\247\235F\276p\335^=T-\340\276\361\335\036\275\302\213[:\033\253K\274w\277\221\276\224-\265\276\030\022\036\275\222)\303\275\233\033\223>\326~=\276\215\250\305\274\242\355\254\2750\275\313<h\274\312>&_\016\276mm\010>\0324B=<\3639\276\0105S\273\333\203\222>@\214\234=<\312\306<\242hj=\260\356=:i\265\207=?t\325<@\370\242\275\\\030\267<>\346\211>\251\305\244\276\006H#\276\214\305\003=\3544i\276\323Z\276\274\023/\327\274\354\2058=\243\2200\275\022z\263\276\222\361\274\274\024\002p=W\325\216>3E\234\275\273\3534\273\273\314]=\205\367\222\275\272\306\014=\265\023\216\275@\261->\021\252\225\275\336\244\266\276t\302\034=S\353D>\246\006\241>\005\270I\275\023g\207=\307\004\t>>\362\204\272\024\024\204\273?\0164;\264\203\373=p\334\303={\217]\276\204<`=\2208\237=\206\037v\276\007\374\243=\220\267\006\275\272:\363\275\0031^>\027\265m\276w\001>>5\350\317<\212B\342=\2109\005=\\yn=\225\305\334=\004\036\007\276v\204\202<\310X\340=\272\340\245>E\354\016>U\226\014\273\367\377\214=\356\031\374>-\257\373=4\266\216\273\307*\260<\207\250\013>*=\224\275\357S\337\275\026\333J\275\341]\211>\220\246?>\364\025\213=\323\035\250\275+\232\252\274\231\0017>\323w\240<\032Y?\274#\341,=|\3028>\246\014#\275\345\370\032<f\033\341\275\313\303\312\275\251\352\202=io\225=.K\204\275\272\223/=\253\321\274=\344\032\202\275\nq\221\275 \207\200=0\267\304\275\025\264\244=!\356Z\276\364\333\211>\016\374\037=\320 \017<;\307y\276\3567#<e\250\230<\026Pa=B\276}\275\241\0236\2759\207\350\275\301\321\036<\335\314\014=\226\373\244\2759\354 \275\344WH=\236\347\"=\177\375\006\275\233|\304\275A\316\374=\327\217\'\275\034\314L>\033I]\275\307\rG\275\007\037\205=N\261\024\274\353\363==\311\234\244=\200l\036>\"\014\247=\365\362O>[;\201\275\r:Y>\366\374\305=`%\004=\244\203\256<\023bv>\343\201\021=hI\032\274\226\264\201\275\205/\007>9z>\276~,J>\332\014\243=7\223\337\275\245\336\022>\3318\371\274F\\\247=\261\010\235=\007{\301=YC\353=\002\356\010=?)\002=\215w\237\274\253\277r<U\333\n= \316C<\240\300\300\275\001\3722\275\232\252\217\275\2153\222=\323\0268\275\320jJ<\2765\332>\032\363\351\275\033\335~>\2328\031\275\034\337E\275\372\322C\276%j\373\274\347\230\201\275\356Lh=\306L\346\275\352\340\202=p\030\363\275X\336\251=6\027\221\275\251g\'\275\334F\\=\330\277\336\275\305\322|\275\0328$\276O\344f=\344\350\031=.\333D<\323\007\027>\200\270\372\274s\341\255=Q8\362<\350\2534\275\265U\214>pH\333=;\036e\275\337\236\205<\037\245\020>\244\t\217>\377\034<\276\223-T\274\351\216Y=\036MJ\275\230ZL;%\312\242\273\324\331\030\272\304j\004\272\221wL<(\333\023\276\207\206Z>\305\030\022>\323\211\263\275\0131G>\014\355Y\275\277/\237\275\204o\033=\240\023\230\275\024l\247>\017\325Y>\321\027g\275\035\374A>I\316\311=Y!(\275K\346\347\275es\214;Z\006\203<\207\017\213\274\350\347\257\275\034v<\276\206V\314=\227\345\010?\226\027\311\275\263c\027=\244\252\316\273\216\2744\273:Vg\275\300\226!=\361\213r\275P\205\232\275)\010\200\275\335L/\276$\t\235>0F\272\275\222\n\257;\013\372\317=\000}O=\341z\347\275Z\257r=C\224\367\274?\034\340\2747\252\363=\202\233\263;\325mi>\212\226\356< s4\275\332lv\27655\311\2741_\350>\212\336I\276}\315\210\274>\020\200\276\030/G>\375\230\376>f;R\276\215\2431\276%\361\347\275I\237\217\275\235\327$\277a\203\352<\237\013W=\023\302\242\274\005\274\034\276K\t\220>\365\226<\275\351\207\246\275\223\235\264=\212\222K\274:z(=p\322\212\275\340\327m<f\353\256\276\325%\321\275\242\020.>\356\022\272=\"2\017?\253V\205\276dk\303\275 \260\"<\315}\234<\264,v>\0208\272<\236W%>\325L\266=\264>y\275\331\322\230>mC\233<O\366\253>u\032>\275\230\322\212=Q,\266>LP\320\275KWg=\277D\324\275G\325\005>\001\227\216\275Y\034\001\276\033G*>\373K\240\275\314\337\241=\022\367\224\2738\034\365\275\241\371y\274K\244A>\204\311\">w3!>\346=(\275\006\356\303>\253\265+>\224\257\\\275\222\350\003>\320{%=o\003\013>\013^r\274\2672\037?\"\363\t?\016o\312=\311u3=|\240\366>\313U\n>\031\303d\275.\306\231=r\357\262>\n[\237=\334N\245<\332\030\n\275\007\202Q>\262\n;\275K\310\300=\316\177\335<\213q\276\274\223\262\365>\251\317\354\275\315\2515\275s\010\226\274\237h\237>\020\025y>!\311l<\331E\017\274%1N>\205e7?\261\265\247=v\\)\276\204\252y\275\303\233\032\275\300\217@\274\233[*\276LT\025\274\336*\n\275Y\236\337<v\3460\275\177\023\263\275\241\271\270\274\343n\t\273>\250\\\276V\212\336\275\037\261\217\275Y\003\207\275\353\225z=\243RX\275\203{\205>j\345\247<\037\004\247\275u\364v\275a\223\257\275\232\025\372\271&=\227\275\3636\005\276c\2729\275+(\232=*\365[=\311\353\206\275\374\200\340=A\370\024\275\234k\377=)\021^\275\377E\367\274\177G\247\275w\376\340=C#\240>\3748Z\2768\035,:\203\253\032>I\035e>\212K\263<\376\237\233=h\340\026=\n\301\244=PL\250\275\244qX=\270|\314=d\'\006>$\231\206>\354\223\330<\034\270S=\366\232\251\275@\025\202\275\005\307\346<\331\326\205\275\271\227\212>S;==\3244\272=\350,\003=\026*\237<\002\305\212>\\W>=\024M\356=\242\245\246=\332\327\006=\276!\r>\254\213\235\276\005\275\305\276\355;\344>A\003#=U\350|\276\342\362\263\275j\323`\275\267\256\331\275.\213)\276\306\237E\275\327\361\313\274\221\002}\275\335)\220>\216\327&=\013d\214>R\222\266\275k\354z\275\254E\211>?\3208<^%\323\275\221\360\342<\231 \302\275\307\"\036\276.\323r\276\262dx=?\021\376=iD\217\276\314\213\234\275@\326\363\275(\350 \275\2719\331=\217\3340=\0331.\276\274\025\303\275\357\317\262>\352\033>;i\223\213<\211mk=\205\220><\371=\223=\227\017h\274\234k\233=\323\323\316\274Y\223\007\276\300\346\034=\031\353F>4\214$>\317C\347=v\000\322\274\215\010\030>Av\230\275%U\275\2750*\212\2752\267\230:\271\265\270<}R\335\2746-\263\275\2658q<C\002\277\274\177\206\322;=\n\255>\204\371\226\274\010\220\306\276*\271\352;\007M\217\276o\235\355\276{\214j>\302\235\347\275\003\211\205\276\312<\316>\3773\362\275=A\036\275T.\270<P\311\277\275X\033\256=\247\205\253\274\203\261\226=\353\236\315=\272\326)>\301&k>\212\261\232\2741\027\200\275{]\305\274\354\034\241\275a\221\320\274\301\214\013\275vK\217\275\316Y\215\276\226\337\204\275|\343R=\352\377\311\276\243\351h\275\232\0035>a\235\332\275\235g\217\276\2257\373>~&\225>TX\313\276Mh\350>\270]*\276U\264^=\324\232\327>\354\260\323\274\311\310z\275+p3?t#\224\274\200\221\256=\004\0167\275\241\002#\275\234;\240\276\342\341\246\275\236xe>\2535\255=\275pw>\305\267\254\275\303\371\243\275\210yt=\200\014N\276\232)\211>p9B\276\201\033\227\275O~\230>\340o^=\345I-\274\202!\">\37450\274;\177\005\276\031\236P>\226\255:\276Afn\276\t(\307>b~\262=\214\2016\276\215\257\262=\316\235\232<\320\332\321\275\320\275}<llu\275\020T.\275\311\333\252=\360\356M>\233\006\023\276\'=\223\2753\025\275\275\264\\\231=1\347I>\202\177\010=;\266\324<\3175F=\223\267\025\276c\377A\275\214V\205\276s\374!=\3208\352=\022\303\335\276\214\3548<:\252p\276g\305C\275\255\013%>\350N\200<\212+E?n\241$?^\006\231=\273\177*>\373\260\333>\271\305\020\276\242R:\275Bv\343\275\373\001\311=4\366\033\275\214\302\312\275\302\316\262\273`,\241\275\322\203\t\277\251f\206\276E\225\216\275\331Tb<>\r\224>\366\343\324\275i\3660\275\205\251\013=\226\267a>\010T>>\337\177}>\313\332\355\275\217\216\026\276/\002T?\020BZ<\271\227\330=\312\2062\274=5T>\315\235\345=\306qY\275\377y\n\276\346\313Q>\272\372\344\275\372\200\224=oUq\276\321\354R=\304.~\275F\006\225\275b \341\272\271n\363<\r\306\352\275\270s\r>P\201\336>\017\035\323\273(>w=\355\355\224\275z\243q>\205\306\231\274\377A\177=h\372\307<\324(\223=\354\024\021\276\216\334E\275d\347\251\274F\036\315<\263\321\001\276\025\357\226\275\331<\341=\210\3551=\307\t\317=}u\216<\352N\274=\222`\377\274\274\026\242>\350\272\t=41Y<\273\006\227=N\300\204\275\246q\250=\3123x:\246c\345\275T\275v;\343\354\307\274O\304\252=\034\336\026>\225\222\355<K50>\373+j=|\t\337>\277\300\326\275f\362\036=\243F\312\275\242\017\237=\t\347\304=\345\231\030\276\246m`\275\310\277@>:\027(>F&\362\275\352\357D<\233\331.\275\360\264\">\275\010\257\273\251\325\342\274\007\266+\275\211\251\275=\220DV\276\316\205\251=\023\263T\274\212\275u<k\367\211;\207ql\276\023\356\206\275$U\024=\270\217\320\275,\243\\>\266\265\271>\320\2312>\250\033&=\344\221\253=\317\nx\274/\262\344\275\250I\205<G\213\023<\334\245\277\275\321I\335\275\023\033\026\2765q\241\275a\020\302<\233\317\345\275b\342\203=\013\353\247<\347\215s=\016\345\365=\010\004\276\2751J\244=\364\265\232<\322\034\266<\263\013\262\275\234\217\253\275\021\017\005=\334o\032\275u\217{=\'\272\204;\344\004<<\223^\217=W\221\231\275\330\242\354\275\035\026\243>(j\216\274f6\313=\247C\362\275-\2068\275B\210\\=3\225\306\275\325\017\353\275\004\346\355=!\206\312=D\254\242;\376:\253\2752k\016=1\257\232=:\276\225=\201\"\t>\237\352\225=b\314\211\276\322\207\354;SjA\276y\274\006\275\177r\215\274(\272N\276\330;\225\275a\316\242\275\367\340\335\275\265sH=\343\235<\276~$\221\275\030\200H=\350\310\201\273S;1>\254\225\205>9{w>kv.=\005\013l=q\177{\2766\265\323\274\331\325D\272\317\001\365\275\211\341\375=\377\021p=\333m\n\276|V\335\275\335\250,\275\342\n\330;D\374\241\275\337j\354\275pm\r=\221\350U\276\306\006:=\275K\276\275\003\034z\276\222x\311=|\225\323\275\315\300\200\276K\367\214=\277\364A:1\352\216=+\030\373\275\300\312_\275\265*\277\275\\\304c\275S\302\277\275G\355\225=}\255\207\276c\227->\347\257\230\275l\215\271\275`\245W=\016\267\034\275\'\345e=\316L\266\275h\177\224<\3239\226=\227\245\214\275\361\233\275<\307*j\275r\3601\275\354\'e>\334g\003=Z\n\354\275}cJ>K\321G>K\357\321\276\326\'\306>g\274\211=\322\223\340=\210T\260>i\270H=\2224\305\275\352$}>\304g\334\275\177\007O\275\354\250\345\275\337\215M\274\263\372\377<X\366\025\2765\013\206>\216\352\036\275\244 \217>\357\271\007\275\370\022\371\275\'\327\252\275\013s4\275*\036~>\215\371@\275V3\261\275<\224\020>e0\367\275e=\314<\235\304E\275&\257\233=\322TL=\271E\000\276\320\n%>S\303V<\277\016\232=DY\332= \357l<\327\024\275=\240F\n\275r\263\333\275\221\233\273\2754M\236=\306\256\227=\337\006\213=W\023\027\275\035X<\276-\367\\\276\037\326d\273\326L\021=`\003\025>|\360\315\275\326@,;\024+\207=_\327F;E\201\354\275\332\313\010>\362\356\235\275=\021\354\274\207\334\315=\262\275\310\275\265\006\210<\222\032\303\274O\034\223\276\346\311m<\227\263:=N\022D\275%^\364;~\025\362\275\371\2331\275M+\247<\326\350\361\275\034\t\000\274>l:=\213\253N\275\343\210\222\275\343|}<\033\3220\274o\234\273\275\376\365J>\361Kh\274P\\\226<T\036B>k\250f=0\271T\275\276/\216<\222\210\304\275\2032\371=\274~\314=\021\364\225=\037II=2I*\275\206m\205<\216\203P>\233\316\206\274H!\'\276i \227\275\246[\245<NP\241\275\265[{=\225+\256>\360\025\251=\031!\335>\256s\274\275\232a\177\274\037\033c>\374\\\304\2753\204\275\275\375W\225=\255\373\331=_\300|\273\230\016\277=\001;\022>\277\r\277\275H5\312>\230]\340<~=\362<\203F\005\275\337p!>\014\r}=\362\224\356\275\274\361\231\275P\031\004>\006!h=!h\337\2757\3212=\353\014\234=M\251\363\274\321&\322\275\200l\206=\3615\266>\235\375\323\275O\276\205\276\r\0231>\232\025\215\276\002\346\231\275\017\251{=m\244c\276\001\244t\274\034D\242\274e\343\227\274u\312\223>),\313=\342io>\tJ\'\276\030\217\236=\222gZ\276\356\336\302<\346\227\346\275\027X\367\275\247\326\320=\217q\331<,\307\'\276i\325\023\273\3047\306\275fAH>P\350\347:\361G\"=\336\223\266\275D\013\267<b\267\332=\350\016\372=\351<==\225:\023>\242\003\315<\031\224\364\275\373\224\315\273\212\025\t;\032%h<\257\260=\275n\261\266\275\023\242z\275\"\230\206=\344\370\264\275LG\210\275\207\2534\275\333\361\320=N\375\252\275 G$>%\'\264\275/c\332<\271\"Z\274]i!\274C\035\026=s\376)=\250\310\213=\260_\260\274\266\221\213;C\000\336\274\006\302g\274\304\367\202\275D\355\017\276D\361\271=6\r\016>vD\352\275/\261\311=\357e\030\275J\256\211;\241\335\303\274\326K\363\275\346\231:=)\234\206>\206\207\025\275\037N\033<.\304U=\375\211\272\275\230/\013\276\346\217\013=I>:>\014\222\277\275>V$\276\003\330A\2751\243\257\275g\017\364\275\t-g\275\230\310\207>dp`\275*\315\022\275\224\250\317=H-3<\376\361\267\275IPE\276fd\023<\004R\232\276(\363;=\360Q\224\276O\302\t\276#\237p\275\3228\353\275\375mt\275\360\307\264\274\367\025\264\275\223\352\240=\273\252\241<\023o9<\003\222\254=\007bP\275\214R\325\274\222\276f\274\326\2109<\355\237\331\275\372\2544=\2070\247\276\254\244\020=&\335\231=\211\365\225\275\020\004\334\272!3\224<\302\ni\275\323\315\217\275V\014\005>\n\252\223\274\304/1=~\210\225=f\256==\234\001\221=<\351\237\275\035\360X=c[\023>\353\377\312<\303\321\034\274h)\035\275U/x<6\3226\275F\374\324<1DW\274\273\251g\275N\0227\275\347\373\317\275\217x\343<A\314\240\275\2444\363\275\202d\201<\"JU;\n3Z\276!\025\327<\026|\203\275>\271\034<Lf\031>\3521Q\275\202\221j=\016G\351\275\036\214U=\252s*>\321,\350\275\251 T\275\356\207>=%8\343<\213\305\257=\251\343\215\276W\030\346\275\350\377\242=\242\344\035>\260\343\276\275\r\224\013>\004\007>=v\337\r\275\325\002h\276[\033f\275\014\256&=\351\234\265=\036\262\310=\340P.\275\033L<<\372\014\377\274[\333S\275\304\367\326\275\2251\200\275\271\272\356\275\307\240.=\325>\237\275.\252\026\276q\205\236\275\256y\211\275\365S\000<\244\014\016\276\302&\261=HDL=\245\370\344\270\026\333p=B/3\276\211Lb>\364\030\345\275\230\267U=-\254\001\276\323\203\375=\217\361d=\332\245\225\275o\016\020\274\231\236\277<\264\021\306\275~\345\375\273A\346P=\370\031 \276\332D\007>C\255\300\275T\255\345=\353\337\036\275U\241\233=3P\244=\351\305\004=~\346\337\274\203^\361\275\254\367m=\201&\004\274Z\354l=\307\324N>a\242\210<d\230\006=\300A\016\275\307Z\326\274\201:g>\261\227\\\276\356[\366=Ja\210>m\372\312=\313\022\275;\315P\025>\013\360\245=1Q\245=\365\255\265\275\334\335\261\276\032\373\307\274YlB<\325)\235=2\250\225<`\225~>\262TC\276\313Or\274\275\355~=\027p\337\275\036\374O=\032U\257\275\272O\241\275,<\362=6\323%\276\227\260\266\275\246\210\036=O]\222=\010qR>\t\006\264\275\224o\026\2751\"\332\275d\267\342=/\346\201;\036\227%>\262\313\345\275\204%\207>\030\021w\276\030[\222>9\334^<\006\\\007\275\362\326\002<\204\216\333<\356h\235<\\\206=\275\277H\346\2758\016\n<\275o\272<h\344\353=\373P*>:\230\266\275\235\2006>B\305P=_\347\032\275\214\366\254=\276\031\024\276 \035\222\274\265\245\330\274\206\311\244\275\214R3>\226U`\275\314\257\331<\n\"\266=\317\300A=\252x\252\275\341\364\312=Ww^\276\003\315\340\275\334\002\342=\005w\316\274A\201:\2760\244P>\351k\246\274:\277\341\275\264\200\342=\346\030\203\275\256+_\275\246o\216;\300\271\313\274d\262\212\275\024\334;>\006Z8=\221L\223\275T\352\277\275\rF\237\275\333\376\212\272\257\370z=Dl\350=\241\026M\275N\274\000\275\2006\210=$\034\231\274\003\r\020\276\024\264+\274X\370\244\274\347\333?=\2219\266=/(K>J\323J=B\013\241\275\265\302\226>\004\366\250;%\005\265<\000d\2758\332A\017\274?SV\275\305c%>ej$=\340\372\313\275\203\005\263<\002LW=\320\003\217\276if\233\275\203]-\275\204\301j\275\271Z\267=\032\025\266=\200\216\200=\363\220\254=\361T\222=\327\367\215\275\337]\366\274\223x\205;\310p\315=\273\371+\2765\007)=\357j!>\242\003&=\001n\217\275\004\205\207>\234$c>f\335\302=D@\350=w\272\007\275=\374 >\"6}=\363\275\006\274\'K\355\275\245\376\247>\206\215\204<b\037\235\275\227\023\241\274\266JE>e,z\276>s\307=O\0356>\023d\213<\347\242S>=Y\022\275\010\210d\273\211\212O;\373\177\206<\002\325\236>\021T\312=\263\225n=\376\024\203\274\332\034(>\3246\270\275\357\022f\274\026>)\274\372\035\267\275\010c)\275\211\027\301=\\\021L<\260m.=mZ\232=tB\246\275\317\322A\274v\034\324\275\357\276\327\275\333\177\022>K\360\260\275\2613q=\017Y\'< 9\374=\311\361 \276W\030\003>\366\340\254<\362\347\023=66\272>\005\002\320\275B\265^;\203F\364\275\223\206\340<P\210\013\275!f\354=8\251\343\275X\230\370=\362x->G7\233=\207Z\206\275\223:M\2756*\037\274:N\244=\001\031_\276F\013\351\274\266\317\200=K\\\351=[\335\223\275\277\250{\275!\260?==A\256\275(9\253\276\313\360\265\275\026\307\224\274\313\346\003:-\233\346<G\241\276=x\323A\275\233a\030\275\352\346\327\274\340W&\276\305\356\335\274\214\362\300\275z\363\271\275\260\342\354=\002s\020\276a\354\326=\'\002\231=\374O\346<\257\373(\276a\203\r=P\212\234<\001\334\203<\277\031[\276D\202\006=\377h\017\276\332+Z\275\001;$=\327\0136<\330k1>\324B\352=\026\n\236\274\035t\244;Hj\320=,0\270\275\201\273\227<XK\032<9x\222=\025\375\212\275\244R\233\2734F\006=\'\370U<\272F\332<\274j\335\275]\267\217\275\003M\325\275A\363X<\214j)\276\204\227 >\345d\r=\325\351\366=\3660\025\276\215\273\231=\241N\251=9\310,\275\326\241\346<;\254\026\275\277\315\357>\020\322=\276}\025E>\330j\003>\376\355\264=\026\035\004?\035\006\371\274If\260<\tIw>\201#\335\275u\'\303\275\300\227u=\035\355\354\275\035\276\205>I\236\025\276\247a*>;\277\037\275\365\210\226>\016\372q\274\360\363(=\361g<=1\r~\275\356\221\232>\032x\365=V\027z=\377\007\251>\261y\215=\376\224\203\275\377\333*\276\322\232\353\275\313\324\310=C\333\216=\343>\031>]QV\2763\362\245\275 \032\000\275\rq>\275\'5T=\251\344!\274L\207d\274\335\210\001=\363\357\330\274\002b\260\275\342\231\031=FF\177\276o\240\376=\371o\336=\001\247\211>m|N\275\032(\'>\317M\231=\234}\302\275\311\332#=\303\r\314=Da\030>\223\361\224>ot\346<\323\355\206\2745\n\">H\245\212\275^x\033=\202u\323\274kZ\014\2738\370t\275\365\271\227=\256\007b=\356fD\275\373N\246<\254m\345=L\016\336<\302\253\256\275\031\325\320\275\306\220)\275__\t=IC\324\273\322\265\365\275\3654\234\275}\333(\275Z\322\256=\335\243;<\276/\277\275\335\004\277<{\342s=/\320G=\r\026\"=\352\375&=?\t \275\277g\322=\317\324\274\275\203\\\017\275\323P6\275\240\266\267\274@\205\023>\252TY\275.\034+=\305\202\371\274n\370\216>-C5=q2l>\265\002\000>G\307\310<\3677\315\274_\202\300<\265]\220\275\241\212\030>\262\203\270<J\025x\275\247\006\245\273I\371E\275\213]\036\276\305X.>\364\204\332\275\234b\251\273w\232V>\232\326\313<M\\\300\272\240\241\245\275\213\3255=\352*m\275\347#\241=\375\234\361\275!\372b<4\330/=q\0354=\305e\372\273\035<\370\275\022iy\273\351\331\326=\373=\016<Ik\317\274?T9>\006\276q\275D\244\340\274*\264\000>\244D\027\274\255\324\326<\275\352\032>i\005\013=\372/\340\275\260\312\246\275\310&\306\275\243\240R\276\271r\220\275HN\300\275F\346\204;\357m8>\022p7\275\010\234\241\275\302X\320\2750\241\301\275{>\322=\027\302\006>\260V\307\275A<\274\274\241V\241\275TH\341\274\373b\340\274VoD\275\211\346\206\275\247\272H\274\337\306\023\275Ef|\274\314\322M\276v\037\006=\367\262\342<\240\314\310=lr\231=\020\223\237\275\214\001\231=;\305\004\275\275\026d<\371\373;\274\355\275\321\273\264R\226;;\275\002\276\024\246G\275B\214\203\275\022$\022>\272\231\327\273\357\027~=.\372-=\234GF=5\216\253\275\302[A>;q\310\273;S\000>\213\303]=\374:\302\275\277=\322=Y\367\303<K\2776<+\031\253=\367\030f\274]]\231=\366q\330=\000\341k<5\271\002<W\277\017>\372\224\247=\210s\266=I!\221<jG\357<\251&\247\274\222\255\330\275\221\270\210\275\200Mm\274\213>\366=\003\343\255=\335\235\340\275\227\344\n>i>\242\274U\250\023=\241\t\222=!\3112=J\211I>OR3>U\367\220=\342\013\260\275\261\022;;c:\343\274\345@\315<eV\033\275\255-,\276Z\313=\276F\245\323>\270_\331\275\255W\242\276\214\007\305=0\024\n?\020\2073>\023\222\344\2756c\243<\266\r\003>\026\341r\275\314%4\275k\301\363<\332\311!\276\005)9>\304\r\032\276\033\373w=x;6\274-\364\275\273\224\2723=\370\305\206=v\315\212\275\013\276b>\342\034\246\276\013\030\225\274\313>*=~\302\360\275\340\\\342\275\004x\263\275\233l\032>\253:\367\274U\344\300\274\205d\217>y\017\342\275\236\016\233\275lH\030=\206\335+=ORj\275\0239j>(F\255=\014<b\274\206\377r>\261\036\212\275\210\014:=o\354W\275~s\013==\035+\276\350\337R>$):>\201\377f=\366\"\254>&\362\"<\025\230\024\275\257\221d\2753\'\230>\274b\222>\0146\251>\245av\274\224\003\205\275O\305 >\244x\230\275)i\036\276\311%\372\274,@\346<sFY\276\360\271\230=\207\376\000\275\271\242{\276\370Z\007>U1\032=\200\022 >\215\252b=J\034\202\275\267;,\276_\271\222\275\030h\r=\227\3175\274\240\n\225\276\272`)>\2202t\276i\332D>\322+\202\274\361\364\234\275^\371L\274u\226;=\376\205\"\275\326\340`\274\207x-\275\301%\t>\255fy<Q\016\211\275!p@=\365\371\335\275\374\301D\275b\322\247\275\222\271\030\275\361\233v=\271\370\246<\320\354\200\275Xs4=\265\310\334=M\242\251=\231x\240<\0021\271<\222\271\262\274\222\247\027\275:6\031\274\325:\343\274\274\2358\2747\334\252=\376\035#\272\231\014\010<\256\010a=(\310\223\275\220\334\264\275\236\313\252=\005\306r\275\374\303X\275\301\250\246\275\367\260\034\274U\006A\274\'Xf\275\314@\310=h\"\345=\374\000\336\274I\263\225=\335\343?=\346\223\"\276\373d\\=\206\3723\276\034\3052<\3127\033\276:\233\361=\213\021n>\241/\002=Brj\275ee\212\275\376\240\237\275\314\334\322\275\373:|\275\260\224m<\304\023d=b\371W=\371\236\r=\254H\243\275\344\274\332\275R\275\201\276\352\204\204\274\200\353\214\275\267\013\037\275\351\233z\273V\230`\276\037`[=\265\324@\275\362|\004\273\210\255\202\276zg\263\275\257uB\276}\210\347\273\3467z<\025\304\323\275>\241\376\275\3475\251\274\3048&=7\\\r>\3147\020>\006\227O\276\3111\231\275\346Q\002\275xf\230\276\264\n\312\275\357,\250\275\352\r\272\275\221\200\246\274\032u\017=\212\247\246\275\240R\362\275\332\357\227\274d\313,=\244\007\261=\352\261|=-m\356\274\312\256\273\274:s\026\2762\025\214=3\010\255<\203\225C=\331\263\227\275\021d\231\275]fs\276\233:\203\275\260\264\337=\0355d\276!\260\360=\350i{\275\031\333\240\276xf\213=G\224e>\276\025j\275\243\355\370\275\027\355\342\275\245O\316\276MQ\324\274\233W\260\275\340\365\307\275\302\303\005\2758x|>PD\352\276\346o\304\275\304&\254\275\177\202\r\277C&\322\275+\2116\275\265q\250=\013\001C=?\272\356\276\007\304\265=\273\364\351;\206\371\207>\2643\177=]=\242\2759.\222>\207\271\242\275{\032\253\276\230\201q<\177{-=\216Ti=S\r:\275\245`&\274#\234\201>\206\356A>\231\370\344\275\344\031\261\275s\"\322=\017A\325\272f\036\263\275h\2155\273\376\373i>)\217C=dC\300=\301\305\225=\273\306V\274\204D\355;\347\351f\275vG\217\275:D\241\275_\262\267>\221\252<\275\257>U<i5\211=\177T\247\275\301j\363\275d\202`=\363o\237\275\342`\273\275kXu<x\246k\276AO|<\241\364\274\275\320\033A>\016\236\027?g\260\014\276\356\022~==\354\233;J\007\217\275d\244\267\275x\347\022\275\020b\241=H3w=1\330\242\2764AJ=\357\364.>\001\025\214=@m\202\275\344\260\231\273\366\316D\274\373r\224=#\000`\274\365T\260\274\364\211\345=\345\235\">\371M\356\275v\'\315=\030\372\275=\007\306\020=\277\363\004>\\\224\324\275\027\234\352=\0027\251=\344\273\267\274\247\037\215>\2650q\276C3\265\274-W\212=\021\364\207>r\315%\274/}l\2756,\252>Z\r\217=\255<\246=\227\303s=S]\207>\006@W\276\2345\020>\022\224$=\002\332\002\275\207\340\256=\247\267\332<\206\340\204\275wn\274\275\244\203\002?X?,=\216A\004>\336\305\266\275\343o\304;\345\206\255>\305\277\267\274\202\016|\276\350\234\303\275\264\262\205<\322<g\276\307\222b>\247&:\2755)\211\276\261V?>\345\222\265=\323bJ>j\270\221\275\016Pg=em\302=M\244-\275\265g@\273\036\234S\275$=\277\275\273*\214=PN\014\277\032\034\010>\226\031(\275\355\366\023\276\341\363\275=\302KH\275\262bw\275\204\234\001>\004\037\300\275w\032\275\272\272\200-\275%\201$>A\251\357=l|7=\'\324l\275\211\036\237\274\224z\233>\354\na\275\022\337`=\262k+\2752\361\206>\364\206\223>\203\033L\275A\212\257\275\263\347\257=\016\313\213=\342\024$\274\200\017\003\2769N1\275\232Y\243=\032\374)\276\243\273M\274D>\233=\335/!\275\\\377\207=\305\007\022>\032B\266\274\272W\205=cE(\275\\OL\275\217\320p\274r\211\333=\266}\206=3c\220>|F\274=\356y\314\275n\267\022\276T\023o\274\024;\020>\223\317\221\275\331V\200>\\\252\r\276\210\225\263=\221\357\236>B\220(>P\271\267\276E]\016\274\016w\341<-\321\005\277\257\264\232<\3535R\275\032\353\035\275\324v\"\276\346\241}>\353b\370\274a\2117\276\350\323T=\210\017J\274g\371\315\273;e\262\275\327\020`=\032\213X\276G\362\252\276\034\276|=\023\023\267= 2\021>O\237\305\275\275\022\357\275\355\236C=\235[8\2734S\'>\247\365\305=\347\342\t\277\010\263\253\275\016\275]>\243\252\301>\315\300\030\277\302\324\220\276\"#\362\275\332\023W=\t?\270>\341s\264<\\\317\375\274v\232\326\275\360g\271\275\'\027\241\276\355\257\356>5\247\271<aZ\201=\277\031\357=\025c\240=\000^\002<h\234\005\275y\034L\276\366/u>\347\253\275>\264;\302\2743\221h>\010\343;>2\335\233;\205\262\215\276\270\'\260\273\220\t\271>\261K\035\276\025Z\331=\231\376\335<\234\241\260\275\314x\264>\225\312\242\276\217]\200>\2250\375\274${\221==yj\276\177\331\263\275Z\213\301\272hz\214=`\\\030\276xd;>_m\324\276@+\243=\016$p\275\tB\206\275\364=\306\275\303\222\237\274\363\013\257\275Zq\301\275\353d\370\274\373\006J>\347\377\035=\330\210\333>\355\026%>\017\272\216\275bYi>\022\020y\274V\223\234=\343\006\365\275\312\205\316>\353D\032>\250\322\002=\210\020U\275)\264\305>rx6>\301\003n\275\027\210J\274O\322\254\274\361\252\272\275\361\355\372;p67=!\2250>\343l\232>\002n_\276\006\036S\273\221\\\210\275IQ5\276\372\332\276=_:\342\275\304}\211\275m\222\032>\331\035\332\275.E\266\2750\020\314<Er\206=\262\361\353=x)\377\274\273\235\212\275\270\312\201\274E\353\264=\336C-\276\260\354\330=\350B\312\274]i\350=z \346>OO%\276\036k\260<\236\242\357\275\200\366\251=\245\004\271\2768\313\220\275\370\252\2729U\037c\275\006eW\276\227M\031\275|\266\226=\263\r\277=6qV=\2735\367=\343\000\024\275\'\305\254=nv\234=\361\236?\276\217\264W=\3778\\=@PO\275\316N\212=\355^H>\243\025\200=\237\245J>;2\251\275{\300\274\275zHA=\002l\276>ImG\274d\276\252<\320\230\221\276\316v\236>\007\326v>\270\304{\275\335s\337;\230\377\203>g\023q=\352\361\264=\273W>=\211D\254>0d)\275\247\332\004>\335\2755>\330\010+=L\360\250=\277.]<\367j\201:\033O\004=M\'q>\264\347:>v\200v=\034\307\234\275\271bU<<P\243=\261o\2327\354G\336\272+\337\n\276_XP>\\(\341\275\214\322\022>r2\352\275<\030,>7\235\322>\032\033\344\275?&\230\275\013Pd=\221\355\213=\3614#\276\241y\221=Q\334\217\274~\023\246<N\026\235\276&-\010>6%\375=\307\327\241=\305\221\260\275\333\255\222>}3\200\272\245\242\360\275\320\333\005=\260T\024\276~\006\316<\271\332b>\2453l\275\2704\007>\322A\340\2742\206\017=O\245\034>\346\235\321\275KN\360\273\032\314\250\274\313\210\205\275\0015\267<N\351\304>\307j\376>\r\346\261\274\001\353\356\2757ar\275\321\336i\275\226\316R\276\366iF;\306\202\267\275\222m\243=\300\003\257\275Z\246\027\275\255\276\376>\204\014=\275l\027\027=i{}>\265f\t\275\364\267\203=P\003\004=D\373\'\275\364\251\334=\326\211\213=@\357\365\275\310u@=\276\207\314\274\371{\203:\277>\213<\206K3\274#\260\350=n\\\235\275F\221\371<aO\215<c\313\212>\352\375\341>\207\037\373\275E\342U\276\336\250\257=\3101\036=\274\273\206\2768\373I=\224\207\213<\203\025n\275!\366\316\274\353\213\224\275\353\260\016?\'Z\031\275y\334\250<\231\r\265>\304\257o\275YNL=\225-C\273z\244\236\276\003\3764>\n \335=\347*\022\275\r\354#>\265\204\225\275\343\321\214\275\301!\251\276\263\337\214=\275\257\315>~\372\247=\222u\025\277wI\327\276\324\273\341>\376i;?\212\271@\277\231\"\272\276\263x\216<0\301\375\275\221\230\020>#SB<\350\033\225\275\271\262\302\274\340T\306\276\324y\230\275\031\210\332>\305\"\177>\354b\307\275\377\250\321>\244>;\275r\357w;\332\311\217\273\334\371c\276\n\010\303>L\\\007?\362!_=G\342k>6[\306\275=+?\274L;J=\261\262\323=}\277\204>\007\t\376=\344xp\276\375\303\303\274j\"\265>\266Y\002?5\377\233\276\2215\214\275\356u\001\275\255\253\033=\367v\331\275_\361\213\275Ivg=\256\275\302<4\207c\275\360\341\341\275\375D\354>\266+\'>\212\r\317\272\031z\021>;\357\304\275Rb\254\275\266f:\275n\217\220\274\"$\317>\372\214i>9\303\212\275\370\365h>5y\272=X\366\005:\237\004\177=\037/\006=\264\0004\276\374\036\034=Bb\316>\352\367\374>\342\333\303\275\265\264,=]\230\"?%\022\031><y>=\331\025r\274:\311\276>D\267\003=-Q\210\274\226m\334\275\304\372\223=\0307X\276=i\236>o\366A=\237I\257\275\354\\\210=\256\0245\2753\002R\275~~\277\275\014\027\310\273\365d\360>\224\226h=I&,=R\245\013\275g\251\003?\232\206\315\275y\313\";{\326\211=\210U\020\2765\232\272=\357\300\344\275U\363\221=y\003\032>7|\247=\226L\002\2766`n\275\016&\326\275\200\t\017:\355\224\007;\260\250\372\274\217\313W\275J\320K=\363\240\310;OY\007\275|\227<<\2458\240\275\3773\233\275\r\361\336\275\320\223\246=~x\n=/\322\232=\340\371m\275c\343\201=\374\212{<\333p\251\275\217u\216<\307\315h\275\356W\215\275@)\210<\304\252\254\273\006\315f=\357\240\307=\025bg=u\3129>=\311\246\2754\355\355=\241\243\335=\215\031\357=I`\366\275\331\206\247\274\013\031\003\275T\200;\275\362\005\001\275\350\320e=\302\254n\275\266hW\274*A\233>h\3125=\307T\304\274\3735\036>\035\272\321\275A._<\273\257\326<Ob\263<\245\234\002>\355\271\031>\240;\211\274&_\037\274_\025=>\270`\270<\337\345\251=\366\374\356\274\025\226\245=\235\327\001>4\251\207\276r\306\200\276\225\027\365>\232P\333;y\324\253\275\230\r^<9\272\201\275\003\316\023\275a(\006<p\244\217=\364\260\201=\250\251}=\007\363\206>\367\331t=]\031\236<\205C2=BG\347<tn\247=\234(\017\275\257+\245=\3028\211\2751\365\003\276\0056.\276j!\261\276\220\234\216=\303P(>\201\253}\276\224\322\020=\361\0315\276\244h\354\275\233\032Y>\263\221\231=zg->j\216\330\273; \200>\002\330%=\013\3014\276\247\356<<\030X\230\275\333[:\275\032\352\032=,\035\366<\376<\322\275Y\357\332\275M\n>\275T\302\361<4t8\276zV\024>\"\206\205\274l\324[>t\325}\2751\346\332\275!7\005\276\302\307\017=\243o\017\276F<o=\374\376>\274\347?\177\275\374A\030>7\026\223=V\023k;\275\377S<\201\213w=\000z\363=\0064`\276\036\367\247\276\301\272\362=\324\376p=+\212\200\276,\337\234=AF\307\275\\\221\232=+ \266\275\240,\321\275\235M\236:\264\023m<\320Gc>a\375D>\201\246p>\035.\266=Mf\334\273\203\331\250>\347\\I<\2477\035\275\010\034f=\276\300\376=b\310\t\276\243\343\275\275`\363\223<\022=3=-S#\276\033O\235=ie\"\275\334\330H;NT\231>=\330q>Aj\036\275\204\300a\274\206M\234>\242<\037\276\026\365x\276\311\364\355<\267\200<=ZV\020=B\013\276>\245\021\242\275h\301\212;\020\r5=s\235S>]\277\021>\214\365\025=\337$\233>\035\305e=`\226\367>\206\233\240\275=\204u<S\344\217\275r\306\001>\031w\354\275\256\343\022\276\"I\030=\"Cn>\344\335\000>A\274\354\274\005A\376=\033\312\236=y\332\277\275&Wb;/yj\276\037\252S\276\353\364\237>4)\004=\255\375g\276\206\312\365\275\345\231S\2752`\301\275\275\375D\276\022\374\000=\245\353\237=\016{\263\275\373\377>>\360\t\270\275/\300I>\375\360A\275\311\255\207\275\241\321\335=zC\243<9\355;=\330u\217=\326a>\276\2550*\275#-\222\276\266\210\226=5}\036=\301\255\201\276\367\350\232\275\202\216\315:\334\034:\270\035\001\245\276\000\257\346<6\353\r?\373c\207>\217\230\333=W\211\212=\370\325\340>\3167\313=\251\261\204=}\031K=\352\242\270>_@\340\275pM\331:HnL<\365;\277=\350\341\'\276(M\027\276\331\360\253\274\013\275\232\275\267(q\276\321\374\251<}\304\257\275\307\265\276<\'%\250\275 