node {
  name: "x"
  op: "Placeholder"
  attr {
    key: "dtype"
    value {
      type: DT_FLOAT
    }
  }
  attr {
    key: "shape"
    value {
      shape {
        dim {
          size: -1
        }
        dim {
          size: 8
        }
        dim {
          size: 8
        }
        dim {
          size: 1
        }
      }
    }
  }
}
node {
  name: "encoder/conv2d/Conv2D/ReadVariableOp/resource"
  op: "Const"
  attr {
    key: "dtype"
    value {
      type: DT_FLOAT
    }
  }
  attr {
    key: "value"
    value {
      tensor {
        dtype: DT_FLOAT
        tensor_shape {
          dim {
            size: 3
          }
          dim {
            size: 3
          }
          dim {
            size: 1
          }
          dim {
            size: 8
          }
        }
        tensor_content: "{2\352;\303\262\345\275\301(8?\331\225\223\276R\347\366>\371\326C\274\344\253\034\276`\231Q\276\337\024\216>1\213@\276_\257\033?\341\204T>\273\2178<\262\363w\276*7\225\274\024\017N\276+\266{<\014\336\351\2753z\216>\335\274\000>\350\035\t\275\276.b\276\333\313\024\276\232u,\276\254\354\250\276\205\263o>\331\271\n?\037\274\201\276\033p;\275\353\002\304>\304X\367\274\251[\216\276\345\251\255\276po\241>\"D\375>\206xd>\365<H\274TCZ\276\3235-?\371\235\217\276\254\305\346=\034\336\234\275\320a\200\274o[G>\256\272\224=\337\340\331\274\352\223R>8q<\276X<\233\276\226t\331=\355\306T>F\267\021>\303\033\242\275.\223\316;\254\277\027\276x\035J\275\207\221\006=\342\245\270>>\005\025>!\206\231=\363\t)\275\270\275g\276\005t\037\276\376O\027\276w\334@<\3101\022>\332\250l\272\310F\326=vtY;UQ\266\274\333\0351=Q\000\014\274"
      }
    }
  }
}
node {
  name: "encoder/conv2d/Conv2D/ReadVariableOp"
  op: "Identity"
  input: "encoder/conv2d/Conv2D/ReadVariableOp/resource"
  attr {
    key: "T"
    value {
      type: DT_FLOAT
    }
  }
}
node {
  name: "encoder/conv2d/Conv2D"
  op: "Conv2D"
  input: "x"
  input: "encoder/conv2d/Conv2D/ReadVariableOp"
  attr {
    key: "T"
    value {
      type: DT_FLOAT
    }
  }
  attr {
    key: "data_format"
    value {
      s: "NHWC"
    }
  }
  attr {
    key: "dilations"
    value {
      list {
        i: 1
        i: 1
        i: 1
        i: 1
      }
    }
  }
  attr {
    key: "explicit_paddings"
    value {
      list {
      }
    }
  }
  attr {
    key: "padding"
    value {
      s: "SAME"
    }
  }
  attr {
    key: "strides"
    value {
      list {
        i: 1
        i: 2
        i: 2
        i: 1
      }
    }
  }
  attr {
    key: "use_cudnn_on_gpu"
    value {
      b: true
    }
  }
}
node {
  name: "encoder/conv2d/BiasAdd/ReadVariableOp/resource"
  op: "Const"
  attr {
    key: "dtype"
    value {
      type: DT_FLOAT
    }
  }
  attr {
    key: "value"
    value {
      tensor {
        dtype: DT_FLOAT
        tensor_shape {
          dim {
            size: 8
          }
        }
        tensor_content: "K\327\226>\340\344\301\274\271\340X<\3123\245<\003\330l\275\330Aa>\336K\t>\371\032\236="
      }
    }
  }
}
node {
  name: "encoder/conv2d/BiasAdd/ReadVariableOp"
  op: "Identity"
  input: "encoder/conv2d/BiasAdd/ReadVariableOp/resource"
  attr {
    key: "T"
    value {
      type: DT_FLOAT
    }
  }
}
node {
  name: "encoder/conv2d/BiasAdd"
  op: "BiasAdd"
  input: "encoder/conv2d/Conv2D"
  input: "encoder/conv2d/BiasAdd/ReadVariableOp"
  attr {
    key: "T"
    value {
      type: DT_FLOAT
    }
  }
  attr {
    key: "data_format"
    value {
      s: "NHWC"
    }
  }
}
node {
  name: "encoder/conv2d/Relu"
  op: "Relu"
  input: "encoder/conv2d/BiasAdd"
  attr {
    key: "T"
    value {
      type: DT_FLOAT
    }
  }
}
node {
  name: "encoder/flatten/Const"
  op: "Const"
  attr {
    key: "dtype"
    value {
      type: DT_INT32
    }
  }
  attr {
    key: "value"
    value {
      tensor {
        dtype: DT_INT32
        tensor_shape {
          dim {
            size: 2
          }
        }
        tensor_content: "\377\377\377\377\200\000\000\000"
      }
    }
  }
}
node {
  name: "encoder/flatten/Reshape"
  op: "Reshape"
  input: "encoder/conv2d/Relu"
  input: "encoder/flatten/Const"
  attr {
    key: "T"
    value {
      type: DT_FLOAT
    }
  }
  attr {
    key: "Tshape"
    value {
      type: DT_INT32
    }
  }
}
node {
  name: "encoder/encoded_vector/MatMul/ReadVariableOp/resource"
  op: "Const"
  attr {
    key: "dtype"
    value {
      type: DT_FLOAT
    }
  }
  attr {
    key: "value"
    value {
      tensor {
        dtype: DT_FLOAT
        tensor_shape {
          dim {
            size: 128
          }
          dim {
            size: 16
          }
        }
        tensor_content: "\340\335\336\273Y\271\241\276@\250\\>y\363B\277\000|!\277\243\203\344>5w\257\2762\273+\276?\355p\276 *D?3<Z\274\221\370\261\276\275\264\244?\3642\222\276\362\024\365\275\377\310\t\276\213\244\206>\013u\036\277~l\226\274\325\250\301=]\033\000\275\247a\251\275N\316\001?&\001\235>\271,6>1\323{?\'\315_?\221\024\200>S\247)\277\334\346\237>\027\016o\276\337pe>\001\016\006\2770>G\276\261\362\210>\225\335\252=f\007\014\277\202\306M?\201V\r\277\264\364\221=M)\227\276\330`\210?1V7>^\236\241\276\370\224:\275i\232\372\276/\205\327=l\312~\276\245\'\255>\235\006C\277\206k\301\275\007\234@\276\272r\004\276\351\312\327>\265\'\270\276\021e\266>\255\242\013>4\0253?\264\245:?M\336\003>\377V\256>\213\003~\276\323r\247>\274\025\357>\356\314[\276\264\335\201\276S\230/\277\243\257q\275\337\002\271\276\377S,=\321\337\374\276\275\370\231>\265G\310=\031|\362\275\234\274\272\277\001\024 \277T\204\220?\267|7\277\223\326\013?\313\253O\276yWD\277e7\371\274W\267\371\275\030tn\275\273\004\016>Y\024\351>A\276\036\277=\376~?Xsn\276nk\036?\334\350\340\2757\320\242\276M\246\"\276\233rx\276\030\226V?_\314\010<\210J\235\276\000\252\211=F\035\246>\371\302\306\2769\352A\276S-\252>D\245\363>\215\377B=\346,\220\276A\343D?_\363\202>\242f\314\276\265*\034>\330\177M\276\004\252\000<4\233\277\275\023\267\204\276\007\022 ?]T\317\276\014N\332>u\371=?\251\333\361\276\031\201 ?r-\003?yxC>\214\224?\277[\177\230\276\236~\324=\340\347\032\277\016L\274>W\207\272>]!L\276\336W\222\276EY\371>4\333\006>\374EE\277\306\340,\277\211\202B?\'\002\361\276h\337\342>\242\267q\276}&\245\276\256\207\003\277X*y=5\216D\276\225\244\376\276\002\241\376\2751\203\240\276Q\270\277>\222&$?\267\034\276=\335v\271?\222\361\332>\215*\245>\030\234:?\263/\371>\263\033\314>\241\"\205\276\237G\256\276jRW>$-\370< \022\366\275\003\231\251\275\3542\030?B\266\330\276-E*?\215w\346>\357\330\234=\327\315\311\276\346\206K?f\243\242>\361\303\022\276\350s\205\276+\007R>\222\215q\275`?_\276\247J\'>5\340\t\277\300\334\366\275\241\324\352\276\306\223\250\275\326D\355>\265\323B?ar\234\276@\351\313\275\357\177Y>\361P\034?G\2566\277\251{\204\275\247\352K\276?\023\371>\252\315w\276\260\340l?\325\336\232\277\334\353\234\276\013^\232\276\016\033_?\356aB\276\035\264\034?\250\261\273>2T\215=;\311\013?\026\003\230>!`\326\276T\266\316=-qf>\355\014\205?u\354\313>[\222\t\277e\276&?\034T\010\277\312\016:?\247FO\276T\341\024?\274\256_?\243,\341\274\361_\207>g\305\321>a\252#>x#\\\276w\347\253\276dwL>\013\336\257?\200/\010\275r\221\340?\237\266\205\277\356\314\230\2753\250\314\276 \221\201\275\202P\340>C\003\203>Y\275S>\017\014\246;mxM?\0006\274\276~5p?\326UQ\276C\256\224<\2255\325;\320\323O>\366\253\212>k\027\027>\301\031\263>R}j\276\000D\371>\216>\200\276B\\;>\215\013_\276\211\330E?Hg9\2779\373\365<\010\237_\276z\003\026>\026V\025?\225\211\367?-B\212>B\n\226?\347\276\336=\315\326E<x\321\306>\247f\255>\260p\233=\001A$>,\322C\277\375a\001\277\363\310\331\275\026F{\277`\304->\365\367\246\276\272\322,\276\236A\237\274\321\344A?\315g\221\277\0144\020?\366\027\221>\2174c\276\016y;>I\010\006>\032>\r?\245\214\253\277/\253T?\325Z\236>\312\235\212\274}\367\204?\033*\016>\214\345h>-\214w?\220M\351:\334%\202?\232\261\236>P H?\370\217K?\0259+?\212\213\315>xK\206=,\014\363\2760\210\337\276<\245\367\276?\013\257\276\200\025e?]6\006\276\3463\201\275\206-M>\353\304(<\233sl>\353\301\222>(\321C?\365\302g\275rj\177>\000\255\263\276\236c\272\275s\212\241\277\217\360\343\276\202\3145\275\331Zg\275\277q\374>\003D\n>\235w8=V%\314\276\233\200\004\277\344@\222>\270J\300>\314\224\240>C\265\"\276\302\271Z\276e\260$\276<\337\373>\313jm\276\236\270\205>\224\324g=\311\275\243?{\212\244?`\266b\275\330\013\223;o\375\263>\233\n\"\277\217\372\225\277\202\232\200\276CqN?\361\305\362=\246,1?\353\033\240>\275\233\350\276\276 \021\277\004%\205\276\366\334\370\276\026?\331>\177\252h?\316\304\217>i\014\237<\261q\324\276d\221\363\276\233\322\331<\246\212!=ub\206>\014\247\247>\235R\215>?P1>\230\344\024<\376<[<\240\245,\276\217\375\256\276\341\235\226\275g\355\024>\2528w\276m\311\256>I\236S?\311\345z\275:\230\013\277o\323\224\275Gn\204>Fm\265=*\202\022\275\213\250\317>o\006q\276\347\212\n?\312\2327?\001\2358?~5\035?w,[\276\302\247\000?S\034\276>\032)\372\275T\276X=\241(\251?\\I\224\276\360\247c\276\020P\253?\245\212\322\275\363\"3>\232\2706\276\262\262\032?/*\010\277\243\205\000\277\032\320\225>o\200\027\277\320!\274\276\307\277Y>7{:\275\357#\025\276z\032\216\277\320\025S\276\212hS\275\223\030\231\276\026\254\370>MOe\276\'\301\n\276K\253\350?\233\312\350>\220\264\366>\033D\267\275[\212\217\277{\336\226>\234\001->\r\264\355=\035\3023?\241\271\300?\322 \225?8\013\277=L<:?\220^\251>El\300>\201C\007\276\261\253\213?cT\336\276w%\330\2761\236\330={T%\274nN\005\276\tU\005>\355\316\215<\322\257d\275\266,\240\276D\0337>W!\335>\020\017\225\272\275\363\210>\253\341A\276r\364\257>E\t\222?]v\276\275\362\371\341\274\322O\236\275\323X\252\276A\243\000\276\366D\336\275z,H?\214x\250\275y\201\033\277m\333\n?M\363\310\274\240\222\002\277\330P\"?|\320\272\276qc3\276\317\205\033?\320\017@\274M@;<v}U\277\016\342@\2768\013\035\276\2531\213\276]d\220>Z5*\277S\267\201?\010\020\035?+u\036\276o\373\\\277\305\005\017?\354\372\230>\214\321\313>P\204 ?Ww\244>-\357\">\t\272\035\277P6B=\360C\r\276\256\020\000>\026\226\210?\362\362M?Y\332\237\275Np\006?\212\240\350>>T3?W\231\\=\265\335\242>\347\213p\2765\263\t\276\023\020\321\276\300\251\261\276\366\320\010<\252\347f>\276\026\200\27630\277=\014?`\277Z\210\226>y\333\315>\305\247\n\276N\n\027?6I\252=\316\271i>\027\354\216>\006\204\213>,\025\236\277T\222\017?\206=)?:\362\363\275\247\322y?J\235\334>e\370!=\025\305\006? {\177>\231\004\006<O\311\316\276\210\222<\276\007\347t?\003\263K=\371\307\334=\342\341\021\277\204\247\014=\001\227\\=9\201\213>Ql{>\377O\017\276?\"\347=\026\026.?\204\335a\276\224g\237\276\240\304\005\277\023\013N?LL*<(\375\217\275\323G\335=a\310E>\\,\000\277\251/\266\2763#\027\275\316z\273\276\3170\316>\275\257.\277\017\234c\275\002e\231\2762\347t\276\250\022\314\276\0319\244<cDY?t\270\323\2758\240\216>D\377\371\276\373\271\t?\267w\235\276\252\220\020\277\363\206\271\276\373\t\013?QH\317\276o>\355\276\343\017=\276)\271i>\010\244(\276[U&\277o\216\253=\0370!?\230\2400>\374\036\257\275\271\360\210=\322\313\376\274p\3217\277\232\037\017\277\340\n\376:Lp\016\275\252U\314\275\002\227e\276\326\254\017>\n!\211\276\036\373\230><\313#>\314\025\272\276\337\371\202?\333z\340>\377\345\271>S\253c>\r/Q<5\003\206\2769\257\005?\256\200\316>\343Q`><\205\371\276Y\275n?\336\375\232>\273\035\360\275\302J\010\277W9\245\275\341\334\">\034\211T?\375\271\031?\235d2?\364\304\242<\255\014z>\027y\370\274\214\371\275\274,Y\224<\271\323\377>\316\241k\277\300\242Q\277\277/v>9f >X@\216>\356L\232\276\353\200\201?*\361\020?#e\201>\032A\242>\007n\273\276GK\372>\277\237\274>\351\250\007?\203?\345>\222\021\241>G\nz>\220\350\251\276\3120\225=\250\222\322>cP[?%\204z\276\202\211J\277s\224F>\222\211\364;$A\210=\345\017\204=[\210\306=\007QG?d/R>\000;\327>9qT\276\375u\334=\214\233\201>1p#>\240i\316\276\247u\226>\264\025*>_\233\367>\374\203;\277\266\277\247>\367\210\350\273\345\210=\276\222\261,?%}\334>\2771\201=\205\205\306\274\210\3313\276\214\357!\277\330d\300\275\203e\325=\317\375e>5\216\010>\315\353i=\212\335\332>\266\n\003=\245\351g\277\372\262\311\276\336\0147\277\020\357\205>\3623\352=\355\331\356>\231\300\321>\335\222\'\277\270\211\312>\357\030\\?z\306\376\275r\377\235<y\016\360\276E\016\277>\371J\351<\212\252\355\274\264-!>V5\310\276C\360\t\277\303\245.?\373\342\314\2754\265t>\273G\275=4\327\333>3\262\'\277&=\210=?\333\262\276\260_\341=\364\262\327>\210\206\350>n\320\031\27512_\276K\330\312\275\303p<\277\034t\214>@\241\317=\273\276!\277\252\246\010\274\237l\357>\270(\206\276\032\323E>qq%>\313\240<\276\366P\274>\031\025J?\001\202->b\250\244=:P6\275\236\300\036\276\002V\004\277&~\320>Ml&\276\022\"]>\025[\343\277\247 \232=\260\275H\277M\327\207\276,c\216\276\216\331L=v\375N>\324\177\251>\342\016\204>=\002u?\277\360\273>\232J\003\277_\357\375\276i\003\211\275\350\351\245>}l\033\277\r\213Y\2777(\004<\3522\347\276\344\326r?\3527\005?z\205\032\274\276\276\216>\032\271\022>\235\200<=\005H\324\276$\243\t>\244\360\230\276&\233+\277v\227z\276\247\320\234>\366\234\017\276\334\345\241\276\372\367\301\275N\005f>\304\357\335\276\273\330\263>}Z\003>\324F\177>?\354\360\275\252\000Z\275\353\017\204?0\220\210\276\017#\270=\241\310\367\275\276\010\302>\262L\325\276\342\211\222\276\232u\251\275\325\323\371>\034k1\2768y\256>\222\345G?,\227\315>^\221\322\275]\337\250>Nx\262>a\367#\277\027\204}>m\002f?~\270S?\t\305*?\244\003\330>B\2076\274\363B/\277\360]c\276\362K\345<\325\037=>\257Mk?\013\2221>M(\257>E\237\014?\\z\362>q\017S\277c,\315\275D|.=ht%?\257\236\352=\"\370\200>\363\377\275\276\3150\311<8\016\004>\341\356\'<\001\301t\277\355\245\206\276=\336\303>\217&\311=\342\302\032?\345qm\276\376{\311=\306N\310\276GX\\\277\313\370#?\324A\016?\351y.?]\203\322\276\241\233\010\276\010\215\375\276]\005\004\277\353\253\362\275\255\005\205>\321a\347\273\006\353\361=Y\342\266>\262\360\\>\207-\'\277\277\006\206\276=\234E=\311\022\353>\"\304\301=\331?\336>\332\222\320\275V\r\217\275X\002\307;\265\202\371>2X\312\275\260\366\215\276dTO>\340\342\t>\260S\010?\342\330\201\276VE\362>\036\272$\2775\220\037\277\2765>?n.\373>\017\243\"?\230F\256\276\316\314L?\022\270\322>4\031\265>\363\211V>,p\261> \356\354>@\2751\276\352\320X\276D+\334\276\335os?]\301\000?\"\247k\276NC\363>Hm8>I\265/>.-L\276\005\266]>\037\330\312\275\333\276\316\276\316\354\273\276\225#\267>\002\227\277<\270\351(>E=\377>\034ar>ZZ\252<\345#\207\276\236\177m>y\033\361>\276\322\026>s\360\227>\210\270\334\275\277\246\216>\0236\021\277\346p\002\276\324\273\245\276(a\025?\255\336\313\271\002\344$\276^\363\320\276,d5>\336)\241\277\210\267G>\236B\301>.\302\212<\032\264h\276\371+\237\276\333\222|>O5\302\276LQ\260=\246\350\273>p\006\335\276n\346\343\2746]R\275\014\270T\275\260H\335\276NV3?\2308\214\275(\223\263>9\247\277>\257\334p=&\220n\275Q\344\221>7\222\327=\226\374\200\276\300\3460\277\tX\227\276i9\000\277\034>I\276\010\310\250\276\010t\313\276\037\325\245\276\367\273\204?ULR\277\023\000\251\276\236V(?VaP>\221}\310\276I\326\223=\020\177O\276\327Q\254\276\253\212\232<R\246\204>1_\306?}\207,\277\263\340(>K\235\215>\227)\000\277\262\006:?\203W\025?nq\322\276\337\215\010\275\324\307=?\326Y\002\277b\327\331>y\217E\2753\372\243\276\262z\307\276\213\357&\277\203\307D\276,\361A=\214\301\234\276aa*>u\312W\277\013\005\220?T\342A\277\3054R\276\366\342K?\355\370\323>\004\246\032\277r\026v>U\300W>\3305\277\276\005\256\216>+6\250\2733$\241\276i, ?4$=>\201b\035\275\233\260\335\276x_#?\321\326/\277\371\027\233\274v\217=>\217\212\360>I\"\r?\322\227\315\275\337\004\264>\275\250\241=\243\342\227>v\221U?4\221#\2776\2263?d/\251>D\327\377\275lIU\276\205\316\202?\371\262V?\314\230\321>\210\252\034?\327\313f?\021\216\305\276R\221\004?\204{j\275\242ie?\014\372\204\276\004\034\365\275a\315\336=\000\316U>oH9>\003\303\376\276XY3\277b.\006>B*\020\276)\353\013\277\031q\323>\274\361\263>\2117\224>\332\265\372<\340\002\373<x\013\311\276\232\366F\277\253M\272\276\266\355\277>!\331\323\275\330?\221\276i\310u\275\024\001\306>\340-\330=M\266\\>3\016\306\276E\370\010?\252`\221\276\363\023/>\273D\227>\222\312\206=\177^\264=_{\304>\001\302\225>T$6>)\233X><\363\223>\245\357~<]G\217>\032\3677\277\224\314\311;\335\251\006\277\372G\\\277\000\010f\275!os>\201*\304=\212\372\270\276\377 \261\275\303\234\242\276\000\252\326\274\300\031\246>\342\026Y\277\241N\205?\357\256\204\275\\\376\213>\221!\321\276\354(V\276\340\251\373>\355\315\274\276xY\211\276\000\244\225\277\036\277\200>i\020\227?\215KK>\036\363(\277\021o\035\276\025G0\276\217\306\264\275G\373E=\'\267\r\277e\336\275>/\315\244=\314\266\014?\335If\277\263N@\277@\330\277\276\224Oi\276\251AD>\202a\\?9\007^>T\244.\276\342\207\270\276\206\231\254\276p\312\310\276\224\370\314?2\005\351>\375\311\265>\025\326\221\276\027>\231>\361\344\023>\260\036\335\276\310\331\001\277\333\206\030\277\2127\263>\327\216\304?\237]\314\2750\277\342\275F\210\331\276\232e\223\275\353\204w\275.\356\267>\217\023\347\275m;E?B\245@>\316L\355>\262!\256<*`?\277\222\331\033>\007\273.\277\323\223]>1\252\244=H ^?\001\304\016?\035\241\003\276\264q:\277\274\021\321>\035\270-=\177\312\237\276\030k?\276\003\351(\277L\037\236>\010n\264<F;\017?yl\253>\274\357\307>,\020l=%\331\206>\033\204F\2771\364\224\276t\'Z\276g\202\214\276\371eX\277\034@3?FB>>\371\\\007\276\230(\016\275\216\337\000>\026\254\314\2763\326\316\276\0209I\277\245_5?u\013\275\275OzJ\277\275\233\347\276\250\334\337=-\372t>D\215\004>\345z\320\276uw\032?Y\nC>\2419\250>\\\373\235><e\313\277\260\215\343>4\\\252>\242-\334\276ZJ>\276\004\274\010=\025\217\206>\306*\243\274N\344\213\276\200\3279?\223\026U>\316\0022>\253\207\357\276g\232\340\275\341\211q?1nB?\210\276\204\276\322\342)\277\026\253w\276\031.\005\276A\362\223\276e\234r\276\331E5\277\333k\270\275E\335\363<\321\300\336\276\023\242\217\276zmg>\201\366T?\306<X?e\315)>-\237\330\275d\202:\276\262d\304\276Q\220(\275\0348\223\276\0076\227>\356\210\216\275b\230\306>\231J\253>%\344\034\277\273\203\252>9F\365\276&\272\230>\017\220\204>\361\231\221\276\325\037\036\277c\177\r?U\246\310\275S\0142?\256MH\277\307b[>;{\317>Fd\252\276.\233\010\277\301\010L\276\3515\034\277\242\017\316\275+\0148\276\261\253\354=\221\354\261?\302\337\033?\274\354\321\276\322\224\206>0\242<>r\223~>vs\271\276N\321A\277\206\016,>\303\033B\276\323\352\306\276\344-7<G\242\270\276L\233;\276\376\345\242>\215\230\325>\037\177\343>Gc\003>\333y\373\276n\023\214>1?\200>\262\374+?\331}\363\276\320\177>\276\212\342\210>\026\271F\2762\027\026\275^]\336\276\303\272\262>4\262{>)\366\022?\241CU?\327f.\275_X\263>T\245\215?c\337j>\n\264\236?r\275\311>^\343\027?1\271\013?\342+\300\276\237\t\365=\367\363`\277\336\024\335=\210Um\276g\020~<p\222\253=\276\213:\277c\004\324>\210|D=%\360\310>\206{z>\245!\303>x\300\027\276\274q9\276x\327\002\277\316;Q\276\3348c\276\337W\031\277\257\214f?\310\203\313=\326\205O>\2172\352\276\2231\305=\222pb?\2506\035?n\022\301>\335.\221\276\306\360\022\2777\274\001\277sz\343>1\247\262<\376\333\017\275\367\236\027\276\013\265\225>\302\252\274>A!<=\205S$>\245\007\020\276\316\263\262>\335\021%\276C\324 >;A\201>f\211\021=\236O \276\203\224\017\276Zw\232\275\026\340\216>2\'\224>\000q\343\276hf=>LE\003?<\374\356>\352!\241=\365l\221>-\007\302>\252\374\210\276-\276\351\276\360\220\350\275\333\205\254\275\222t\320>e\"\274>E\232\305\276=H\300>d\216\274\2759z$\276\310\030\250\276\273\342\303\276\304\320\000>X\334^\276mu\264\276$\202\335\2747@\251\276\345\004\275:\221\206\316\274\374\234\234\276\317\r\371\276\342\207%\276\337>G>_:z\276\215\177t>\365nd\277\217x\371>\2140\372\274\352w\212?\375\226s\276\353\320\013?_y\227>\272\206E\277O{Z\277\343#,\275\266\177\027=2&\227>\271\030l>\244\177;\277\304e\037?y\242\300<\204\263.\276\005\253\370\275\014(\003?\230\340J>\300\022\225\276B2\326\275\235h\316=\2712\234=\254\357\340\275L\nb\277\357\240\251\276\370\251\005>T\223\210>\006o,>R\275\300\275\001\225f=;\354_<\324\030@>\2028\322>4\314L>\207D$>{\363q>\222\267\225\275\356w\256\276\261\367!\276\374!\017\275\002\206Y=\nk!>P\300\022>\034F\376=u\256\250>\322\253\"=\363\305}\276:V\270>`]\344>9\013s>DS\005>iP\316>\373T\364>MU\206\276\250\233\241\276,\336\272\276\206%\351\275\204A\216>\266\341\254>.\351\276\276J\274\320>\345\312\202=\201S\205\2762p\331>\201e\215>\020\034\013?\371\337\323\273\320\347\352>\327\351I>\254U\314\276\317Q\325\276\3541\233\276\315\254,<\211\370\274>;\005\272>\032\361\247\276\200$\010?\027\205\207=bo\357\274kT\351>P\344\212>y\345\245\275f\270\000\275\335\350\340\274\266Z^\275\n\311m\276PK0>\300\210?\275\202\345w;\205?o=OV\302>\232\201#\273y\347\177>P\225W\275\234\217\234\276\374_S>$\357c>L\303\343>v*H\272\240\361M>r\310\036>\024I\020\276/p\274\276y\203\030\276\251\265\314\275\306\357\204>\327{\002?\233\313I\276\357\025\357>\026\206\331=\262\260e\275\310e\024\276\001|u\276\235\324v=v+\347\275k\255\353\2765\360\330\275\346\222\236\275}\204\245\276\030\326\203\276\200\234\253\276%\367\267\276\336P$\276\353\023.>\362\371\210\276\305\370\371<\007%%\277\377\344\347>\220\024\372\275\177\344n?\263\243 \276\207o\013?\257\364\221>\276\367l\2773\356}\277\031\331\203=\260\371Y:\024 \271>\263\034\\>\304\r3\277\304\004b?c`\266\274\\\205\322<\344t]\276\241c\336>b\004\331<\274\251\023=\322<~=\337 \222=\001Da\276\367\2165>^\300\037\277\000?l\276\323*\314\275\223?w>\213\000\276<\330\272\014\276?\2463\275\335\010\004\2761\302\252>O\356T>\0046A\275\020s\350\275\"\274\214\275\370\027\270=\034\036\376\275.CD\275\016Wu\276\207\\\263=Z\200<>\240-\264>\3075Q\276q^\224;\222r\343\274\205\227\220\276\014\002\277>\224\323\002?\307\377\016?\244\344\032>c(\360>\005\332\021>q\223\247\276\250\231\246\276\222\366\306\276\233\004O\27575$>@\220\330>\016\'\372\275\372q\024?\225\304\004>mRx\276\372\003\247=\023f\251>Z\311\037?\202W\020\275`\002\347>\267\205\211>G\332m\276\247\371\335\276\010B\300\276V\376Z>\031#\013?!\356\243>\342C\013\277\3233\252>SE\306=d\374\337=c\316\">\300\362\327>\237\341\237<\335\203\'>\335\311\010>\3529\"\275\275\265\220\2766\025\253\274\271\255l\276o\342W\276r\256\334=Qk\347>\242\010{>j\024\350\274)\276D?f`S>\374\030\355\276\022\225\030>\233\210\037?\231\216D?a\321\264\2750\370D\277\345\262\341>\322\271\363\273\357Sm?\266\3359\276\2702\346\275\360#\211\276]\373\235?o<@\275\354\250\370>i\331\245=\253&\322\276z\353\035\276\t\240\352>\213\371\332=R6\254>\252}\220\276\200\022\023\277\020\257\311>\312\217\037\277\376\312\274\276\240.I=\203\036(\277q\031\336>\203\t\276\274\t\310}?\214\262\271\2736\310U\277\213\377\005\277j\270#>M\023=>\327\2718\276\255(L\277Q\217w?%_\036?1O\t\276\357\001l\276Ey.\277\333\014\275\275\017\243\025?\323GY\277hAQ?\305\247t>\356Bf>\334A\177\277\241\200*?r\\3>\366\273\341\276\243\014o\276k\227\006\277x\320\350>\302\212\276>N\276\365>\270\250J\277\312\314\234\276C\336\216>\205$\030\276\225\332<?W9\250>g\236\025?\034\217J?\026t\236?\3002G>\231\235\022>\365\355\021?\212JG\276\204\001\332>\272\310+>\320\014\350>C\027\355\2763\272\361>\371}\247>\021,\032?\265F\266>P\033\272>\030\030\200>)\360\301=\2555\250>\272@\372\276a\225\302>&l\377\276@\366P?\210)>?\"\020K=\357\237\207\277z\212\t?\231}\220<M\016>\275PQ\246\276D\270\200>G\331\321\275\210}\357\276\024^\013?y_+\276v7\n?/\327\243=L\3667\276\272\355Y?\n\241`=N\000\316>4\026\027\275Q\036\302>h\234\261\275m%\016?\0053\243\276A0\020\277\034W\276\276\314d\207\277\022vG>O\207z\277\330\330\270>PL\261>\026\374\234>\367\323\033=O\221$\277\302\322\213>\225$\234>\353\353\352<\240\361\275>\3576B\276\353\206\350<\016\254\335\276PX\010=MMn>l\027\335=~\266\314>\005Z\313>)\232\311\276e\3426\277\231\312\022?\325\310\031\276\275\215\035?\027\360$?(*\212=\230\\\010\277c$_?\332MV>\377M\260\276\315\353M\274\323\3117\277\217c\306\276Sw}\276:\027\222=4\234Y?\375Es\276K5K\276\243\336\264\276\264j7?OT\r\277\013\374u?\274\257\300\276@sB>=\365\216\275\256\322\r\277Fo\213\276e\307[\277!BG?\001\010\306\276\264f\245>\272\020V>\256\013\203\276o\303\236?\016%^>s\266\005?\023\004\014\277\024s\341>pA\037\277\"-;?\213\325\314\276\311?\267\276\354\032\033\276^l\r\277:O\301>\t\205\341\276~\256E?&v\244>\331uX\275n}\343=!\350;\277?\207(?wX\t?\002\206\250\276c)h\274\217\330\013?H1\022=\373;><\3372\226\275\244\027\326\276>\0372\277@RY>2\354\003?\003+5\277>-\214\276\026\366\014\277\377\300\237\276\231Z3?\321?,?\213V\234\277\242\205\007\277\305z0?\242m\206\2760\025\307>\211\2032\276\325\310\215\276\t\275q>U\"M>C$\253>-<,?\225>8\276<\325\367>\331\371M>>\365\323\276\374\247\007?\001\343\201\276%\326g>]\343\347>B\210.>\3522|\276\342\216\034\275\244&\t?\234O\022\277BE\270=\276\235\311\276\300\024u\275\357\024\n\277i\373\n?\250\177\213>\354\354\323\276\274j\366=\3158\242=5\223\342\276\356\3632>\257\245\014\277\204\222\315\275\005iY>f\252\024>\014H\222>\305\376\365>\352)U>\266\221,>k\347e>*\016\327\276\207>\253;f\304w>[\266\"<\366\272\214\276F\200\361\276^\207\302>\250\316!>b\265z\275l*z\276\342E\340>\303\336\246>\261\224\022?\243{\016<Q\334\026?;I\371=F\324/\276\263\021\261\276\031vQ\276\270\2242=\265\2532>\251!I>;\262Y\276\201[\226>\337\2629\276W\026\243\275\030\265\000\275U\r\030\276\367\346\222\275n\236\032\275\217\276.\276OC\326=Z\234\245\275\327\277,\276\242\370\266\276\222c\250\276\311$ \277\365\241\t\275s\363\r>\352\362\364\276\037\"\">\333\237k\277\301\007N>Qvu\2758\243\214?\201\257\264=m\253\026?\207 \021>\340L[\277#2\204\277y\0072\275\004~(>\230\344\277=\003\224_>2\315\000\277\274\264r?\2703\366=\352\264\377<ln\366<^h!?$%\334\274\222v\204\2763DW=# \315=+\223;\276\263s>\276\"\270+\277\215\n\254\276#\022\032\275\267\232\273\275\305\250\351=\214\340\256\274\002\266\013>\341\374$>\300\374d>^_\251>\253\023\201>\221\034\000>\207\343\307;f\217\245>n\003\025\276\257KD\276\344\240z\276\007\342\341=}mQ\274{\333U\274\232c_<\353\226\272=6\246J>\313\251\247\276L\014\261>\222j\276>H9\271>\377\360L\274\006Oz>GU\336>\340\025(\276\354\302H\276\214\372\225\276\312E\344=\252\214\235>\360{\361>z\335\310\276\360\024\256>,\025Z\275\177\263\377\276<\021\346>\243\2265>\223&\275>Vi\\\275\033\316\026?8\177\333=\225\362\\\276\177\263\375\276\016f\342\276\300TY>E\231\217>\365\363\373>>_\242\276\235\000\264>\256\274@\275l/D\275mk\336>\304\376\304>\017\036\375=\261M\322\275\330\014\321\2755\377\276\274\234\337\344\274\245C\006\275\346\020B\274\241\263\037\276H\323D>\2377\214>\332\334\002>\267\260)=\2565\202>\266!\017\276v\226\302>\033(\345>R\222h>\317\000#=A\007\347>\335\232\263>\300=\250\276\205m\350\276\202\216\236\275\n\2447\275\017\007\003?\007\202\203>I5\001\276\241j\247>\\\267\244\275KyX\276\314\351A\276G?k\276\003V\345\275rt\313\275\327\3231\276\0274\307=,_*\275\005\230\001\276\021|]\276\376\266I\276\213\373\010\277\025\375\210\275~k\217>\242@\177\276\373\210@>ma$\277\035\247\004?%\326!=LZ\215?\357Nw\275[\2015?\220\020I=\\sm\277Y\"H\277\277\343z\2760\256\236=\202=\270>\2342\217>:\215\030\277b\014\200?i\034|\276\374{\025\275\023W\310\275\275\221\321>tI?>\360\310o\276\027\334\035\275Pg{\276\324\350\235\276\226\261\337\275lw&\277\231\327\216\276\221\016\356=\331\303\253\275\r\003\207\275d\201\364=\007;5=k\325\267=.\201R>v\336\236>\010,\347=\336\027\303=\3116\254=\317\315l>\034\025\243\276\016\220M\275\306\201\204\276\244\234(<\342L%\274W\021{=\251p]\275\274h\026>\266\361\266\275\027\333\332\276\035{1>\274p\255>Al\031?g\"\304=\005\260\327>\325\3112>+\231\223\276:\206%\276\257\347\367\275zD\346\275XV\230>25\302>4\014\246\276\316>\226>H\237\215>\253\344\357\276\316\254\261>3S\243>&\224 ?*s\240\275\207]\003?\373\235)>R\305\337\276A\275\273\276\314\026\336\276\227\255\331=\'J\237>\027Q\222>\320&\013\277:\205,?\207\307j>\006\221\023<\303\251\215>\336\rf>9\211\276=\r\202`\275\245\230J>pYO=\346K\024\276\217\244?=2\372:\274\177V[\276t\361;>\331\214\235>N>e>\302\331\334="
      }
    }
  }
}
node {
  name: "encoder/encoded_vector/MatMul/ReadVariableOp"
  op: "Identity"
  input: "encoder/encoded_vector/MatMul/ReadVariableOp/resource"
  attr {
    key: "T"
    value {
      type: DT_FLOAT
    }
  }
}
node {
  name: "encoder/encoded_vector/MatMul"
  op: "MatMul"
  input: "encoder/flatten/Reshape"
  input: "encoder/encoded_vector/MatMul/ReadVariableOp"
  attr {
    key: "T"
    value {
      type: DT_FLOAT
    }
  }
  attr {
    key: "transpose_a"
    value {
      b: false
    }
  }
  attr {
    key: "transpose_b"
    value {
      b: false
    }
  }
}
node {
  name: "encoder/encoded_vector/BiasAdd/ReadVariableOp/resource"
  op: "Const"
  attr {
    key: "dtype"
    value {
      type: DT_FLOAT
    }
  }
  attr {
    key: "value"
    value {
      tensor {
        dtype: DT_FLOAT
        tensor_shape {
          dim {
            size: 16
          }
        }
        tensor_content: "\326\357\003>.\365\204\276\013\241\254>n\024\302>\231\345\322>\324f\215=\035\303\302>pq\226>\036\263\237\276}h\221\276\002\253O\276_\271\230=\236\032\223>\233\222\244>\354fU\276\242F\242>"
      }
    }
  }
}
node {
  name: "encoder/encoded_vector/BiasAdd/ReadVariableOp"
  op: "Identity"
  input: "encoder/encoded_vector/BiasAdd/ReadVariableOp/resource"
  attr {
    key: "T"
    value {
      type: DT_FLOAT
    }
  }
}
node {
  name: "encoder/encoded_vector/BiasAdd"
  op: "BiasAdd"
  input: "encoder/encoded_vector/MatMul"
  input: "encoder/encoded_vector/BiasAdd/ReadVariableOp"
  attr {
    key: "T"
    value {
      type: DT_FLOAT
    }
  }
  attr {
    key: "data_format"
    value {
      s: "NHWC"
    }
  }
}
node {
  name: "encoder/encoded_vector/Relu"
  op: "Relu"
  input: "encoder/encoded_vector/BiasAdd"
  attr {
    key: "T"
    value {
      type: DT_FLOAT
    }
  }
}
node {
  name: "NoOp"
  op: "NoOp"
  input: "^encoder/conv2d/BiasAdd/ReadVariableOp"
  input: "^encoder/conv2d/Conv2D/ReadVariableOp"
  input: "^encoder/encoded_vector/BiasAdd/ReadVariableOp"
  input: "^encoder/encoded_vector/MatMul/ReadVariableOp"
  attr {
    key: "_acd_function_control_output"
    value {
      b: true
    }
  }
}
node {
  name: "Identity"
  op: "Identity"
  input: "encoder/encoded_vector/Relu"
  input: "^NoOp"
  attr {
    key: "T"
    value {
      type: DT_FLOAT
    }
  }
}
versions {
  producer: 987
}
