node {
  name: "x"
  op: "Placeholder"
  attr {
    key: "dtype"
    value {
      type: DT_FLOAT
    }
  }
  attr {
    key: "shape"
    value {
      shape {
        dim {
          size: -1
        }
        dim {
          size: 16
        }
      }
    }
  }
}
node {
  name: "decoder/dense/MatMul/ReadVariableOp/resource"
  op: "Const"
  attr {
    key: "dtype"
    value {
      type: DT_FLOAT
    }
  }
  attr {
    key: "value"
    value {
      tensor {
        dtype: DT_FLOAT
        tensor_shape {
          dim {
            size: 16
          }
          dim {
            size: 128
          }
        }
        tensor_content: "\322W\001\275}\333\316\275\220C.\276\367\0016\276\375N\266\274\253r\301\274\235\272\013>\026]f>g\020\026\276K#B>\211t\341\275\302\277B\276m\243\341>Mh\241\274\225\273.=\345\310\321\276\337\361p>\005\344\n\276-N\346=\021C\263>\246\235\215=\375np>\t\363\275>\352F\333=\004\271\326=\024\322\270>K\315:>b9\221\274\302P)\275\235\202A\275\273\243\344\275\314\347\035\276\233\250\264=k\001l\276Q\036\003\276\002-\375\275\276\037F>\266\3729>(]&\277\272\246\220>1w\210\276\266\336\233>X\336\351:\366x\263\274\020<\376=,JI>^\232\323=\313\244\212\273\312\007W>\213\340\370=\312wY>\337X\\<fJ\267<fW\201\276=,\036\276A\001\347>\336))\276M\263\207\2760\277\001\276\240\"\231\274zn\207>U \264\275\377/U\276\256>H>\206\314\262\276\236\363\306>uX_>!\024\205\276\213\3163\276\031\201\246\276\304\036\014\276X2\261=\353Y^\276D1\306>\"\\\016?\353\242f\273BUV=\"\334N>d\2336>$\333\230>\361\253\244\276\216C\023?\002w@>#\236\344<W\356f>\312\203N\2762\321\201>\323K\t?\263\026\017\276S\310\257\275E\314A\276c\360\016\276\037\242\341=]!0\277\265\361\264=\024\357\206>\242\372t\276|\006\221\275\037^P=Q\320\027\275\353\237\220\275C\307e>-\334\273>^\210\215\275T\216\212\276\322o@\277\375\211D\276\003S1=i\021\036\276I\016\201>\003g\216\276uH\276>\331\317\304\276-\350\030\275\026\225\352\275\366\242B\276$:6\276iL\203\276\270L\332\276\330\320\007=\027M\232\275z\\\332\2760e\340;\347\217r\275\3734\273\275\334\2160>V\001C=\211\3267\276\306%J\275\374\347#\274\0377\241\276\230\254\314>\224\240\354=U\252D\277\353\335\370\276\372\004\025\276+:F\276\367\275\215\276\373}\271>\311x\024\275JJ\315\275a\344:\276KR#\274\337\005\002\277E\030\016? \374\315>\320\373\037?6\331\327<\237\2661\277\017\354O\276hM\337>#\335->\223\336\031>\260,\200\2778\317\272\276\222\337\274\276\253\311\235=\350b\303<!\037T\276B\003\013?PK\001\276\305|\000\277\034:\220=\331B\256\275y\020\373\275\020\374\341\275\027\235{=\r\365\235>O\241\267\276}\032\027>\026\274\017\276\205(\000\277\260\007.\276 \306\027>\333\350\023\277\364N\211\276\206\2067\276\234H\241\276\253\356\362\272xp\221\276\225\037\273=YS\177>\316\332\017=\033J`\276:\005\375\275\360S\211>a\\,>\335\341\346\274\250\267\234\275\001\321\240\275L\300(\275\300\326\341\276]\t\230>+&H>\304\333\325\276\004\216\205>\337\342:\276\022\023\211>\207\n\373=R/`\276\024\020M\2749\231\017?\260:\013?\203\313\202>\250*\224=\324\357^>#\345\220\276h\242\236>\224\357\254\276\327?\335\275\340\373\002=\365\331$=3\037\202\275\003o\005\276\312\353\341\275\261\306T\276\241\272\232=\305&x=\335\337}\273m\203\325\275\241\036\275=\365\202\374=\330\256\007>v\304\245<CD\347=\253\000\036\276\001\347\304>\335\357\243>~\207P\276j3\230\276O8V=\031ki=h\203U>\325\013`>:\364$\275\367u\253\275\346\341q<\'\350\322\275\241B\257=g\000>>=\333\007:K\034\301\275\323\230\010>5\350D\276\203\252\345\275\310\010\352>^\253\337\275\"\346\255\275\016`@\276\363N\322>\027\263v\276:h\251>Q\365\240\275Z\2056>\254\017\034>\340~\215>\255\303\261>:\356\036?{\241\004>c\224\320<\2247\322=6{\030?{\204\354>noQ>\337r\204\276\276:\255>`I\002>R~\227>|\227v>\356\231\341>\240\312\277>\\\372\311>\307\264\276>\311\207\236\275@\270\021\276@\275\001>\270\201g>\254\366\022\276=\n\273=F\371\016\276P\031\010>\272\214\306>\313\302=>m^\377>ZD\313>_\207\325\275e\375_;`Js\276;\254\247\275\336\275&\277\215\177)\276\310jU\276\243\355\264\276)\301\004\276\272E\354\275\350Zg?\256\373\331\275\031\2220=\226^\223\275F\273\025\277\004P\277\275\'\376A\274\243[h\277\375\376\357\276\3604\322\276`\232\270\276\263\244\212\276hG\327\276\212W\002?\357\333\032?\347u\322\276\003\266\270=,\242\304\275\000\376c=2\333\347\275\354\033\r\276\206\212\007\275P-\266\274\332\226\261\275\177#\027\277\304]+\273\2764T<\213\031y\276\000\325\007\276\271\013\274>7\226\240=}\004n\275<\247\236=\257\317\242=\035\254\237\276\244k~\276\001\301b=\216!0>\223\3404\275\250\256E>g\345A\275\263\001\310=Q\363\001>l\362\356\274ahJ\276\307Q\023\275t\\\201\276\277\2219>\247=\361=\202\2133\276\001K\375<\354\240Y>\353c\213>\304^\336\274\024\026\r>\0205\021>\350\241T\272Yg\177> R\254\273\025\344?\276\365-\340=\rx1\276\307g\001\277)\344\272=\342\213\307\275\265\276\241\275\336\305\304\275,U\277\2752\204{\275\311\210\320<x;/>\021\0312\275\272\311\014>mmO>\326\360\013>\017<@=;\326;\276\364\276{\274p\374\013<\250H\233=#D\365\275\225\314\231\275\036f5>X\230\245==\237\221>\0058\213=4\027f>^\346g>7\255>\275\320\031\360=\377\026`>l}\004>*O3\275)\250\360;\327\224\013?l}\233=-\246{<\204\355\377=u\236\235\275\003v\261>r\002\242\276aP0>\005\332\221\275\244\266N=\255\235\031\277\2548*\275i8!\276\036\020<=\245\302X<\230m\233>8\246w>*u\037>\025l\003<U\313\327\275\332\341\363>\333\220\257\276\214\"*>i5\320\276\022\253\000\276\264\005\277\276b\260\344>\362\325\'=F\031y\274\360\005X\274\366\305\000>zI\330=\201\241\216;W\375\034>\225\033\264\275/\366\306\276\003\337\034>\344Ie\275=\210\304\275\274jD\276\035\310<\275\211\307n>\n/a=\2315\260>\016\354\244\275\355\201\234>\204[h>\364\375S\27666r\276\264\241\345>\206hB\276?\'\253<`\004\207=c\234\304\274\026\267.\276 (v>\371\337C\276\r!\331=^\352\017\276\177\010\204\276\305\326)\276\361\225\324=V\250\245=\362\255u>e\301\305>\231>\311\275\240\355s>R\377}>\254\212\241\276\356\225}\277\203\320l=\357kc>=\306)\276Y\265\337>\"uh\275\350\305\267>\236\001\305=\240\320S=\356j\271={\200\\>\036\245\233=\356\323\222>\257\362\271\274]\010\"\2764\375 >\3139\006\277b\377d>\251\342\335<\3659\016\276i\347:>\274\025\033>L\266\270=\361\273\247\275\322U\014\276\271\312\255\275\207\313F\276@K7>v\201\003\275\261\323C>;\"\342<\r~\r\276$\254\341>\014f\236\275u\305!\276G\230\223>\206\366n\274\"%\252\275/R\216>\024\303\033=\261o\223>\007\331O\276\366Qv\276\372\255s>\004\352\t?j\311\202=da\362\275\033\200\237>>\020O\276\343=\240>\350lM>qW\\<qz\266=\034\217\371>2\014\265=\215\2213\277\306\332\217=Er\261\274\241\006\350>m\377\345\273\025&\007\277\000\343\254>\2308\321=\036\226H>\206\2477\277\267\200\035\277\202\\\227\276\224\371+\276\335\027\300\275\235;\312>\371-X\277\256\314L\275)\321\017\276\364\241*\276\271y*>T3\231>\224\272\373=\314u\377>\266/\024\275\260\025\325\275\251S\260\275\323\233\357\276T\254\204=\014D1\276 |\341\275\263\304+\2769I\252\275HX@\275VM\344\275\202V\037>K\343#\276\343\251\314=|\010\250\275C\361\306>Cz\271<\363\267<\276\357d\030<X\321\217\275\202\211d\275\314\234\016\276\371v\020\276\336r:\276pM\032=ie/\275i\367\202<4\225\340\275E\024\216=M\022v=\020,\243>\314\366N>\274\253@\276\347\305\006\277\304m\304\274u\241\207\275#;\277>\361\265\371=[#.\275\267Gy\275\220\362\330=\213\212\236<\364\276h\276\341Dk=\275j|>\372S\255>\237x\275=\243\024\r>l8\267== \206<\215s\205\276\344H\020=X\206\261>\216.\241>\257%M>\351\304\302=\337\224\273\2743\035/>\310u\333<\264\021\250\275\033\303\200>\314\231\213\275\255z*>\370\367T\276iu\320<f)\037\274f\221\246\275\311\265\310<\032Q\002\276\270\352F>D\262`=\n\346\272<\255j\266>4\241\335\275a\003\274\276\260\271%>\365\344i\275Sb\317\275\347\220\262=\362\364?>}~%>g\034\266\275{V\321=[\'C>B\255\210<\225\025\214=r\275\227\275#u\317<?\"\024>8\235K>\001\374\013?\361x\016>L\035L\2750\305\372=j\247\324=\303\007^\275\264I\243\275\221(Y>\003oj>M\357\202>\"\347\240\275>\305\354=[\010\014>\247\033b>\227)A\276\367\320C\276\307\307F\276h(.\276\206\317)\276\202.\242\276\245\261\200\275RW\240>\366\331m\276\031\230\260\276[\250\001\276\214\253 \276q\n\351>\314\362^\276\2374\223\276\354\310q=qZ\265>c\361\000\277\265#R\274\315\372\027>\237\242\253\275Z\252\212\276\010\221M>aJd=E%\202\275\204d\201\275s\021\233>\235\375h\276x\"\360<\225(1\275\305lY>\310{\033>\3466\033<\334/\361=s\257\254\275kJ\232\276\274\353\331\275\352j\000>\024\267\274\276e\211\033\276\242\304\037>Ze\227>\014\314#>\345\3650>\006\360\221=\"H!>\034\360\007>\255\350/=\372\235\016\276\302\362.<\313\363\310\276Y\372\204>\016\375\273=^~V\2755\372B\274\310\210\323>\370\225\245=\231\323\266=\355$\332=9\222\366;A=\003\277H\262\320\275\306,\242=z\366Q>\302\001\306>^\031\235\276\324\257\345<\274}\274=\n\333\250\274m\302q\276\311d\307\275\366\344n>\343H}>4n\"\277\317\217\332>3u\235\276\255\255\214\277J9\324\275\250\354\260>\364\240\"\277\320\356Y?A)E\277\344_\030?z\207\000>W6V\276\200\344\013=\226\r\232=wp\272=\355\236\333=\245?\347>_\343h\276\224;{\276/\311\030>r]\204>\225\250Y>\236\354\021\277\323\370\307\276\373\026\260\275\364s\353>\013=\002\277T\3458\276\007OS\275\370\217d=\303\372\205\275w\210\360\276P)\356>-\301\333\275\t\266\361\276Gx|\275\203\'\302\275\373\177\367<A\3649\276Q\337\025<\021\332\206\276C\271\000\277\010\354\016>(o\035>\217\3723\276\036\357X>\325\364\217>5\243!\276\346\340\266<\317\\\270>\224$\250\276j|\025>2\227\305>\254Jo\276x\354*\275\233v3=\222d\033\276\261h\254\275\274]\016>\225\255\221\275\250\202H>\014\363\034\274\010\350\010\276X\013\306\275J\224\275\273\276\266\262\275\372w\374=k{\236=f\0362\276*DC>\355\206@\276\325P.\276\027_+\276\270\275\033\274U\261\277\275\373\250/;w\'M\276a\361\327\275?\210P<\354\007\376;\020\026%\276\303\017?>\023e\370=\n\327\317=\315(x;\030\273\023>\230\371\030\276\341\335\257<\237\003\227<\000\377s\274v\253\010\275~\347\344\275\330\rC<V\277\215==0\336\274V\332,>\302\232=\276\327\n\222\275\256\215/<I\212\002>n\301\221=c\314(\276\351\250f\274]\227,\276\226\330\307<6B$\276z\321 \2760\307\037\276<\344B\275\022\230n=\r\034\233=\250]\304\275\327\024?>}t\240=\032\0362=pS\363=/9\025\275il\035>N\026\030=>i\311\275\027c\261=\267\031P>\361\251[;Je]\275\3208B=u]3\275kU\'\276\365\226\027>)r\366\275\326/\002\276\277jF\275\330 \013\276\373\306\206\275\241\364\210\275wn\362=\336X\342;\260\220\025\275WR#<B\252\031\276`\241\237=?\0319\276]\212b\272\022\365\022<\353\362\353=\272\002\247\274uy@\274\022\0047\276%\372\333\274\000\255\032\275\353\027;\276 \260\030\276\rM\211\275\010\256\007\276\020\353\351;\363\2132\276pj\375\274\010\247\327\275O\\T>\344=+>*cG\276s\344a\275\253\361\370<W\024\340=\026$\345\275\204\212\027=\025\027\321=\247\242\006>\267:N\276\363H\">+c;>w\344\201==\"\017\276\035T\277=\317\374\022\2767\003+\274\317\204\241\274\233\320\227\275\332a\272<\315\303\016=\022\367\n\276z\332\230\275\016A\354=\325\245G>\317\361t;\343[6<\327D\311\2742\302\332\275?0>=\000\344X>\213)\371=\366\2329>\304\201\366\275\017\377\342<\2472\345\275\277\246\340\275\277\363\332=\352L\031>\006\006)>YJ\025>\361Qs=\341\325S\276\021,\341=TL\r>\363\354\006>\304\271\346=\202\350V\276\355x/\275\265\032\n>\341\016\352>\351\004\255=Z\312>>\314\231~\276A7\336=\313M\320<q\364\251\275\340\211\331>\006\352;>\324F?\275\211\250\265> \377 \276B\316N\276C!\234<3\213\336>\322$\325>\002\r\222\275\277E\275\275m/n=\036\263\343=\351{\273\276N(\335>M\355N>A\025\245>\370\014\351=So\336=}Z\272>X\233\322>!\363\361<\354\320\017\276\211\331P\275\207]\311=\235\357\250>\033\263\364:~0\221\276\017\245J>\000b\320\275N7\202>\240\252\243\276\253AR>(\376\314\275\365V\r\275y\330i?\331[\032\276\253a\275\275|}\305\275\t`\357\275*\254\243\275\317\361*?\303\231\325>\217\344\303>m\336\342\276\020\345\033=\223F\025\277#\216\222>n\030\216\274\351\361\000\277?g\227=E:V=d\347;:\342\022n\276PMC\276\240}\274\275A.\023\276\326\352+>\334\001\203>\353\262\002\276=\362\211\275\027X\212\275\323r\r\276J\254\027\276\301m\206>>6\270\275u\276J?V\007P\276o\237\033=K\207S>\215\214\276\275qo\242>\364\016\007?\271\231\226>%\234y>\276q\033<\251\330\024\276r*~\276\350\014\022\276\237\014?=j\035\301>\"\323=>\353:\303>\021\0056\276\205i\242\276\241\273.?\024\226\025?\002.\271>)\272\317\275\014=&?\032\366k\276\216\r\021?\237\315\240\276\213\333l=M\250\263>:\364@?\256\334\347=Mn\t?z\302\270>\354>O>\336r*>F\341\346>\255V\225\274M\017\341\275\260\222\215>\337\003_=(Y\217>Q\026M>My\n=\362\2205>\214\037\004>\303\377\330>>\363C>\270\341\265\275\333\303\327=\270\370\317\274\275\305\255=.\270\254\276\'gn=+\236U<y\014\206\276$\313,\276\355\016\344\275i6\246>2\000\342=\217\275\245\274\302\301\363=\220\021\355=K\256!>m\310\323>(\274e\275\331_]>\313\2741\276\324\355f>IG\311\276-\234\207;\237B\311>\345\010z\275\0235\236=\362H\341>\355EY<\330JC\276\327\002A?7#{>:\021\251>\344\344\236>\331*\n\276\032\000\372>a\261\260=6\337\352\276\235\203[\275\343\204\003?.\310\270\275\276\'e\274\nC}<b\304b\274\370E\n>\251\226z\274\343M\273=\254\256\207>h\352\000?\372h\376>1\"\373\275n\244\220\275C\215\264>\034\000\272>E+O\276PzL\276g,D>2\356\310\274\355\333\017?\246XU>\003`\343>_Q\265=\315\256\353>bN\203>\307)*\276y\363_>\206~p>\000\225\022\276\321$b\275W\302\366=\231\322\375=C\202\304\275\000Om=|\373m\275\201s\246>Yv\213>\031\313#\272\017\372\315>\322\215\234>\365\014\225\276\273O\245\276\033n=\276] >\276\261\265,>q\275W\276\300\243\322>|\0245=\3175\333=kIs\276\375\016\271\2760\253\007>\266\241\264\276\312\024B\276\004v\321=l\272\327\275\0100\251\273\031x\321\275\214~U\274i\363\376\275\023\343)\276\262<\264\275 \303\201\276\203(\372\276o\234K<*\235s=i\013\334\276\226^\000>\336\364\227\276\203Z/>V@\363\275\237\270X<\361\316\266\275\351\005p;\332\204\374=\033\276\\>\'\037\"\276X\177\\>\356\362\236=w\361_>V\325\310\275x\346\326=}\371H\275E\263\252=\014\264m>\005\023\307\275`\314\233>\243\013\010\275\306\270->z\267$\276\303\317!>QRC\276\242\003\205>\036\302\327\274\343q\227=\372\201~\275i9P\276`\344y=\031\205\206>\236\207\031\276\241%}>\361i\300=\205\377l\276jE\034\276\325\230(\276\'\014\264\276jb\001=0\343\245\275/`\371\275\017\312\365<\3322\202=\225\376\031?et7\277(\370m\276Kt\021\276\256O\200>3\257\263=C\340\274=\004B\326>\201\276\023\277j\264}\276H\352\023\277\301\246n\276c\261\267\276I\317f\275\340\001\003\277\022\304\025?\020\350\227\276\331\377\313\2740`\214\275\034\302\374\275\242\242\326\273\200\001e\276y\031\017\276eIa\276\nn\343\275_\363\006?\222\026\366=K\217<>\205\374Y\275\203,\322>D&\362=\213\372\203<\366\315T\276\372\315>\276\021\335p=\227(U?\257,~>\240\202\251>\316\252\306=bf7\276\022!\244>\341\344\013?L\320D=\362\277\204=\275\000\275>\366P`=\350\312.\276;\375Q\276\211!\017=\332R\214\276\202z^\276\335o\236=\337\r\331\276\207h%\275\365\367Q\276\233\224\353\276\370\243\345\275\326\333\313\275\275\333\n>p\267\013\276x\206>=\261\006z=F\020\206;<]\212\276\360v\277\275\002\325 =\373\275\276>\002\203N\276K\322\261\276\375\213\301\275a\371\325=\330\361\322\276\201\272\007\275\310\370:>;y\014\275z\303y=\312+\353=\333y\335=\276\2541?\347\362\244\276\234\237j>\275]\342=\001v8<\315\2757?sg\376=c\366\034\275\377\021==\201\251\352=\237\377\217=\246>P>Yg\362\275\010\204\376;\020\223\242\275_\027?>\361\317\224\275\001{\020\276\022\240H=\005\360\245<\030\3038=\244\215\022\276\347\227\267\275\320C\306=\26570\276\204\317\007\276\006\223N=\203{?\275\311\355/>d\326q\275\303\307\374=\312\3535>c\360\034>\217\035I>\234\304\210\275\213\256\363=\252=\366=X\317>>\2440\027\276\362\367\261\275\241\005/\276\330\354?\275\207\227\347=R\\#>\240OH\276\303\032\341<\340\274\304=*\252\352\275\203\255\243\275\r\251\311\275]\2615\276\231\251\220\2742\302V>\213S\211=5O\030\276\222\372 >r\266\261=\335V\031\275\226y\310\275\247D\025\276\241\005\265=\001\007\207<\n\217\000\275O\024\224\275\035O%\2767\361\214\275\004l\357\274,T\'\275\303\234\357=\231q\317=\233\025\315<\200\314W=\37546={??>\224F\004>d\251\340;\210\217\300\275X\221\253;v?\343\275s\374\256\275J\202\214=\230T-\276\013\205\257=\227\322\326=\361\373\256\275D\271\214=\222px\275t-;\276I\006\244\274Te\210<\034.U\275E|\213=\254\266H>\311\201x\2756\324g=\345;\217\275qG\347=\252X\027>\204e-\276\033s\030>\002\256N\276\367\'[>\304\034\332\275u1\311\275e\266\'=\\\300?\2755\220!\276Q#\313<\327\327\004\276\020\213\354\275\263\213\026\276\"xH\276H~r=o\272\t\276\223\236R>[O\034>\213\373\236=y\3532>B\233\315=\353R\224=\200A/\276r\243v\274\327)\277\275\224\3514=D\344-\276\031\315\343\275\214\333F>;\335\324=-\177\220<\364[\'\276H\234\326<\326\276.\276\304=\232=\326r~=\362\363M>\030\213\365=\240\001\">f\327\'\276\204\013\227;\275\300\004>q\266\202>\374\272\251>c\272\027=\004\341\200>\340E\332;\231\236\025?\004xw\275(\336\004><\304i>n\257\343>>\335\000<\327\314T\2752\323\'\271\326c\235\275\314\"Q>\335\r}>\017\376\237\2742\323\024>\317<Z\275\246\036\235\273B\271\227>\336ND=\217\221\333>\370\222\025>\357\362\250\276=\261K\276\233\014\237=\301\312\327=\251s\257>t\325o=LQ`>T\"\260\275\306\216O;\316\215\332\275\0140\032=\020\217\217=w\365\223\275\013w\001>@\236u>\360\370\010\277G\2037\277\2354\003>U\223-=\202\227\226=\205\256\025\275Q\340\262>\373\032\n=?/\242<]\240I>\0135\252\274\337\240\355>\271g\247\275b\222\026\277\010\344Y\276\270\205\271\275\372`\327=.\2520\276J-\214\276\240e2\276\177\022\024\275\273u\003?\256\217$=\t\2327\276F\"\240>\376\004%\276<[\243\276\310\342\312\275\241\347\355=\031\023C\276\320\256\202\276Z\"\236\275-\2635=\346J\320\275V[\037\276\3118\022\276\236\346\017=\265\223\206\276\'^\033>S\322K\277\363X\"\276\350\315=\276\315!\201\276\257\225\321\276[\355\023\276m\253\037\276pm\373\274\230\026g\275\001\006\317<\305\332\224<F|?\275\324\026\020?\020 \344<\365o\242\275\262\243Z>1\013\356\275\30234>\271\026\236=nW\032\276\024.\020>To8>Py\236=\2065]>9\305\022>F\202H>\344\276J>\274\375\027>\205\2779>\027A\211>\203r=\276\324\364\024\276Y\024K\275\337I\r\2751\356\003>r\213c\273\322\007{\275\362\341\034\276\213D\r\276l\335\212\276l+\313<c$\337=\336\035\232\275+\353\345\276D\365\375\274r\372\312>XT&>\343\330\002<C` \276 \2023\276NR\007\276\344\246\242\276\324\343-=s\262=\276l.\336\275b6!\277\376\325?>\234\240\357\275:\311\352\275\260\026\004\276@\366\217\276\006\313h>\377\310\030\275\255\310A>\217(\355\275\344U\020>\000\207\232=\227\231o=\205\037:>\356\010+>+\275\216\276\256$\230=_K\002\277\256\345k\275}%]>\373\350%>/\237h>\302{c\275\006\r\005>g\250\010\275\200\344\274\275\346\270\231\276\211%\037>\222\010!\276\030\244B=\242}\254;\362I\031\276\204\007\223\275I\243\235>\372\253o\276M\270:\277S\303\246>\237G\226\275\254\206\367\275\336>~\275\357%&>\262Eo>\231\236&>\345~\314>]\335\022\276.\2568?\350\014>>\314\340\315\276\330\201V\276N\203\252\276~\255\304\276\"\257@\276C\211\242=;+\014\276W\036B=\016\270\337>\316\037\270\274I+\177=$\364\005\275pTp>\315\251\344=\245v\325\275\376\257<\276,\243\201>\034I[>u\032P:\253\014W=\361\340\316\274O\337\203\276\217\001\021> B4\276azi>\225\0108>\257K\372=\312p\027\276\302\240\232\275*\357\030>\373Z\221<<\376l\276\333%\375=\260\363z\274r\331\021\276\220\212\210\274ey7\276\022J\366\275\375\360O>}\326\006<\024\002:\276\306f\272>\236\230\222=\374\211\315\275\322\245\t<h\202\262\274\254\033\263\276]Jm\275\013H\006>\222\220\206>\303\326H><:\022\276\275@R\276\222\232Z\276Y\207\371=:\"\316=\224\337\355<{\354\373=c\274\347=\247\330\030>\361\372A\275\362]i\276Qb\255>J\321b\276\372O\300\276W~\334=3\017x\276\205\201\016\274[76\276\033Z\260\276^\374\364:\3633\222>3]\036>\267\351g>\020\240K=\000P\007\274\326(\217\275\3732\275\275AUp=\254\242O>[\213\325\275\375]e\276\203[\212\276O\n$\275:F\267\275\005\310\217>\02738\276\315\263\336=\233\000\276\275d\2663\276\2048+>\n\370\307>\236v\304=~&\303=)p#>\255\266\253\276\306\201~\275\237\340\005\276\nV\223\276\263\325\365=G+{=\360\354\024\277\2672\215>\220\320C\276\245\241S>\3173M\276\313\237\370>\270;4\276[\322\313>\245\022n>\357\303\355\275\016\300\004>\216Jw\275#\024\204\276A\305\370>\350\343U\276O\2138>\225\314x=.\212\210\275\340\204\362=_L<>\223\344\202\275\326:\255>#pd>e\354\t>`~\301=\372\307U>b\307\240>\335|\257<\220\202\037><\324\352>\204o\272\276\356k\373\275h\024\362>\000\363\003\276\246o\213\276\023b\233=\345\305\214\275\002\017\024>a$\363\274\214 \t\277t\227\254=\233\024R\275\370\311c<\351\361\232=\\y\007\277\210\325\246=\254\r\r>\205\376*>B\341\222=P\221\326\276!L\276\275\300\257s<\230\267}\2760\333\031?\3167\353=\316\314\233>\033h\231>\3629\006>\334\377\016\276\317u6=\276e\034\276F{\217>-\000\241>z\376\"\276r\027\024\276\370j\217\276Sw\367=\021[?\276\311\331E\277\341k\203\275\313\313\372=\362\321\010;\206H\240\275^\3677\275\302\363y=2\270\273<\374#\200>7\254\354\275\345\315.>@\311\264\274\017\262\311\276xDS:\330\330e<\226Y\372\275\264\343\356<(\007{\276\302\3629\275T\206#\275\3037\213<C\"\347\274}\342\263=\334\210\346:\252\354\243\276?\224\270>LG\n\276\357\304\223\275H\276\307=\274\333\243\275]9]\275b\t\307<\336\035\200=NA\256\275HD6>,\316e=\027GH\275\r\206\361\275\037\\\235=\226\3049\276\335\277\037\277\225\370y=\301(g\276\032\300f=\317\3645\275\2160\230\272\320\177\246>\200Fg;\030\2012>\323\'\344\275\214\034e\276U\006Y>9\270\201>d\360\020\275\035\363N>\266\013\365\276\032\353\317\275N\360\037>\246\307\310\275|r\306>\345z{\275\214tx\275c\315\332<\322\t\027>f\372$\276\n\2731\276\233\335|\276}\245\310\275\326\345\222>\375%8\276\256\253\332=\241\372\226\275\370&\200>\035\250\007\277f\273\327\274\220\240\003?a\267\254\27622:>\314F\340>[\333\201>\375l\323\275\rR\216>8\360\353=\007\237!\273\276T\334>\263.\241\276\302\277F\274j\310\337=\374\370.\276X\230p\277\263[=?\347\"\264=\205c\255\276B\344\001\275%\306\251\275,\034\356=\226\2238\275\357\222\360\275w6\004?\370Co\276\027\363\255\276+\341\'>bs@>\022\2115<\301\261a>\r\361L\276\326\253\024>\323\310\n\274\341\234\256\275\220(Q\277[\332\347<d\232E>\274no\275\204\031\225\276<Y3;\245k\2139\264b\347<\227\331\242\276C\324\337\274\371`\240=o\017\201\276-@\007\275\362A4\276[3\347=\273\376B=nu\221\275\215>N>\252\243N\276\305#\240=\210\332\324\275\260W\221>G;\267>\265E\333\275\323)u\276\203\224K\276\330\242\206\275\021,j=*w\021\276S\337\377=q~\232>\246j\355=\247\327\304=\026I\226>~\321\013\276\2363\361<Y\214\260\275\272\307_\276O\'\006>\276W\001?5\341\201>%B\265\275U\n\202>{\235\320\275\311\022v>\314\350/>\304\375\371\275\262\305\211<\223j\325=\210\037\265\275\357\236/\275^\003\316\276s\342\001\276\251v\321\275\263\252\037=\275\347\362\275]\315\201\276MI\345=/^\221\275V\252\373\273\\/\r\2740_7>\320\371\206\276C\300a\275e\000\002\276\2668\232\276\217\"$>\324\332\235\2752\223\030>/6\245\276J\263b>\266\024G\276\177.<>\327r\346\274\222F&=B\244->\355\361T>\244v\014>\217t4>\204\374]>\347~V=\263N\315\275J\245\220\276\204^&\275}\360\306\275k\200\331;\265\331\"?\303~\214>\200!\245\275\376~\353\274xS\'\272\300\202\331\276\271\2500?m8\312\276\207>\005?\230\203H\274_\251\273\275\362$a>/\006\310>rX\330=\211\333n=\004Q\026>\313s\245\276\004\346#>\234\344\271\2752\374\025>41%>\264\027\037?\320\335j\276\330\251\256\276\230\354\253\275\327\210\'?\274|\\\275\331\236d=\n\'\215\276\036\226O\276\370CZ<\022\3334>A\246\034<\237\331m=\243\264\202\276\203\021_\276\376\216\376\274\261%\212>\357\322\031\276HE\243=\006<2\276\305\013\250\276\307mu=\367\363h\275\302bz>Cw5>\031\304\272\276\306\340\315\274P\021\266\276\375Ur>4\027\201\276\177)\334\2753\rO>\370\024\361<\250\261\033\275\371\270\024>*\210\337=2y0\275\n\236\336>\267\270\360=@\305\274=\256\365\273>\035\372\004>\331X]>p\332\t\276\214(\232\275\000p\364<1-\354\274\367\003\220\275\337\323\221<\350\357\326\276\336\247\243\276\341\023d\276\243\260\231\276=\277\234\276<\2031>\237{\235\275?q\206>\001\332\020\276\343\327\256\275\375\253\213\275\034\3203\275\257\316\207\276\205\373\035\275t\332\364>YP\241\276?|\005\277\275i\250\274\245\317\335=H\305i\277;\025\312=</\200\275\223\373t\275j\023u\276\036*s\275\311Sk\277"
      }
    }
  }
}
node {
  name: "decoder/dense/MatMul/ReadVariableOp"
  op: "Identity"
  input: "decoder/dense/MatMul/ReadVariableOp/resource"
  attr {
    key: "T"
    value {
      type: DT_FLOAT
    }
  }
}
node {
  name: "decoder/dense/MatMul"
  op: "MatMul"
  input: "x"
  input: "decoder/dense/MatMul/ReadVariableOp"
  attr {
    key: "T"
    value {
      type: DT_FLOAT
    }
  }
  attr {
    key: "transpose_a"
    value {
      b: false
    }
  }
  attr {
    key: "transpose_b"
    value {
      b: false
    }
  }
}
node {
  name: "decoder/dense/BiasAdd/ReadVariableOp/resource"
  op: "Const"
  attr {
    key: "dtype"
    value {
      type: DT_FLOAT
    }
  }
  attr {
    key: "value"
    value {
      tensor {
        dtype: DT_FLOAT
        tensor_shape {
          dim {
            size: 128
          }
        }
        tensor_content: "Z\2325>y\031\037\2778\2253?M\267\223=\313\264\016>N\316\327\276\215VQ>\030eM\276\244\203\232\276Y)?\276\0101k?\035\312\t?\205\273\021\276\317(\373<\262\354;\276\276\363\224\275\353\267\243\277\315\007X?9\214*\276V\217G\276MV\220>\265\316\357>\301m\212\276\241Ck\276\022O\261=*9u\276u\315*>\200\375\224\276J\377\004\276\212#\316\274T\022k?\250\263\250?a\350\203>\315EC>\000\000\000\000\315>$>?4\273:\251\302\236>%\0026<\351\366\t?\376\234*?\275\276/>\331uf>\335O\244\276\345\317\350=\316\346\245<\247\343\"\277\246\337\307\276\255t\013\277\346(z>]\351\222\276\340\213\320\275Soa>R\210u>\303{\037\276Zw\216>]\316.\274R\350G\277\024_\252\273$\340$\275\272\370\276>Z\244z\274\352{\311>`\3006>\210\013\370\2764\320\251\275\235\343+<\022\340}\276\230\367\310\274n\007\220\277zV\332\273\210\ry>\245t\210>\'x\005\276x\347V?\025\264\360\276\013!\310\276C\251\231=Y\353O\277h\241e\276 \245\243\274\361\354\257>\235\'\213>\036\350\033\275\360\305\235=2p/\275d\262\271=\304\267\270>\037\313z\274\240\342\351=^\302\242>\362l\222=\264\277\002\275n\262\251=!\032\226\276\021/v>7\254\337=\000\000\000\000\326\307\213\276\215\200\364>\254\000\237\274tz\360\276X\373\276\275\3634v>L%q\276\233\315w\275\304\277$\276T\355\370<(\255 \275#IW>\272\264\327\274\204_>?\374\233r=\225:\202>*67\275\313%\375\273\250\233\360<_\004L=\263\3009\277\352\254\347=ms\235\274H\035k\276\213\017w>\0325?>|\311|>Vg\255=\201@\210>\220\346f\277"
      }
    }
  }
}
node {
  name: "decoder/dense/BiasAdd/ReadVariableOp"
  op: "Identity"
  input: "decoder/dense/BiasAdd/ReadVariableOp/resource"
  attr {
    key: "T"
    value {
      type: DT_FLOAT
    }
  }
}
node {
  name: "decoder/dense/BiasAdd"
  op: "BiasAdd"
  input: "decoder/dense/MatMul"
  input: "decoder/dense/BiasAdd/ReadVariableOp"
  attr {
    key: "T"
    value {
      type: DT_FLOAT
    }
  }
  attr {
    key: "data_format"
    value {
      s: "NHWC"
    }
  }
}
node {
  name: "decoder/dense/Relu"
  op: "Relu"
  input: "decoder/dense/BiasAdd"
  attr {
    key: "T"
    value {
      type: DT_FLOAT
    }
  }
}
node {
  name: "decoder/reshape/Shape"
  op: "Shape"
  input: "decoder/dense/Relu"
  attr {
    key: "T"
    value {
      type: DT_FLOAT
    }
  }
  attr {
    key: "out_type"
    value {
      type: DT_INT32
    }
  }
}
node {
  name: "decoder/reshape/strided_slice/stack"
  op: "Const"
  attr {
    key: "dtype"
    value {
      type: DT_INT32
    }
  }
  attr {
    key: "value"
    value {
      tensor {
        dtype: DT_INT32
        tensor_shape {
          dim {
            size: 1
          }
        }
        int_val: 0
      }
    }
  }
}
node {
  name: "decoder/reshape/strided_slice/stack_1"
  op: "Const"
  attr {
    key: "dtype"
    value {
      type: DT_INT32
    }
  }
  attr {
    key: "value"
    value {
      tensor {
        dtype: DT_INT32
        tensor_shape {
          dim {
            size: 1
          }
        }
        int_val: 1
      }
    }
  }
}
node {
  name: "decoder/reshape/strided_slice/stack_2"
  op: "Const"
  attr {
    key: "dtype"
    value {
      type: DT_INT32
    }
  }
  attr {
    key: "value"
    value {
      tensor {
        dtype: DT_INT32
        tensor_shape {
          dim {
            size: 1
          }
        }
        int_val: 1
      }
    }
  }
}
node {
  name: "decoder/reshape/strided_slice"
  op: "StridedSlice"
  input: "decoder/reshape/Shape"
  input: "decoder/reshape/strided_slice/stack"
  input: "decoder/reshape/strided_slice/stack_1"
  input: "decoder/reshape/strided_slice/stack_2"
  attr {
    key: "Index"
    value {
      type: DT_INT32
    }
  }
  attr {
    key: "T"
    value {
      type: DT_INT32
    }
  }
  attr {
    key: "begin_mask"
    value {
      i: 0
    }
  }
  attr {
    key: "ellipsis_mask"
    value {
      i: 0
    }
  }
  attr {
    key: "end_mask"
    value {
      i: 0
    }
  }
  attr {
    key: "new_axis_mask"
    value {
      i: 0
    }
  }
  attr {
    key: "shrink_axis_mask"
    value {
      i: 1
    }
  }
}
node {
  name: "decoder/reshape/Reshape/shape/1"
  op: "Const"
  attr {
    key: "dtype"
    value {
      type: DT_INT32
    }
  }
  attr {
    key: "value"
    value {
      tensor {
        dtype: DT_INT32
        tensor_shape {
        }
        int_val: 2
      }
    }
  }
}
node {
  name: "decoder/reshape/Reshape/shape/2"
  op: "Const"
  attr {
    key: "dtype"
    value {
      type: DT_INT32
    }
  }
  attr {
    key: "value"
    value {
      tensor {
        dtype: DT_INT32
        tensor_shape {
        }
        int_val: 2
      }
    }
  }
}
node {
  name: "decoder/reshape/Reshape/shape/3"
  op: "Const"
  attr {
    key: "dtype"
    value {
      type: DT_INT32
    }
  }
  attr {
    key: "value"
    value {
      tensor {
        dtype: DT_INT32
        tensor_shape {
        }
        int_val: 32
      }
    }
  }
}
node {
  name: "decoder/reshape/Reshape/shape"
  op: "Pack"
  input: "decoder/reshape/strided_slice"
  input: "decoder/reshape/Reshape/shape/1"
  input: "decoder/reshape/Reshape/shape/2"
  input: "decoder/reshape/Reshape/shape/3"
  attr {
    key: "N"
    value {
      i: 4
    }
  }
  attr {
    key: "T"
    value {
      type: DT_INT32
    }
  }
  attr {
    key: "axis"
    value {
      i: 0
    }
  }
}
node {
  name: "decoder/reshape/Reshape"
  op: "Reshape"
  input: "decoder/dense/Relu"
  input: "decoder/reshape/Reshape/shape"
  attr {
    key: "T"
    value {
      type: DT_FLOAT
    }
  }
  attr {
    key: "Tshape"
    value {
      type: DT_INT32
    }
  }
}
node {
  name: "decoder/conv2d_transpose/Shape"
  op: "Shape"
  input: "decoder/reshape/Reshape"
  attr {
    key: "T"
    value {
      type: DT_FLOAT
    }
  }
  attr {
    key: "out_type"
    value {
      type: DT_INT32
    }
  }
}
node {
  name: "decoder/conv2d_transpose/strided_slice/stack"
  op: "Const"
  attr {
    key: "dtype"
    value {
      type: DT_INT32
    }
  }
  attr {
    key: "value"
    value {
      tensor {
        dtype: DT_INT32
        tensor_shape {
          dim {
            size: 1
          }
        }
        int_val: 0
      }
    }
  }
}
node {
  name: "decoder/conv2d_transpose/strided_slice/stack_1"
  op: "Const"
  attr {
    key: "dtype"
    value {
      type: DT_INT32
    }
  }
  attr {
    key: "value"
    value {
      tensor {
        dtype: DT_INT32
        tensor_shape {
          dim {
            size: 1
          }
        }
        int_val: 1
      }
    }
  }
}
node {
  name: "decoder/conv2d_transpose/strided_slice/stack_2"
  op: "Const"
  attr {
    key: "dtype"
    value {
      type: DT_INT32
    }
  }
  attr {
    key: "value"
    value {
      tensor {
        dtype: DT_INT32
        tensor_shape {
          dim {
            size: 1
          }
        }
        int_val: 1
      }
    }
  }
}
node {
  name: "decoder/conv2d_transpose/strided_slice"
  op: "StridedSlice"
  input: "decoder/conv2d_transpose/Shape"
  input: "decoder/conv2d_transpose/strided_slice/stack"
  input: "decoder/conv2d_transpose/strided_slice/stack_1"
  input: "decoder/conv2d_transpose/strided_slice/stack_2"
  attr {
    key: "Index"
    value {
      type: DT_INT32
    }
  }
  attr {
    key: "T"
    value {
      type: DT_INT32
    }
  }
  attr {
    key: "begin_mask"
    value {
      i: 0
    }
  }
  attr {
    key: "ellipsis_mask"
    value {
      i: 0
    }
  }
  attr {
    key: "end_mask"
    value {
      i: 0
    }
  }
  attr {
    key: "new_axis_mask"
    value {
      i: 0
    }
  }
  attr {
    key: "shrink_axis_mask"
    value {
      i: 1
    }
  }
}
node {
  name: "decoder/conv2d_transpose/stack/1"
  op: "Const"
  attr {
    key: "dtype"
    value {
      type: DT_INT32
    }
  }
  attr {
    key: "value"
    value {
      tensor {
        dtype: DT_INT32
        tensor_shape {
        }
        int_val: 8
      }
    }
  }
}
node {
  name: "decoder/conv2d_transpose/stack/2"
  op: "Const"
  attr {
    key: "dtype"
    value {
      type: DT_INT32
    }
  }
  attr {
    key: "value"
    value {
      tensor {
        dtype: DT_INT32
        tensor_shape {
        }
        int_val: 8
      }
    }
  }
}
node {
  name: "decoder/conv2d_transpose/stack/3"
  op: "Const"
  attr {
    key: "dtype"
    value {
      type: DT_INT32
    }
  }
  attr {
    key: "value"
    value {
      tensor {
        dtype: DT_INT32
        tensor_shape {
        }
        int_val: 32
      }
    }
  }
}
node {
  name: "decoder/conv2d_transpose/stack"
  op: "Pack"
  input: "decoder/conv2d_transpose/strided_slice"
  input: "decoder/conv2d_transpose/stack/1"
  input: "decoder/conv2d_transpose/stack/2"
  input: "decoder/conv2d_transpose/stack/3"
  attr {
    key: "N"
    value {
      i: 4
    }
  }
  attr {
    key: "T"
    value {
      type: DT_INT32
    }
  }
  attr {
    key: "axis"
    value {
      i: 0
    }
  }
}
node {
  name: "decoder/conv2d_transpose/conv2d_transpose/ReadVariableOp/resource"
  op: "Const"
  attr {
    key: "dtype"
    value {
      type: DT_FLOAT
    }
  }
  attr {
    key: "value"
    value {
      tensor {
        dtype: DT_FLOAT
        tensor_shape {
          dim {
            size: 5
          }
          dim {
            size: 5
          }
          dim {
            size: 32
          }
          dim {
            size: 32
          }
        }
        tensor_content: "]\202\212>\003\315\330\276\321 \206\276(\313\202=\374\000\226=\217\271\035>\244\033\253\276\312\350\\>w\375\307\276\377g\265>\363\341\252\275j\002\014=\262\343\224=\237\013\377=\326cT<\314-1>\217i\221;\025\023\003>\332C\231<\322\307\017\276\271<\200=\321\307\316\276\213\033\260=\366\340x=\350G\001\275\307\006\322\274^\030\215\275\t;\250=\253\\\010=\305^N>1\214\222>.\211\n\276\240/\036>$\034\000\275L\207\030>\307[8=\330\304x\275\304\264\300>|\'\311>\227\314G\275Esp\276\320\223\316>\300.a\276m\315\263=\002@\025\275\324\2413>A\031I\276\322R\261>\274\370\"?\207- \276s\253\236>\353 \352=\241U\'?\333\205\305=\362sK>r\022\271\276\275\033\032\275\226\272 \276k\362\273\276\235jv\275\005\352@=\357\3559>~\364\255\275\031\306\035\276p\366\243=\217\332\322\274@\240\023>\000 \250<\027\343\302=\331\202;>>\275H=1\0208\275\013\273\355=\370\324\365=\344\231@=>\222\363\273w\310L>\357\230:>\017\275a>\273$\221\275\235\237\321=1\360V\274X\224\211;\315d\231=\360\2423\276\2368@\275!E\270\275\254\217\304\275\006\330\265=*n\230>]\274\211=\322CW\275\177\316t\275\251fT>\212\247\352<46\244<\233r\224\274\007\251`\276=\241\360=\363\\\216=\026\274&\274\240\310\213?w\276\253=s\000\256\275}w\007>\364\234}\275\007E\372\275\341\324~=\260*\204>\225d\004\273\204v\207\272\302/L\2750\246&\276s\315\357<`G\014\275k\220K=1\223c>\004\'\231=\260\342\016\273\245\031Q\276\351\321->\254\272#=EdV>WU\336=\247\255%\276i|y>\"4o=\326\267$:M\356O>C\005w\275\025\331\013>\364\240\\<\211\222,=\213\274\376>\023\242=>\315\344U\275\214Y\222\274k_\311\274=R\002\274<\203==\006R\372=NC\320=?\341%>\274\211\277<\306j\363\275\333\236\256\274\223\222\242<@y\211>-\305\327= r\266\273G0\211=7U\302\275\266\230\241\273\213\2222>\372\261\223=\007w\r<VOj=\272\254\253\275yX\251\272\260\312\177\276\255\t\020>N\343\254=\305\364\312\274\212\020\357;\3732\245=\t\255\264>\351\352\374=\332\013T\276*\274\243>\023m\256=\231\030\250<_\010\377=\'\006\320<\311\356\315\273\243\025\264=N;1>\255\000\242\275\336\202\220>\332\254\361\275]\311\203=\353\353\010>E\037x<\255\004\205\276r\357\300=\243][\272\236\244\360>Pm\277<\344|\002>\247\311\177=\211\347\276>\211\3638=\301Fw>\230\212\"\275\007\215O\275\324\007Q\276\311MW\276w\022\367\276\275\030\305=\303n\341\275\335Z\367\274\237MT>Y\356\332=U\007n;\370\324]=\377\341\233<\260\347\246\274\371\001\350\275\370Y\253\275\211\306\020>34\027<\313\337\316\275F>\246\273\247e\024\276\030\234\n\275PZ}?q\'\252\275u\002\t\277t*\001\277(|]>\232\361d\274\224\350\334=P\365\204>\200\204\350\274\'\356_\275\213)&>\033\024\221\275p;\270\276E\370\024=\r+M>\274\362\n?\270\315\274=\352r3<L\365U>+\370\272\274W\245\312\276\367\016J\275\214Z\347;\337\261\215=>HO>\024N^=\231\305\341=\272\334\205\276Z|\2149\321N.>X\201\"\2767S\354=\302\362\261<\245\025\244\275\263J\031\274Iw\262>c\267T>[>!>0\375\333\275\325\027\262>\325\334;\276\352Vl\276\302\270\316=\207\036\200>q\206\033>\331\203\223=6%J=\236\233\204\274=\013\341>\214\327\203\274\361h\367<\032\331\307\275\004{\214;\353\351u=t\013\3578\336\205\215=\375\024\204>\207\024\025>Ci\242=5q\344=\026\341\022=q\006\256\274b\345\253=_\031\314=HO\276\274}\273\352\275\253\312#\274z#\210<\032\025\365=q\004\354<\370\'V\275\227\366&>\350\021\0069\025\350\030>\307\346L>\210N\372\276\220\204\230\275\2170\225=,\2435>\214AD?{\316\253>\233\330c\275\343\313\211\276\237\021\262<\272\363\233\276\023\214\325=\350\350\337=f\022\031>\251\0167\275\323\377\334\273\226#\243\276\377D]<\007P\246<>p\276=0\225C\276<\326\202=\242\313T=Y{c\276\257\034\335=\337\360\250>V\352\205>\305w|>\002\2401\275msB?\237~s=\300w\307\275\230\204\363={R\035\2778~z\274\310\355\001>\221\226\224=\333\373\307>\004\222\034\276/\335/\276qqh\276\360\305g> \004\027\275\261%^=\3357\026>\221\271\207>\242\271\360\274K\212\005<\213bi>\377Y9\276\223J(=d\351\246=T\311\226\274\217|\360\275\023}\300<\036\312\014\276\255\rH=\027\013\215>\344\317\004>\213%m<\216\026\264\274\017\333}>\221\302\316\274\347L\201\275\272\366t>\006\3103\277\301\376\261=N\211\233<\240\353d=\227*\304>\306D\354=\252\217h\276mZZ?w\241\274\275\231\225\335>C\025i=\366\256\022>\324\256\354\275\212\347K<i\032+\274\300\237\177\276\025\233\260>\344\'\264\275\323I\212=\321\216\271\274\274}+>\'Yk<\362\315\206<\224\342\232=\003\274J>\216\034\352\271\235\257\317\276B\t\014\276\246\227T\275\034\263\242=E\335\353>\026\320\001\276|\213U=\nXB=l\274\370=\3256\272\274\346\t\333=\340R$\276\316r_\275\033:\213=\335H\204=.h\230=]\235\204<0\200\250\273\342}[\274c\026\207<\260X9;\360\r\304=\211\000l>B\264$=\275\267\216\275~\357E\275]\371\304\275dO\256<p.\'>7\303\002<D\370l\275\030\\\276=\226\206\202=wwL>\207<\241\2764\252\021>\303at>(>G\276#;/\275\017%\221\276|W\023=:JS\274`\013:\276\277\n\201=\204\347\237\275\251Q\037\276\2107\t\275c\331\363=\216\350\363\276\204\000\361\275\372s\346\276\211\355\220\276\315\n\376\274\003%\357=a\332\007>\013\376T=\332\337M\276\324\013\376\275\337j\203\275_\3169\275\302\262\201>\261u\267=\257\010\220\276\231\300\331\275\245\207G=\216j\376=\247\2428>p\254T=\2420\266>N\261\252=B\026\332\276J\003\3759\261p\377;\311g\331=\022\370\274>\277\301q<\254\002,\275\216N=\275\232\013\000>-X9=\2520\317=\r\212J>U\272\203>jlE>43\276<d\347\r>\034\220\005\275jq\014=)|\237=J\224{>\2347\272\275\203\334\002>L\267)\273h\247b;\355\336j>j#M\275\224\236\331=A\225f\274,\212\307>\037Y,\276~m\244\270\315\236C\275(\267<\275 96\275M\200#\275\3540\234<M@\234\274\325g\033=\031\262/\275\267Ti\275\207\255\013=\'?\243<\253\205\r\275n\304N\275\037x\357\273\273\233\336\274y\202\220\275\351\271\254;$\360\r;YzO\275~\337c\275\327\206\031=VZ\031\275%H\226\274\313 u\275E\321\307<\204\322D<\317\"A\275u\251\236<Xp\216\275\031s\202\275\267L\232\275\177{>\275\0263\253=\353\376\357\276\321\014-=S08<\216\360f=\233\206\037?\217#\237=\266\234\t\276\177\221\271\275\2370S\275:\324\007<1l1>\251\213\314=\232X\n>:\022\243=o\333\313\274\322`%=\227o{\275]\363Q=\250\216\320=%\353k>\235SD\275\354\321\216=\205\363\260\275\262\007K=c\220a>Bg\231=v\370\225<\222.k\275\320\374\323\270\363\306\256\274e\333_\275\331\350\375=r\260\026?\311\343\316\276\331\007\266>\033\277\307\276G\257\204\300&\200G\277\366\351\007\277\200m\376\275E\366;\277\260\301Y\277X6\312>\233Jc\277\211\315W>\222\264\303\277\216\317\026>\367B>?,\301C?0\003\226\276\223S\265=\326\363\027\277!5\240\277\271K\354=\023I\t>\350\\\035\276\267n]\276\237i\200\277\341\227\337\276\032V\016>\263\272\317\300*\202\310\276}tX?\026*\001>\255\030a\276\r\267\r>\354@\t>\310\261\203>\215\246P?\014~\010>f\231\247\273\n\214k<\357\230\373=\265\244\022>\365\320\360\275\321_V>\227\300\223\274-u1>s\001*\276\025\337\226>\004\270\221=bJ0>\021\327\312=\001\264k>R/\303=az\366=:\004\333\275J\246\231=q\201\211>{\245\252\273=0b>\374\005?\276SY\337>\275\332\205\276[>\215\275=\321\310=\017i3\277h\337$>\223\222\232\275\002\201\214\275\277\217\262=\251Y\221\275%\342\224=f\310\211\2767\377\242>P\226\325>\020%#>4/E>\004|\315=\234_\016>t\323\267\276\273\263D<P-\364=X\241$\274\371V\037>A;\036>\216\343\016\2743p5\275R\214\337\274\2709]=\207\207\365=\341\333\036>\342\006\303=\235\336\251\276Hg{>\321\013\222=\025\262\205\274\021B\241=\371\002q>\244U\010=~\013-\2748\263\300=\271N\212\277s\304I>\242\276\222=\313#\001=\205\271\274\273\2252?\275\372\026r\275\033\220\003>\241hE\275\031\254\334\275*p\212=\007\267\231\276\311\017m\275\021\305T=\177\"\007\275z:\244\275\205u+>|\022\301=\236\354\207\273\336x\330\275\203\001\325=\277y\204>\275\370!=.\207\323\276w\375\'\276?\035\244\275\363K|\275T\260\265\275\031\304\261>7v\364\274\336\341/>\263\333\022\276:\231^\276H\230\243=\256\035\224>;sd\275UOs\276_\240\323=\345p\207;}\211~\2765F\326<\340\0008\276\032\005\337=\033++>\364\311+>\r:\207\274\210\231\014>}\262\032>\035\246\273\275\360\351,>N\344K=\023\352\010>\027\3141>|\010C\275~\020\315\275X\231\014=\262*\310\274&<N=A\201\001=\311]\355=[\227\025>\025_\227>IG\251=Z\350\242=\344\254\336\276\274\267\221\2758\3239=\226P\272=Q\3553\276\370\226\267\275\210y\225=\0330\020\276\276\016E\275,:\220\274\347\006\362=\256\301\207\275\226\252\204=lK\252\274\207\225\243\275\277lY>\257Ho\272I\213\017>\362\324\303==T\263;\372\213\311=4h\300<kb)=^r\244\276\235\266\220\274_\352H\276\262\005\316\275B\202j\2760\242\274?\214\336!=u\305;\276\022\321\360>=r\211>\237\334\307=\005\252m>d\251H>\3202\226\275\345x\204\2772\342\270\276FJB\276\0277\004\277\360\357V\276%\204\207=2\216\274\275\267Ks>\334\223\321=\202P]\276\212N\020\276\316<D\275\330\031=>\253;\t?\205\257\213;\031\342\260\276\024\2432\276\206p\275>\307\275\336=i+<>u\330\203>D\224\237\275}%\375\275\363h\360\276w\332\335\275\351\204?>&wK=\353/.\276\036\342\210<\211\261\370=\347B\005\275N1R>\375;\363\275\351\0322>\321B\206\276\341\017\224=\207\034\234\275\231{C>\273\237\371=\017\211[=\340r\202=:>b>\261Q\206=\245\215\264\276\2159G>p8\241=\014\200\332=\377\002[\274.\017\247\275\003^\010\276\302\330K\273\354\355\037\275\235\317\223=\3152\337<Bk\016>\032\n\">\021\234\327\274\263*\010>\211\010\364;\370`\351>\'\376\t>\352\315\332=Bt\336=\203Yd=\007\266\206\275\322\010\267>\200\251x=\220\273\002\274_I,>\2202p>\341\201\240\276\330G\024\2767\003\244\275o\213\022\275Ps\001\275j\231\303<&\314\312>\256\255\277;\355\252 :\007\261\205>\226\037\322\275\301J\t\276+R\256<\261\376\033>*\304\237=\000\016\t\276\2223\306>\010\325\231>\346\'n>\207\352\372\274\237}r>Q;\207>[\322}=\344\206\261=IY\240>\223\317R=\352\244\370=h\265\016?(\205\277><\245}=\201\234\361\275\336\023\203>x\010h\276\264\031*\276\364\260\"\274\006\345\251>Z\324\375\276a\325R=\277\275S\276P\2003\276\273\314\231=\0050\342>\353\025\241>T\025<=\246l\211\276\330\224\256>|\212\323\275\306Ii\277\264\361J>lcd=\232%\300>\233\217\002>\277q\311\275\205\206\232=vX\206>\374\325]=X\372\252=|\342W=\320+\243=\365\341@\275\017\245\357\274(y\204=w\017\207\275\270\273\242\275,\251\347<[\2320>\252sl\275t\021+>X\356\237>\206\227\203\275qa5\276\330B\251\276\024@\010\277Xr\266>8\272\310\275\331/\224=\020\203\211\276\257\373\300=>|\034>[\027l=\323\333e>\314\356\200\2763\035\375\274o\013{\274]v\020=\320s\207>\247&T>\233\367H=\270\000p=8\024\266\274\347\313f\275]r\261=)\220\217\275i\222c=C\004\"\275\351\215\371=+\233\220<\267\352\221\275\224!\n>\252\301$>\356\272\220>\032\310G>\250c\021<\320\275\014\276w\232\360\273x\277\364=(\017\233\274F\347\212\274\250\356]\271\267\034i\276\205\237\013>z\020\330\275;]I=m\304\325\274\247\306_\274\345\375\240=0\325$=\016\276N\276 \t$=:\325\247\274\210\340\335=.\031\357=L\2377\275\371\354\375\274\240p&\275\315\006\031>\200\032\251\275\253\232\243\274\364QM=N\033\231=\372\246_=w\331\257=9\n\205=\216\307\037=\013\254v\273\246u/\275\362y\233=)\330?>\020\320\244=\006>\277\274\376 \033\275\3516\261=s\037\243;m\"\203\275\r\310,=\335&\020\276)\035\013>\337YI\274;\223>\275|PI<\217\216a>\355\223\325\275\325\257\022>#\341\017\275\335f\241=aq7>W\037\265=\025\237\355=7\'\307=\262\317I\276\2247\224\271\354;\017>\033.\344=x\272\251=\315K\">m\005\210>\034\205\">\303\'\313\275\274\013\r>\227\034\366=%Gh\275\337\235d\274\232\376?>\355\364 \276\331\350t=\177\205\002>C\257f\272\262\254*\276\223.\245\2742\001\302<\354\014\"<\240*$?^\365\274\276\327q\\=-U~=\334\235\316\274\340)\307=~}\377=\001}\306\272B\254\207=\025\236\262\275\265\377\234\274\357\367\014=\241\r\314=e\246\217\274\266\016\303;\364\236\033>\227[d=\024\277\030\275\226+\233<\275\206\222=\342>\036=\r\351\332=\340\323\005>\022,\203\276\312\032\336=\366\263\342=\2448\r>\255\300\346<\022k!\276\234,\207\276\n\264\347=D\233\205=\263\"\227>H\212\214=$c\235<\336\243S\276\301\"\014>\256j1\276\002\250Z>=#\376\275\243\374\327=]c\202=\367Z\354=\016\355\003\276<<o=\230\342\r>x[I\274\016&\220<\275\r\020\273\210\016t>/,\305<\034,\2359\251K\334\2748\034)\275\333\311\023>X\006\025=l\351]\275\233\2214\275WQ\231<\275\017\257=\027\371<\277e\263\312=1\330,<\353\262_<\032\366.?_U;\275\327?\">\204\377\230\276\352\227\207>$H\321\275\255\207\262>\271Z\3529\242\367\313=\372KX>\240 J>\353\315\t=\316\226\235<j\254\014>\336\250\344=\215\362\230>\213\030,\276\304\314\202\275\232\231\360\275\031\315\335<q\307\310>SzB\275w\367Z\276HUK\276\341\253\346>\353\260\2569\265\253\017>\213(\300>\3133\035\276r*\363\274R\rl\276@\375;>B\374\275\276\334V\376=\315Y%?\331`\361\276t\351Y>\017\240\004\276\3060\211\276}W\341>6\244\004\276\"\030\251>\006v\276>\215M\350\276 }\265\276}LD\272`i\300=q\304\266=/\366\241\275o\273\243=\212\035J\276\026\364?\276\364\271\317<\373\242\357=b!u>\213\033\256\275b\235\222\272Yh\244\276\036\004\261\277\303\231\210>\320\0260?K\027\256=\227\302\357=\201G\216\275\222r\362>{\035\356>\357\267\007\277\343\301\241\276\252|]=K(\374>\323\227\246>\222\032\366=\341|$>\034\325-<$\343\317=\232\301\300>\3224\177\276\351\260S=S0\013\275\177;8\275\023\247-\2752\300V>\014\214B\277\214\247\230\276S\261\361>t\205\315\275/M\231>j\373\347=\305\337\274>\374/F\273U\303\232\276wG\t=\343_\317;WF\263=\371l\222=SE\234\275`\026\325\275\305\006\246\276\331\223\002\272\245\305\211=_\240\266\275\3005V=a\311\010\276y\377\233\275\225K\222=\035\253h\276\032\364\017>P\255\221<W\306\005\275\036\306\034\273\034\260\241=\003\2518>c\323p\275\237\2459>\336\361)<\263\010\224\272f\250^>8\374\274\274j\222\322=\223\316\t>\036p\257;-\234\373=w\221\250>\306\0148\275\237\324 =\315[\037\275\244c\303:Q\363\220\275\240\0077\275\237\266s<\253\205\301\275\327\241\330;=i\"\276\t\006\243=\342\r\252=V\300\360\275\217\017\034=\323\' \276\3450\037\276B\\\007\275\244\010\000>\354\357K=,Tc\275\276\204\026<dnb=\324\3539\275\005+\277\274\n\'\001=\024@{<^G\272\273\325\276\016\275\370G\224=\346r\263\275JT\321=\263\311}>\277\0076={\021\202\277)A,\276\205\223&\276\036\350\n>\026zd\277\241\274\014=6\332\006?\327\337\'?&O\374\275\255\021{\277\264\"?\276K\276\363\275\344\341\353=\271G\312\275\021\256\304\276\351o\245?\020o\234\275\264\311n>N\035H\274\267\206!?H\372\361>\024\257N>\360\"\204>p\037\231>8>\020=JR\261\276\266\361\214\277\332G\205\276\003g8\275/kl\275\r\226\223\276\217N\324=T\342\255=p\"\200\275\005\2369>\254\266]>\323\367I=\304@\010=\315X\245\274\354\357\226=\321t\307<\336z\211\275)>\"\276\310\233\374=\323k3>\023\304F=\010\233]\275\343\205\205>\302J\330=\360\243\006\276\342\347o=\370\214X>\261\300\245\275\364?l\275g\241U\276h\351\240\275\r`\317\275\354\205r>4\375k>\016\3455>\"\234\324>fb\026>Z\244\357\275\317$8>N\'\014\274\235\241\376\275%\036\226>\tF\356\274\341\362&?RG%?\267w!\277\007\372\234\276\370\\\010>\326}\033={4\216>\311K|=\201\010\202<#Y#\274I\002\226\275\232P\n?x\375k\275\357\\\003>9\320\003\276\315*\213\276<\017o\275#j\231>\253\010)\277\223\301\321\276opZ\2750c!\275!\024\337>\272w\332=\321\363\252>Y8X>l\361\214>\351\377R<nM\014\276\327\346[\273\033\3234\275\026B:=\030\022i>\267\033\027=\234\234\374<\177\301\363\275\310 \327\274\014a\310\275V\373\307=\034\016\242\275OF\241<J\\&=\026=\314=\003C\203\276{\303\231>\317\002\206\274\033\336\026\273\357[\320=\341\202+\275\256F\004>)\364\001>ZG\340\273\217\\\205=\233\355\347;\321\020\267=\312\213\331=\352p\300=:L\372<\242E5\275]\346\035>e82\276\374\324c=\316\231>=\\\033\227=\373+N?kn{\275\265ua\274\327J\264\276q\213Y;kK^\275\213W\310\272\232)\375<\375:\305<\2130\260=\274\301\002>>Y%=\365;\277\275\226\027\203\274\213\304\275=\027I\320=}\316!\275\342BW<\310\230\201\272h\314\215<\3438\006>\305\315\352\275\005\2530\276)\001\010\276~)\214\273k3\264\275*\001\323<\344\274\301=_t\216>\001\343_=sd\003>\277\264\206=F\370\024\277\366lB=\203b\304;\3146\250\275\0052\301\274\n\205\310=\301\035\260\276|@\222\275&\211\214=Ea)>(7y>\200N\006>\023\231\036\275\326\003\261<[}\307:\202\326\244=\027\366\343;\335\347\326\275#\231N\276\371=/=zr^>+\310\256=z\013\204>\240\373>>\206\303&>\377\215q>\tV\020\276\207\202\220>|^\231> \276\343\273i\000[\276\351\205\330=\357|Z>\377\244\023>\2439N>\323Df\276\332\224\n>\374W\324\275\250\337\321\275\016-=\273O\214q\274\340\332W<jBU>\306\343\016\276\315\226\302\276\034\350\363=\362\211\224=\355g\355<B\366$>\275W\344=U\223n\276\357\207\235\275\365\252\257=>c\007>\\n\333=\263\200\366\275L\365\014>P;\262\275C\312\313\276\024\335=>wD\227\273\005\010\327<1\002\231=\326\233\253<<\377\026>?\227\362<\351\255)\275\001\t\374=\331\351\005>\305u\003\275Zo\363=\367\322\000>\010t<=b\210\n=\000\356\236=krw:P\260\255\275L\"j<\232\225\342<\224A/\276\257m\r=L\213\342\274\377j`\275?\206\252=q\336K=\254\037\007>\034\377\017>Y@\370\274.\003><\323\023\345<\222pg\274\274\305&=\0104\013\276\256bu\275\010\213\214=\216\226\276=N\370E\276\332<i=g)\247\274\"\270\245\276\037\025\037>\035\241\n>\n\310\010=\204\030\243\275\225+\206\274G1\023=\304\271 \275\t_0\276\264\307+\275\3410\270=Mj[=\244\311\310\275\343\344T>\024-\266\274\313\032\225=#\235c<\327\230\240\275\222g;=\323z\260\275\203\246\340\273\024o\035\276\334\034!=v{\233\275y\'\371=\365\242\246<\217\365\364\275\330\257\020\275\201(\214\275\035\001W>!y\013>X\303S\276\312\3739\276\267\203=>\217\350\006\275S\265G>\230 &=\347\263\202>\"9t\275\255S\267=MK\267\276,t\332=\037*\017>\244M\240=/\n\370\276\020\261\\=*\330\253\275F=\\\275\221y\034>5\333\344>b\306\206>\272\354\301=B\203\236>@\331\344=\n\354\342=\371D\246<E\2115>\361\377\217\275\030u\254=\302\025\035=QT\220=\222\207\251\275\2266%<\025`\t<\265\324\211>\315\323\325=\'\376_>W\353D\276\003z\203<\377\334\345;\245\305X\275J\314\314\275$\235;>9\274?\274\245\240\212;\310\265E=\274\334\251=W\243\301;8S\212=\335]k\275\265\304\205=\353^{=\224I\254<\212\202I>\004{\325<\010+\352=\035\r\014=o\350+=\005\322\032\276\345\200\304\275U\314\332\275\336r\030>\340\3738\276e\340\245=\037\334\215\276\nm\n?\372\206\206\276\206\265\010>\305hr=\240SS\276O\376g\274\031\337\260\275\233\220\214=\340\340\273=\365\344\023\276(\254\033>\003~\310=,\332v\274\3702\016\276\233_\343\275\225\013\t>%\0374>}^\027>V\265\201>\344\373\361=e\322\016>/\267e>\0071\236>;\3078>zy\236\276z\273\010>\230\356-\276\213q\214\275)\260\307=\223\233\233<\366\001#>A\352\265\274\364\315a\274b\251\037>\013yQ>#\331Y>*\225\t>{g\214>\246\207\307<\316P\206\275\321^\021\276\223\205\357=\002j\227<;\303\274<\376f\265;\2726\'=\021\273\013\274>_\261\275q\326\357\275h\032\204=9&r>E9\257;\223!\020>\254\330\001=\264\355\300>\203\211~=\013\332\214\275\314\227\345=\373+\t\2764\262f\276f\013\237=\034&\240\275\275\204r>\331\306V=\262\272k\274 \324\304\274r\005=>\020\010l\276\314\261:=\344;\315=Y *>\224X\013\273\372\375\217=\023\241x>\302\0003=#!\350<Pv0<\235\317\230>\207z\033=\375\251W\276\200\003\032\276W\re\274\323\213)>UM >X\357\212>[\315\013>\333\323\220>\303\233\255=\217:\363\275\376Bn=\255\035\034\276\233\374\306=\312\025\243=\235\267\037\275\002\361\316>{4v>\371%k\276\375\257\350=\277\250\306=\323\035\"=\005\034!=\254\253\272=\217d~>\355\201<\273\237\204G>\3739\t=-\225\261\274W\256\216\274\206\020K<1=\267<\345\037o>\203y\036\275\027cD\276\240e\n\275\251p\214>\243\260\325=\207\232\247=\335x\225\276\214\002<\276_\274\031\276\'.j>\001 \007\275\221\033\226\275x\360\020\275J\252*>CH\010\276\275\371z\275%\177\225\275\340\005\016=\333-\235>J(\206=\016\303?\276\312\301\317\276\033\201\021>\246\233\352\273\314HB>,7\261\276\244;\010>\311\260\000>\002\273\013=N\265\240=z\325\336<\234\212\020>\246\245\206>[\037\033>\334\311\006\275\333!:\276\356\205+\275\022\315\212\277\323\257A>\337\205w\275\340]5>\241<\300=\216g\311<B\037\215>i\252\237\276v\032Z\274VE\\=\037G\330>\372!>>@\021\220\276\311\3407\275\233\354\033>z\022O<\213\221`\277\336\n\336=\334\225\300=\214c\002\276\351\331\210=\342\243\356>\2550\214\276\222\275\017;\262\007y>K?\246<\235>\211=-\371\024>O\345i\276\267\224R>\354\221\020>x\026\203\275i\\\030<A8/>\361z\033?\223\022:=}\220\031\276`h\375=+\246\377=\ny\201\274\354\021\245=\245\253\332=\312\320\202>\245v[>\311\300\237\274\"\"\261>\363\270\036\275\235\024\221\274\202(\270<\005\350\272=kkg\276PGY=\346B\022=\201\234\014>\204\311o=f\257\265\274\014d\203=\363E\222=1\313\265\275\255\341T>\206\243D\275=\006y<P\215\204\274\347\223{\273\n<S;\245\313\210\276\2339\371\275?l>=\242S9> \252]\276>!\022\277\317\347G<\235\266y=l5\023\275\256\233B?#\3620\276\255:\350>\314\'\331\276a\025\255>g\305\006\277=\211\215\276\255\366\023>&|\024=\344l\365>b\376\203>\340R/\276\031\013\027\277\333UQ\274\374\236\003>r\313I>:x(\275\304>X\275B\276c\275\231D\t\275\221\311,>G\213[\275\210\252\204>\315\327\220>H\204\251\275E\300J\275\334x\"\277\275H\214\276`Nb>bv=\277$\006\341\274N\227h\275t\250\273>\253\260\353\276\034P\256>\247\303\356\275\275g\234\275\240\220\336\274\022v;\276\006\327!>\250h\025\276l\356\256\276\262\367\224=\333\314\364\273=\242v\276B\205J\274\204G\225=\326\024>>\035Q\205=Y\n\241\275nu\224>\243=\017<\345\013\306\275\360[*\275\035$\210<\314w\203>z[U=\tg>\276d\022\014\277\252i\224=b\276\226=\016\nh\274\335u\006=\356c\013>\326_\320>\214\300%\276\251_\303=\256\343c\276\255a\370\275\003Y\252;\257&\361=\007\365\355=-\271I>\351#\034\2764\242E=\332\207\335\275r\007\231=\022&\232=:,V\2756G\006<\273\320\205\273\364.\\\275\\S$\276?\314\207\274;\221\242=\002\356\026>\005\'\315>$X\256=RZ\020?\341\300(;\317;\005\276{\362^=\032\372\335=o\252K\276\321$\002\275W-\266=M\031\262=\300\016\201>!\020\311=0\226\270<\000~\r=K7O>L\327$<\270\035\014\276\032\2561>\351 \264\276\026\177\213>\262J\362=\357xk\276\346}\207\275\353\270\374\274\n\360G\277\371&\213\275\300\336\026>6I.\276H\001\014<\034J\244;\307\345\252\276\366\"[>\311\342a>\250_\231>v\220l=\267\375\004>\323\223+>\315\364^>\365j\334<q-\020\275)\232X>\2335\t>@\003\374<@\334\336=:K0>\262\240>\276\030->\274r\235\264\275\220\no<\251 \277\275\243\266\255=\3412G\276\226\2223\276\257\233\231=\246\205\321;A\025\327=&B\364=\341g\204\275\272\371;\275\002>\215\275}M\200=\250\256_\275\234\350\030\275)\"H>\256\030\000>\t\372d\276\347\323#>I\311\207\275\307V\360<\300sK>2\254\367\272\\}\216<\204\376x;Y\000\030?T\210\270\275\366\263\325<\261\370\242=\375\0059\273MO\332=pWK\276Q\02518B\371\231=2\364\265=}\242\001\276\354\376\201\273\332&\372\274\0239\302=8\276Z=Vy\353=B^\332\274\221\266\320=\021\332\255\275\332\327\237<\001\026\233>\276\302E\275k\201\004>\304v\332=\016\351\253=q%\010>\354\036\366\274+O\003\276\234\246l>.\207]<N\310Q;+\007\032\275\255\302f;\232\006C>x\260\216=\323\247\013\276C\330\021\276Pfy=\311|\211\276N\030\234<\263p6>q\240\201\275\211\024\342\276\364\335\342\275[\224\276=\275x\344=Z\215\026=\211\2063<\304\341U>\264t\325=.\241\210<cb\032>\274\337\257<\211\345+\275\245g\001=3\307\005>\202\205\300\274\020\317\002>G\"\263=\377\005X\274\033\353b=\355\013\357\275\215S\272\2752q\212\273}\346\370\275\362v\000\275_\254g;\253\277\024=\031\024\266\274n\324\233=\202\370\023\275w\013\014\274\221E\265=I\276\201\275qJ\262<\007\266\237=\'G\266=O\256\250\274\221\327\237=G|y\275\023 \037<8\232\343;\342\225L=\036\320(:\325\255\006>\277F\023=\177\253\302=3\021\035=\204\377\364;\362\033\351\274\247\217\016>q\366j>Y\251\270?\345\225\257=\235U;<\347\304z>\370\334\253\2765\250\310=\217eG\273\316\225\326\275\211\374\316<\270\277V\277\310\"\">i\274Z>TWa\275j\347\304\276n=\231>]\"!\276C\032(>\256\274\n>E\214\007>\366\204\220>\364!9=\017s\035\276\347\177\377\276\n\307U>\332\224\213>\356\310b>C\203\205>@\254-\276\r(\304>\310\207\234\275!\253\255\276\336\361\376=\030\301Q>\326\210\376=y\364\332<\276\331\034\274\236\344X\275;\217\"\276\177\340M=\360D\273=\366\246\246=:=1>Fj\020<+/\240\271\352\317\217\275\010\204\327=\032(2\276\217\201}>\201\337\027\275\301j\014<\375\325\031\274S7[\2758\234\261=\243\317\274=\233\336A<\031l\261=I\223\232\271\021\266\007\276\035\363\024=\035\270\016=\220\375\201=\233\025\210=\260\335\014>\243\036\250>\233\312n\27615Q>WK\245\270mw\236\275B\371->A\243\201\276U:\000?\371- \276\306\000\221\276\231\342#>\327\'*>\373\037\207\276\304\364\223\276\306\270\217\276\303\257<>\265Bw\276\0063\202=\220t\350:\277\\q\276\013\315-?\033\3658?\330\236\365=\2708\341\275\360\210@>\266w\317=\366\371g=~\334\031>T\327\023\277km}=\346\250\272>\305\"L>MDG=\333\031b\276\010)\001\275*\264\357=\036\355\003\275\022\276\337<\2746\244\275\220\351\031\274\216\010\302=5:\354=,\013\003\276\'\265\t=\347\227\026\274XU\362\272\030D8<9k\216<\234X\332<\310mK\275\216\370\267=J6\020;D\006\311=nF\313<\247\225\276=Z\016%\275$\247\250=,\304\024>z\017\r>\333m\022>j\234\003>B(~=\236~\306=\257\235\013=0{\311\275&\325\243\276f\003L>=\335\266>\366\335\344\275[aL\275\023\265\353\275\350\330\013\277\342\246G>\245aa>%\3765\276\003\177d\276\214\247\266\274\320\347\267\275G\000\376\275\364a\001\277\350oX>\246\331\310=\353\214\260>L/\032>\252U\036\277?\235\033\277\231j\271>zcQ\276V/\271<\225\371%\277\244\377\276<]\002\235>6\360\225>\372\214o>{`\344=\232\314\316>\271\354 =c\316\032\276A5\215>4z\273=u\324\036\276\204\026L\276m\005\233>>#\r\276\225M\014\275\243\246\244=\215\255\033?\340\371b>\300\213\241\276\256d\256\276\341\307\034?\223\353\006\276\371\331Q>V\316A\274#\266\'=\035L\001>\366\002\305\276\027\376\201\277\362\362`=\276*\344;\325h\252\276\372}\017\276\321dz\276\022\336\375=^\356\245>\3103\333\275.a\237>\"\021s>\374\352\216\275\326\r\224>\244\025\331>\366\210u\276\0252\216=\326\354\370\276/\244\212?)f\357>\246i\302\275\251z\300\275\250\213\262=w\2664=\236\352$<\266\342\255\275\312\022\274>\250\322?>\265fn\276\271W\016\277\005\t\037\274\3047\346\275\005q5\276w\267\217>\035\365#>\373\327\364<\363\305\322;Hj\206>;\300v>J\352[>#\247A\276\315\244P\276{Y\317\275\ny\231\276\337\025\234=\024\227\300?\310gn\276\3340\315=p\345o\275\336e\372>o\177\r?d\000\236\276\264\271k\276\210\246b>!\r\313\275\325u\227\276\276\236U>!.\246=\240\347\024\276\025\324\267\276[\375\320>\325O\253\276T\013\306>l\362\021>\250\306\025\277a\r\253\276j\344a>\225\030\345\276\346\322;>\001\t!?R\n\t=\030\371\303\276\306\275\342<\354y\\?8Pf\276\272\321\212\276\343[J=\364\230S\277\256\252\371=\264L:>\003\211\335<g\222\023\276\260\315\216=\35773\276\360\231\256>I\013V>\2233;>\201\347\016\276\2075\224\274\307\251\264\275*\215B>\232p\207>\262\223\206>${W\273\374\207\300=i\314\205=\324\314\301\2757$\367=\254E?<\211\226\234\276\017~\230\274\005\177.>\022\251\356=}R\003>1\0213>\331\007\223>G\303v>\345!\226=m5<=LeS>%$\201\275\246\365\216>C\205\347=\221x\031\276\025\'W\275\262\014\033\275\361\350\267\275\200\345N=\r\223C>\254+\237\274\272>\010>\371~\327=\212\357_\276]\212\302>b\363\300>\303\234 \276\214\n\324\274\212>f<S6\313;\257\363O=\334\346\031\275C#\305\275\227\235%=\321U@\274!&h\275G\330\311>`\217\021>J\021.>}+\t>\372\004*\274\026\234\036=u37\275\303\226\227\275\272\241M=\002\303`<\307G\264\275\022\347m\275\215\375!=\202H\205=|\013\305<u\351\341=\372\007\364\275\347\213\010<\333x\215=c\260W=\344?\024\276{!\"\274\236h\350\274\310\n\013<.\272\251\274;S\035=\221Ad=$\204 >]\000\246<`\243+=\253\314\205<\237\337\215\274qpm=\"\337>=\275\244q<\247\357\354=\233\327\375=\301\235\244\275?P\351=/\324Q>\276U\023\276\212q\372\275\037\222f\276E\034s>|\261\220\276\201\321\200\275\276d\341<\233\024\340\275\255\347\371\275\017A\372\275\367\354P\274,\206&\276\337^E=\223\312\n>v\r\234=\376\216\323=u*\000>\334\315\033\276U8\017<U\207\277=\277CX=\331\311&>\"\253\343=\t(\262=z\274\265=\022d\367=\274\360\223=\347\236\251\275\031\205\006=$\251\255\276\276\364\233\275\252\317\275\275\004\037\017>\275}\201=-`-\276.\3669\277\252rp>\201fH\2766\276\301=Ur\310<\207\230.>\'\223\026\276\362Y$\276\033`\002\276\235c\'\276\234U\335\275\222^\301\275\365\205)>\372\313I\274\346\220,\276g\225?\276\343\355\017=\302u\232>)\221\360<\034\304\004\276\317\266\340=\364oW\274`\272\270>a\245\370=\330\366\370<\t\"#>\325B\237<dq\353>\204\310&\275\357\342#=\337\377\013>nf\353>\374\377>\274\274\241\342=\273\324\310<\000\335&\276\346\023\203=u9\236=\225-S=\254\364u\275sE\331\275\021\345\005\275F~\304=C#\'\274Hi\303=\333<(>>\2441>\277\243\236\275\220\263%\275\272\372a\276\337\227\352=\037\273\230\275B\3635>J\365\212>\250U\022>\'!$;\251\306\007>I\312\261\276U\365i>#`\210\275(]8<b\\\n\276\226\237\366=N-R?\202\033\r>\341sE\276\241\262Z>Q\360\004\275\241\273\016\276\233;C>\"\035\\<N\341\351<;\031\241=\315\000\306=m\353\320\276\0074\271>\344\323\006>7\343\n=S\223\013>\354\251\226\273w\013x=\370n)\276>\262\036=\324\021\005\275D;\013=\314|\264=\005\003\244<\222t\300<\222Nw=\367k$>\"\035\343\274Y\247\003?\261\016+=\3030T>uLk\273_P\240<\036X\206=VC\032\277\311\225x\276l\223\235\274qPI\276\221\324\340>S\253#\275V9\207>\020\207\374\275\331o\021?\010\216T>f\207\246>\320\246,\275\020\374\205>\235e\240>\203\347\026\277CS!\276:\224\240\276\264\363&>IX\204\276\017\212\251\275\0330\255>*9\364=\240\214\017>3\334\354\276pkO\276\236\274\351>\031~\033\276\272\336e>a\016Y>\277\n3>\020\226\271?\342\232:>\341\226I\276W\"\200>\340]\266\275\326\214\026\277\236?\300>t\205O>\357\341\307=\374P\342=\3146\"=\250\322\377=\205\024\032\276~E\332\275\343*w>\007~\226=L\264F\275\333\333c\275\n\2125\277\357,\354;\304\336\203>\004J*>)\026\177\274\013(r\276\267Xy>Oz\362\275\'\225K\276H\303\034\277h|\303>\225\317\347\276\362\354\212\275\224\207A>\307\202\335>6\373\267\277\254z\317>m\322\210>D\352X\276\273\177\201=3{\336\275t\311\204>\223\360\001\276\2217\330\276\272\003\222=\013\216\363\273m\006,>,+x>\311\2770\277\257\350;>\274Km;\365pF>r,\213>_B\273>B\000\202\276\363\326\344\274\362\007==\034\331X\276\304\305\271=\322\273\262\276\016\033[\276N\014\226>\373\335{?\244\013\260=~x\313=\222\266e\275>\375\324>\365J\377>1\315\215\276\227K\334=\356Q\304=\203\342\221\275\336T\307>\311L\211\276\007\235l>\270\"}\276F\347 \276\316\240\n? \360\303=\251\365\261<\365\210\310>\325\341\027\276\304B\005\277\177)=<:\300\372\276i\000\033>\000\302y>2\246\343=\271\217\320=[\267\204\275_\271\235>\275$\215=\005\306\236\276\301\221\002?\307\\\335>\006\243@=)\365\233\275V\222<\275s2\275?\232\365 ?\277F\003\277\231\017C?\273\360\231\276%|u>\003\242\036\277\262*\255>\0019\014\276lD\027?o\026a>;2\331>\355\324D\276gw]\276J\343\262>\233Vh?\345\321\343\275z\335\223<\010\375C\277~\302\014\276\'1E<\270\032`>\035\005\374>\030\351\203\276\267I\221>i\022\307\276?\257\362\276\337 3=h\326><][\263=\337}\217=]\351\031=\325\263\207\276Q\262*\275\203\017\223;\240\342\305=\2661\325\274pZ\014\275\223}\006<A\007\n\275\224\030Y\272?4\373<\374@\\\275\374\234\006>|r\002<8\334q<D\213\n\275\304\274(\274\026\372S=\252\314\307=\010\014\370<qe\302=\307\261~=\323)\240=(\246\250; \224\207=|\331\345\274\3060/=\010\002\363=\013[\000\276i\362Q\276X\327\360=b\017I>\325Y\177\275`\255a>%mV\276\"}\361=\212\006\231>\223\035\272=/ \032\275\253L\024\275\021\033\231<U\220\366=\264\354\311<\275Y<<P\332\364=R\215\206>\022\005\016>t\355u=\020e\230\274\200\305\360\275\310\354\302=!\275\236>\024\020\301=v\205\247=\220n\325\275\367\201\242=\016k\327=\266G\363<j\303\233<k\n\236>\267\304\357=\331e\303<<\332\272\275\014%\272=h\240g\274\204\202\345>\"\201\336\275\017\375\007=\014K\014>3\361g>\337\367\321\274\002\273w\275[\013\220\274\301\342\247\275\030.N\2764\243\366=\256\335\007\276\023\217\002\275\230\260\251=\305h:<J\254\252=]\010_<\206.\334=J`\005\275v\273\336=E\314\343=2R\017>\240-\005>;\210\370<\016\245\337=\335\372\033> \002n>s\353~\275\376\276\202\274$t\337<\260\213Y\275\024\213\024\275G\311h\274\323R\023\275AI\337<\312\030(\275\277qJ=BBX<\225\037:\275\277\345\347;^\257\237=\357\0217=iU\374\274M\r\327<\362\347!\275G0U\275\230n\344\274\243\304\017\275\235\302\217\275\323\363\3359\276zb\275\337/e\275X\320\372;\014g\313;\322\203\226\2753\351\030\275\347\261\025\274\027&\247\275\225\227\340\274n5\211=\215R/>|\355\200\277ip\t>\"\346Z>P\226x>\352\025#\277\225\020S>.]\211\274\334\315\007\276\020P\253<Z\245b\276\010\374\024?wb\037\276\020\t\035\277\206\376\336==\201k\276\"\210\326\275\267O|\276=\324\003\277\361\341\205\274\033\245S=\215\257\236;\274\256D>V\307\n\277\256\2427<\317m\260>\023\346N>\207\245\'>\267\375\233>\252i^=\252\251\014\277(\234/\272\356\366\315\275S\035\257>\337L\264>h\245\027>8]`>\365\037\235\275q\343\002=\304\213\360>\267\032\316\274\210\313\352=\263R\224>c\355\034=\266*\234=e~\210>\335\270!=\326\271\222\276\242\202\270>-\327\013>)NF\275}\305\r>\350\273\203>\332\204_>\023\333\302>\363|\">8T\214\275\263\317\001>\367)\334\273v\216\005>\007\277\264\275\035|s>(\330\356>\376\370z=kp\224\276x#\007=4\367\005=\342\203r\274\252\0377?Nc\237;\246\013\253=\031\261\005=\343\324\236>\340+Y\275\365\267\367=:\234\212\274W|\n\275\260\224\213\276cK\240=\301\300\323\276}\357\241=\354\265\333=\344\216\247=\347\236)>\\9\026>d\201\265=lA\231==\270\312=\222\017\311=y\257\244=\365\271\316\275\r\002\021=\361\206\205\275\271_\274\273K\303i\275W\377|>#zQ=\367\227\302=\251\272\023=!\260I=\004\037\247\275\274rC\276W\271n\275\361R\031=t\246\013\276\275\271\031>\326\230\367=\002R\255\274\306\\\303=p\355s=u\302g=\\\223C>\374zV\275\204\202\235=H\204y=4\230c\275C{M\274\272X\014>\2319\245;\344\361X\272\200@\312>z%\254\274\262\031\257<\323D\221\275\343\274\031>o\020t=\023\237\372\275\037\341\303>\373\334\025\276\253\353l>[l\266<\240#8=\016\n)?F\352\000>>\324\257>6\351\330>\342F\225\275]\325\253>\245\272\213=\367\374\365\275\0179\273\276\245\330i>%\324 >\352\031\037\276m\344\006>W-1\275\221]\331\276\302\"\204>W\0356>\233\'\233=\020\353\310\275HD\000\277\327\361H=\305\242x\276\276\241\004>w\220\365\276\037:\261=H\227\006>](\304\273mt.>\356\220D>\021\303\235=!\213\024=o\265\242\275(\377T\275\025s\005\275\232xb\276\311\271\323=\030\250m>\245\253n>?\037\377=\237\331(\275\351\014\232<*\224\270=\365\312\254>\200\326\025=*\371-\275\010\016.=\272o\250:\222\367\301;`\277A=\332\273\364\274t\t\004\276\31127\275b\235\307=&\265\343<P\030\212>\033J1>\211\n\232=M\024\030>\3377+\275\007\031\016\275\220\206\374=\004\273\247=\315\273\373=\"M\205>\0049\005?pk\007=\363\002\210\276\311Hl>s\211\200>?\336\257\276\365\346\321\276=\311\205\275Q\312\221=\235\236\020>\310=\272=\254\373+\276gI\010\275\233\240\236\274S\035\030\274\324`3\276neV>\227\027\202\273\230c\215\275\377\034[=\237\t\346\274w\223\251\276^\276\270\276\305\212\262=0\341\034\275\"\272\031\274F\205\214\275%\365\355<\010u\275\277\020\226Z>P8\025>-\177\326\275\247O\203?\036\315\020=\210G\204\277\253AZ\276\314\336)>ISI>j\223z?\\\0205\276N\247\203>\016\250\200>\254\024\215>\000S`?f\3301>\370\360Z\276\215UU>\377\2702\300\247\212\302\276\244\206\213=\023!\261\276aP\025\275\271B#?\225\317\307\276-\301\035\275\353\350\263\275\3638\256\276T\036)\277\223p\013=\025\373\255=C18>\334\202\250\275\271k\201>\245\275R\275M\235\274\275\363L\364\275\231&\337\276\023\371\211>\314\"\300<\342\024\273>WaI>\206<\222\275\304\240~\275\212K\202\276\200\377^\276\262\317\311>\006\357\226=\033\212I>\344r\013=~\233\265\276\264SL\276\213\371P>qb\274\275eI\260\275\030S\231\275\020a\327;\246s\217<\336\322\271<\353\010=?R\224\230>@v\313>\367w\317=\226\322\007\277\001\340:\274\000S\205>\347\261\003\276Y\2233>\n>\314\275^\330\256<SG\311=J\n#\275\215,\315>b\224\010\277\240\177S\273\256\251/=m2#>\315\216[>1\nf=\235\362<\276Ij\352=\222\275T\275l(\321\276.f\333=\263\3727<A\351\303\275:\377\203\274\202\237\210>\214\302\370\275\201[\271>\032\322->cW\324>\246\376\304>\240aK>\207Y\326=\366\224\254\275\222\377\236<\314b\000=\367\2109\276\322\212\341=d\3244?P\007\321\276\324\355\027>d\273\214>:\215\300>\240\363\335\274\260\276>>\363\326\350>\205\220j\275g\260\337>\034x\310<\263\341)\277\216\333\005<\002zE>V<\312\2775/J\276\013\224\202>\0243\250\276i\233\216>\013\373\200?\017\262\312=\013\034V?\351?\241>59\275>\261\336A\275\004\301\027\276\033\304\252=\341cl\275;t\003\275Wl\270=\\8\223\275\355:\201\276j\342\013\276?~\364\27440\303\275P\232\270\275\367\252\034=\374@1\276,\205\345\275\247W*>o=\207=R0J>\273\350W>v\237\344\2753\024\333<#\007\010\275f\211\024>\202l\343=\376\375\262<\315AU\273\344\235e=\317\340\351=\337\002\242=\357 \341\275\036\215\350=\036\3270>\340-:=\270u\t\276\334\027h\275\230o\367\2768\014+>\255\376\317\275\253oq\276\225\327\245\276\311\350\201\276wS\325=\312\253N<D\272]>\010L\321\274\024\222\301\276:\264\332>LN\030=\34470\277\363\003B>\346\276\276\275\246T\215>\251G\014\276W\221/\276S\354\234\274\244\337\225=\351\247=\275\"\307\367\274\375\341\035\2765\004\306=\227\272\017>\236\230\264>\022\256\274>mER>\214\224 >\314\331\321>\366\223?\276\322r\"\300\275WD\276\035Or>\220\321G\275\3212\352\276\030\372\253\277\331ok\273*\342\004\274\321Oc<bKA=\357\221\312=\247\235\010\275F2|\276$\350\265>\330R/=\013-\256<n\225\323\276\364\372y>\207\213d\276\267#\002\277\245\213\204\276g\0208=7\334\261>\020J\260\274\246\256`\276\300\277\231\275?\220\024>\372|\307<\276qo=y\3212\276\036XK>@\336)>\300B\360\275(\374\n>\035\'\311\275\r\376\007>\n\316\020\277\03355>\033\343\013\276_ 4>Gn\'\274`L\275=}\027<>\n\033S\276\221\312\034\274\332zi><TD=\177\226\203\275i\036\313\275\354K`\275D0\026\275g\t\'>\203\212\004>H\343\224\275|Ic=h+@\2755N\303\275\236\232\251<\036\2772;\031\275\245=\363U\357;\233WB\275\345>\225>\'\363\372;bs\235\277\354\353\227=\245\344\217<F\021\252\276?K\211=\022K\215\275\236\270\371\274\343\010\321\276\007\313\330=G\255^\275k\326\177\276\035\250\345\274\302Z1\276>\021\312=:\r+=v\030\246\276\241\037\202=\321\3509>\325\017\004>,\r1>\214%2=\333\217\033>X\020\020>w\2703=\013Z\267=y\265)\276\263H7>\000Jf>*\342\n\276\251I\210=\216\001\006>G\300s=\024\271E?\344\215\301\275i\205*\276\226Rg\276\242\225\325=!\311\221\276\022\'\334\276\033#e\275b\274\235>\303\021J?\2642,<.(\313>N\274/>\257%8\273a\025\000\277D\254\271\276\225B\241<\205\246q>\332\205\201\276\"\336\364\276\210\207\016\277\032\3368>9\232\206=AQ4\276\024\241x\275\024s\342<\204T\235>d\340\342>/\220}>\227w\">\020\001)?<\202\253\275\367\323\231\273-\301\375\274\273\333\346=\307R8\276\t\277\241\274)3I>\324\2611\276\327\013a<?\246\320\275\270%\331<\313\202\001\276\310\377J>b\001\232=\312\320\233>v\310\023\276\360\3263>\211\253\330\275\243\204n>\270\365%>\235\345}\276\275\326\233\276\243\234\005>\222\266\\\275q\260\202\275\017\236\237\2752\311I<O\014D\276\270\260\204\2743`_\276\000\244\355=5\013\223>\316\352\253=Ic\023?\225}R\275e\\\330=]F\304\276\300.\313\276;\365M>\207l\326\276\001\000l\276x\346\021=E\356\361>G\335\005\276\301\022\343>z\236\034\275\374\321\250>\032p\260=:\377D?\363\263\330\276\260\003\235>\265Z\366=Q_\260\27757\266\276@/O>R\020(=}d\204\275\272\376v>e\214\370=\327\330\221> 1\275=3\037\n?\201\020\223\275\031\263\276=nd\225=Ip\036\274\267\370t>CE(<\214P\031=f\230&\276\022<\332\272\361\365,;\341\245\030\275{f?=\030\231<\274\262\325\210\275g\253\251\275U\340\240=\030\265c\2752*\222>\n1\350=\276\303\242\275\212<\014\275\320\333\253\273z\307\245=\004\302\202\275m\307#\276\356xq\276\252\033\200=T\212=\276N\240\331\274+\264\222=\031\220\225>\356\331\023>\031\000\">\026\343E\275\336\007\226>\343.\353\2764G\333=\215\340\333=\367/\001=\342\304\203\276\007)5\277\017\247\003\276mv\252>\276\241\006=\235ps>\233H;>\354\266\350\275\2027\033\276\203s\322>_\237_>\032\222\027\276av\227>9\356 \276\034\202\225\275\'\2330=\365\266\327\276&W\r\276\312\331y>n\377l\276\310\213;\276\343\364\224\275\020\222\206>Y2\204>\014\005\240=\210\336->\223\255\370=88a>\266Qc>\035\222w=\330*\235\275\306~\030;\254\263\242>\022u&?-I\002\277\322\2610\276=B\215=\341C5\276B\007\013\276\255W\026>\267Vp>;\221\230\275f\0368\276\022\343\207>w\365\032\276\001\213\242=]\243`=\227\214\376\276\370%\224=\234\351\236=\267\217\010\277\217\343\355<\230\210\344>\233\275\260=_\317x>\314\345r\275-l\377=d&j=\277C\010>\025/8>\260X\026?FN\025\276\274\256\016>\214\211\036\275\032\360\316>=\353\n>O\017>\273f\226\024\276 \340\370=\022\257\335>\370\013[\276SV\275=TN\306<\004*$\2767\3237>\367y\215\2743\243\273\276V\337\017>\271\265(=^w\267\276\345\367C\2758\274+>\025\350\344=\025W\300\275\307\010\246=2\271\237\274\000\242o>\217x5>\207^\330\275\177i\356=\031\025e\276\r\214\307=\315+\267>!\216X\275\003\265m>\3355\n<\002\004,\277%\341H\276\030\037\016\276K\026\203\276\227Dc>\021d\370=x\233\254>\322\177\251\276\364p\216\275Z\336\225>\210\251@>&\217*?\007u+\275a\246\312\274\257\373\267=a,?\276\345\351\000\277\002a\247=\372g\270=|\234-\276{\262\007\276-Zd=\257e\271=7<\256>eL\032=\030\230+>\371l\204\275\215\227\350=O\360\323=A;\217=\342\226\310=W:\010\276U\372\010?th\334>\033\235V\276\316\342\236>\330A=\276\351\234\276\275@\371\231\276\271c\265=\313\326\362=\227H?\276\356\004g\276V\260\326<\271\273S\276\341Z>>y\304_>\306\010s\276Nm\255\275\207S7:\327\376\346\276\t\250^>S\246\004>|U\261;\204\211$\274\227\206\265=\353\353\346=Q\276\031>\177\024d\275\006\306\264<A2\016\277\t\374\200>\320\344\210=4\250\250=\210-\341>\373\315v=\253\251\361=d\301\373<\372v\017\275\270\323\020=\310\370X\276t\'P=\330~\002>\373\3670\276\356m\022>Q\345\n\277\305\002\357=\220\325\370=E\262\005>\033i\350=\311\202\307>+1\313<A\240\r>\220\311\000>b*?=\007z\031=\370\037->\344\222x\275q\241\254\275\016\337\241<b\026Q>\320\r\361=_\227.\276A\300\205=J\346c>\354\035\243\275\337|h=\014n\373\275\022(\310\275G=\202>\021\321\212=\032\265\222>\016S\021;\"KL<\307B\'=\300\227\t>L`a\275\260\316\\\276k\216\005\274\3627\006>\211\341\240<\323\301\204=\317\337\225<\274\312\024>F\272\353\274\205\326\315\274\246hS=\3767\336\274+\212\202>Nfk>\375P\003?\320A\256=\023\347\250=!r\346\273\277\244\365\275}a\000=-\n\r=\016\n\321=\022\020\226>\"NT\275\222\236\267;\302\270\324=0\203\250\275\230K\350=7\200&<\213G\240<\264\361+=\221\031\036\276Sv\327;\276\2719<\026H\326\275\361U\331\275\362\237\307;\217\020>\275<1\022>\013,\316=\343\037.\2760\347\312<\317\261\345=\315\242&>\334\204,=\200\'\r>\203\374K>\246\023\007>[N\000=+pk=\022D\215?\004\307\263\275+\235*>\376\235r;\036L\020>Q\n\273\275\263\025 \275R)0\276\235\321l>\307\006)?\210v/\276b\374`\275\220n}=\337X\367<{t\372=\235^g\275\216\007\352\275 \364\n>\372H\332<,\241\221\276\017\206\270=9\324\311\275\363z\216<2L\'=\370R\234\275n_\227\275\377\254L>x\021#>0\253\220\274\3518\231=k\204\214=[(\027\276\227\007\246\276\365*\036>u\246\363\274\206\004h\271?j\200\276\316h)>%\243>>\310\223\313\2744\277\274=\240\203P\275\036\025\276\275\204]\217:&\273\203\2737\345$\276T\305\336=^\277\304\276\361B\337\274\024\273\220=/\370(;\2612\";\355\342Z>\217\r\275<P\377N>\335\244\260=\004\333\021>-\244\327=q\3076=\225\343z=\000\330\341\274R=g=2\341v\275\222\034.\275\317\234\262\276\275\322\t\276\314J\003\273\241\224\351\275\307\224\002>\340\314,=;\270m\276\300\000\006\276_\364\'\276x\037\307=BV\234\276\337\031)=f\017+>;/\304\275*q\262=g\350~\275\370\271\030\276S(@\275\022p\347=\236\256\354\276\302\315\004>KT\256=\303\336\022\275\037\2748=\257\005\263=},\210>&Tn>~\256M>\230o\n\276z\305\313=c\n^>tpN\275\177/3\277\255\302\304\277\205\023p\275\331\262B>\206K\017\277\250\226\315\276r\010=>\305\233\372>\221\243\235>g\370.>\202D\264>\262\261\007>i\371\235\275\342\362\003\277\337\204s>\177\244\017?\344~\226>G+?\277\237\256B\277\274\320\312=8\326\273>\265\022\307\273\311\211\357=8\322\262\276b6w=\334!`\276%\355\222>=\233X><G\367\276\242v\343>\024\032\232\276\374 \221\275\354\2636\275\362^\310\275\366\270\350\275\340\341\204\274\242\270\242;\237\037\016\274\246<\347\274\331\026\305<\017U\'\273 \345m\275\364\266w\275\237\255\327<\230\213\244\275U\341V\275\004\244\311;\341\240\304\275\244\271Q\275ub\007\275.\303S\275?\243\232\274na\026\275\201Th<WQ\223\275-Z\241\274\302\244\302\275\205\320\214\275U%\351<\253\245\251\275b\036B\275\362\234\025\275\237\257\017:\260wE\276\027\020\210\276\312\222\021\276\301\016\262\275\342\312\001=\267\276U?\353`*\276\344\300d=\225,\211=\000\340\263>\250\025\264<\357\253\376\275o\274\217>\006B\245\276\324\205%\277\210 \301\276\313=\261\276\025.\024\276WM~>K\261\225\27613\267\275\304\001\314\276GY\020\276\370_\361>\031;.\276(~Q=\275\017B=\340?t>DQ\300>9KK\275\207*\237\276\333S,=\376e\016=\254\357\205\276\207\263\205=~\232p=\tV\316\275FK\013?\250p\231\275\3413g\276\370\313\257>~]L>\353\216\r?G\322\002\277q#\302\275%\352\266\275+c[\274\367\225\244>\233\255Z>\354\025\242\275r0`>\310&\365\2753\265\261=I1\375<\313o\217\272@\313e\276&\341\230=y\277(=!\2514\276u\367\013=4\341f=a\027c>lj\216=.\315\263>\033 \274=6\271\004\276M\247\203=mr\033<\311\334l<\304o\354\276\016\340\027\276\014\330y\275r\257\261=\367y\350<\031\210c>\365\231!\276e\013\006=\352Y(\2747\t\001\276c\203w\275\310V\371<U\230\233<\227\204\307\272\365\211F<\245gf\275\n\204m=M\311\002=\244\264\230<\233\001\256<,\204\232\275\026\217s\275\301\035\237>\326\272\001>\211\271p>\307O\311=\302b\210=X-\220\276\255%~\275\333\343\\\276K\244\333\275\327\247\325\276\337hB\277\304\360F=\257l\255\2768=\334\275\311\212x>M\'W\276\"y.\275\2422\020?\3168\255>q\326\337>$\001\000\276\013W;>d\242\321\276*\252\354>\327\257\021>\270lb\277\374\377\321\276\r\026\r\276\305\244\301>\2037\233>\324\226\262\276M!\206>`\020\233>\016\261\272>]%\">\"\022B\275\3200|\276\310P\273\273\243\261\236>\234\3314>\355\234\220>\013ZT\276\004\314\001\275\262\370\341>\023\'\203\276]q\274\276x7Y>6\233\222<\262W\203\275\240!1=L\302\033\275\340n{>~\212\253=\312\351<>\232\032\355=\273i|;\177\255\027=\017^\332\276\030\247*\277P2[>G\203\346\276\350\306\251\276!\264\t\274g\210_\276J\267\226>\220k_>\013\204\025\276\303Os;I\206\265>C[\232\275uC\367\276\254?~=\355q[>o\266\022\275\340x\273\274QUa\276\237\r\013>q\2377={\227\023>\226\0030\276v\316\010\276\320\313\014\275F\355\260\275@\251\310\275\332\007;=\302\200\235\2766\014E=\200SW=\312\266\264=\267\311\036=\026\200\251\275q\243\362< \327E>\277&\271=\243\017?=\252!\003\274\247-\256=\250\003\211>\010?\244<z_\204=\034\303\024\276\257\3643>\304{\003>Oq6=B\r\237\272 \001\024\274b1;\275\325r\371<\'64=\341\270\303\275n\334\202=\233\343&?\331\301f\276vH\352\275\017\010\022=\225\320)\273\334\260\341;/\t\204\276\226B\003\276_6\036>\2002\021=)k\213\276y\360_=\032\373\253\275/O\272\274\031E#<\305\205\037>#\246\320\275\317\326\272>\223\370\274=L\317\204>\226\324\005>\022)\240\275.\326\220\276\254\362\204>\210\336\262\276a\215T\276\324\212\362\275\372\332\304\276ze\024?ov\262\275\317\237\357\275\242\253\274=8\005\002>\016Md=\017e\006=<\264\246=6\227\003\277\362\002\376\276?\374\211\274\225\212\000\276\364oH<}\031\031>[?W\276r\243[>6\266\3159\265\035\256=\257c\005\276\236[$\275\214\216d\273n\326(\276[ \215\277&X8\276}\367\324\276\221Z\246>\316\341\021\276-c1\300\210\340H\275\364\037\203\276(GE\276\025\027\032\277e\037\021>\371-\n>\371\356\203\276\322\210\377=\300\264\333\277\362I\245\276Ra\275>\272W\t\276\363\340\325>4\314\317\274X\370&\274\272\376\032\276\357o\030>?](>\3113\r\275\256B\010>qzD\276]\243\363= \324\350=)\214\201>\037V\260>=zM\277#j\263\276\202\303\022\276\001IC\276\355\'x\277\235\307O\275\214\331\271\276\331T\243\273K\031j\2764\274\220\275\302\247t\276\2366\336\271\02468>]zT\276A\265\310>\335T\243\275\276a\320\275$MW>\201l_<\tLN\276\327\361\333=?$\317\275w\317\214=[\275\010>^\204\215>{\302L\276\273\2561\273\'\210\016>`\212\207>\253;#>\r\240v=if\223>\335(\001=\356\314\326>\244\2279>\313}L\276\273\317?\276\271\347\324=/\374\303?\256\tq\276\031\211\337=9\262\342\276\317N \277|6\010\277\215b\026<\326\306\324>\335N\332\276\'b\321\275\034O\304>\217\016}>/Oh=O\334M?h,\271\276c\262\222=\315\366\320\276\360\271\236>X\372|=.\226n\276Rj\323\276\3024\235>J\251_\276\037\030C>J\354S>B\363\313\275\310\306\357\272\301\315K\277O\223\277=\276\003\262\276\276\3453>\317B\256\275[\254E=\215\265\256\275\240\242\322\276\006\357\327\276\312|\353\277((\027\276BW\r>_\223\000\276\377\373+=I\307\035\276\3645\304\276\356\372?>\\]\020>zJ\273\275\010!\236\275\223\306\345=78\300\275&\321\375=\312wX>\235\344\243>k\210\253<\217z\316<\336>\240>z\226:=.\311#>L]\333>v\345\220\276\356s\327\276Ca\374\275\370\332{<4i\370\276\324\306\337=/@\017\274\247\322\351<!$@>q\225\226\276\340\333\212>\n\271\312\275w^\236\275\324\202\324\276vt#\276\001\351c>\314u\275\274\205P\233\276\3274\266=L\006\271\276\030\230\222=) ]\277\004\326\213\276\346\333q\276m2\202<\363 \374\274\324\024\235\275h\316~\275#\252\026\275\002P\341\273\306\004\344\275\201Nu>\264\252L\275\233\273\237\276\022\373\271\276\026\226\231\275\350p\222>\324\304Z>\311\364\236>@\215C>4\177u>\241\331R>\034}P?\007tD\276+\311*\276\2708C>t\347\020=\304Nl>\310\353\274=\027\353\212\276\362\205\002\276X\242Y=;N\257\275\'\234\307>~\375\000>Wu\201>#\273\027\275\240\262\274\274\274\245\246=\030C#>\020\0045=PN]\270b\274I\276\n\301,\275:\206v\276[\247\036>\\h\337=\2060I>\250\373>>\t-\270>\265\273\224\276\306\317\335\276E\352\251<\305\227\213\276\366\013\\\2772:\r\276\346\227\341<\300\266\202\275\334\341R>\300BC>\031\276\214\276Nj\020\275\3160&>\272\327[\277\265f2\277VM\241<\rj\376\275\342\271\227>\330\227\212>\033kF\276/q\242\275\267c\242=e\311k>ui\">q\217\301\274\361\263x=O\212?\276\221\377\264\276\355\226\201>\032j\371\276\243\370\367>\253\006g>\313\0161>\316\317,>\032\306r<\236wh\276\357\031W\277\263$\005>ob9\276\025\376\361=\225\003\323>\214\270R\276\253$\224\275|\271\271>\274\273R<\2648\235>\037Q\001\277\006\351\"?[i\030\274\231\225.\274l\002`\277\376\224\001=\t\3356\277$\315G\275\350\013\\\276b\031e\276\314\301\336=\304d\265=\270\277\003>\206\263\251\277\345\211g\276\370}\252>\027(Z\274@\205\243\275\271\353\032?v}\001\2760\347J=\330q\"\276\253\312V>5<\007=v\304\005\276Wy\217\276\265\255\361=\023\301\006\275\322)\303\276\222\034\323<\307M\226=\304j\210>hw_>\rB\305>B\322\212\276\354\304\035>\233LM\275\024\367\030\277Y\315|\276JVj\276}9#>.X+>\223)\222>\340p&=\221\n*\2753m\362\276s>\353>\222\300\315\275\312D\257\2762w\215\275\221\2704> \330\234\275!Q\033=\342\2647\2761\245\264\277k\370Z>\226\334\r>\312V\202\300\327\0021>\311\234\027\276\260\225E>\310\021\357>\362\204\032<\037pF>\345V\237=\244\327\227?\203\246\353\276\306\013\211>\r\206n>\017\215\322\276\242\036J\2769\226g>\330\305\020>I#\337=\372\207\203>\036\300\224>\340\262|=\311\251\204\276\345/\016\276v\023\333\2766Y#\277\332\224Y>O\273\322>\033o\217>\034\0046>+\210\334\275c\r\222?\'\272\332\2766\016\236\276\005\274W\2773\034*\277\014\302\"<\220\345R>\306\276\222\275\0017\310=\014\010\365\275\023\030)\272\344\233\026\277+<\306\276P\347\214\276\365\243\017\276\244\225e\276\212\347m\274{I\226\272\236?=\276D0\215>\034<&\274\014\267\263\275:j\313\276\241\255\202\277\203\021\014\277\215\252B?W/\364>4}\213\275(,>\277\210\255\254\274\261O\215\276\353\376R>\326\260.?\177E\374\276\027\rZ>)8\336\277\275\2326\275\375\267\304\276\307\371\225>\013W\214\276\245\324\234\274V\275\227\276\035\321\316>\305\372\017\300\361\027!>\363\031\203\275\304f\326\275e\313\205??OL>,\242\031\276\222}\n>0\350\233=pX\036\276.v)>q\032~>\235\327\314\274\333\025\213\275\t\347\354=\366\234\247<\023\324:>\035<N\275\272@H>m\025\260\273$\322\310=\301,\347>\370\2322>\000.\336\275\224\326\'>\334\363\037\276\013\350\367\275l]2>d\216\330\272\017C\255\274P5\247\276\213\210}\275y\246,\275e\000\200>\033H\306\273tS\247\275\265#\366>\350\316D>\255\001\007=\320\330\330\273(\"L\276\205P\277\274Q\317>\276\020\257&>*\021\265\276\227D\227=\307\265<>\352\320\014?\302\350\211\276F\216\247?\252\177J\276\273\014\020\274a9n\275#\371\225\274\002(\021>n}\005>\304\035\253\300\374\345K=rh\017\277\310T\201>_\207\224>|-\307\275\026\343\243\274\321\342\327\2763\324&?\354\347\010\277\364\264G>\271\331\r>O*\237\276`\367\263\275o\270\266>\217\3241>z\272Y\273\345j\302>t\277-=\243\336\233\276\236b\226>\214U\274\275\335C\307\276\3314\355\276DT\013==\\\253\274\347\221\021\275\236\337z\275$wl\275;\030\207\275n\242\022\275\264\231q\275\036\364\001=\226\231\344<\n2\005=8\260\346<?\0362\275\304\312\271<:\214\274<\374\037W\275m\024\357<)\376\214\275r2\021\275\364\344$\275\346\361\212\275\352A\205:\t\303[\275,\241\336\274\2461\\=\320\3342\275\323\303v\274\365\303Z\274\007\3062<8J\331<\227\375\034=\244\004\211\275\224\254\313\274O\256\204@\276\223:\276\242w\202>\230\205\330\276\225\222\314\277oC>\276\250\0269>\344\215M\300N\375\261>\255v\210\276`Rm\277\324\213\266>~\346\010>0\n\010?WHg>/A!?\330\331o\277L(\241>bs\271>K\246\014\300\307\337\341\2766\016\257>\315\004\255=\275$\027>\t\177\346>{\017\371>\025C\251?O\034\">\246d`\276j\250\222\276\316\311\277\277\257\013#\275\025\320\232;3\240\242\275[b\267\275\037\230c\275m\237t\271\352\262W;\240\027\270\275@\341\022<\261\017\354\274\277\364_\273hmu\273/\014\247\275\251_\266\275\022Wi<\341\303\234\275\030\204\213\275\033\313\252\275b%\007=\343\021\216\274o\351\270\274:\221\033\275\226e\235<\2343\276\275\000\253 \275\263?\210\275dt\307\275\013\270+\275dTW\274\264l2\274\242f\261:\302\265\004<&\0261>\330)\233?\346\237\307\276\365\352E\273\004U\326\276\202\303\024?\273\253V?\246\313\225\276SQ\353\276T\3623>P\242\273=\245*\312\277\027h\301>\",\377\274n2\252>\304\200\214\276\367\004R?8k\272\276q\004\227>4\243\201>yq\264\277mR\303\276\033\240\310=\333x\266\275\234\334\022>@\360\250=\202^\306=\005\365\220<\236?\352\275\177\213\270\276l\236\377\276\032.}<\024Y&\276\260\371\304?\3363\364\275\034\326\250>g?\n\2776vH\277e\257\023?\235\377h\276S\370\000\277\003E\261=\377\002\263>\206\312\303>^\032\327>};\304<?m\240>\3102\241\276\037\371\303>F\335\212\276\260`\226>\215\237\001>\322\336\262\277\316;\311\276\245\352\030>\344#\340\275%\241\316=p\025\373\274\330\325/>\321\340\346>m\246\317>\226\031Y>\2340s\276\035\236\275\276`\373\267\275\032\267\020?l\307\360\276D\262\375\275\222\335\243\276\254\247\225\277Swu>q\363-<@\007-\276\3035\271>-\001\231\275\246\tQ\277\276=\005>\276\206\327<\263x\010?*\311\023\276D7\315>^\2067\276\3628\201\275\354p\031>6\345\\\276\227\234\221=\255\023a>a8\321=\355\214\341=g\3555\276\032\250\261>C\371\305\274\233\376.?V\023\023?\227y\357\276\205:^\277\\V\201\276\177Z(\276\330\207\317\275Q\325\274\2764\227L\275;\237w?\330\031\273>\277\234\232=\034\354R>P\233\223>ke\200\276t\203\274\276H\n\203>\336>-\276F\300W\277\274u\202>H\337\213?pT\t>@\017\367<\001\252\317\274\200{\001>\321\234\031=\2219\376\275\177\375N\2740\230l\276\366\025#\276,\303l\276\021\335`\275\304s)?C\347\026>\334\272\033\277\360[(>-&\355\276Z\2371?\r\304\323\2737LG>D\202\035\277\2626\245\276~\223\010?\216\241\240\275\242)\206<[\317\020?\r\201\"\277\013\263\207<oE\\?\'\371W>\230\243\211\277V\303\305=\362F\031?\271\026\264>+si>\217\231\262>\310\212\306\273\300\316\245=7\376\200>\265_\241\276hO\210>\361(\016\276F_\213=\203\034\342>F\227\237\276j\364d\276wU\337=\027 \202=\334 \352<\254c\273>\340s\'=\250,\372\275\243O\267\274t\227+>\017\034\036>q\230\001\276\264xN\300\007\251\371=\260\254\306=\324\305p\276c\014\242\275af\222\274\\\353\001\275\347k\246\275\262\n\003?\336\'\322=\004\351v\275\004g\177=^x\226\276\223)f\275\311\252\005\276\245\2465\276\303cA\276pgs\276D*(<\"\214#>\324\363\005=\204\201\246\273\007\322\332\274<\335\227>\036\"z>g\360\222>77\374\276\035\353\345;\221\371\010\276\"\237\206=@\352\312>\261W\302\275\243\214@;\010\002;=\217\207\367=\260\242z>\273\202\375\275\204^\316\275 i\331\273\203\215\255\276\262mc>\254o\272=\274\212\231\275\313D\013?9\356\232\275\177\267 \277p\330L>\367O\273\274\035\214\372\2761&3\275\266\2716\276l\352v=AB1>fQ<\275g\006?\276\n\250?\2751*\\>+ E\277\010w6=\326\344\240>\245\217Q\275\323\033\016<\343uD\274b\345c>^\361\326\276\2533x>\340\033\033\273\344\275\225>\212\256\311\274\202`\203\275\\\321\231>\255\342\217>\r\312\261>o\351H<_\006\322=-\245\274\275b\233U\276O\311\202\2759/\027>q\002\025>e\212\375=E\246\205<vU\"=\254\271\003\276{F@>\013\017#>\250h\204>\367b5\276u\364\230\276s\226\177\273\335\370\306\275;\276\327\275\333f\211\276\334W\302\276z\347\000>\311R\207\275f\261B>0\310\301>o\216\314\2749A\316\276\017w?>\204\n\220>Zb\277>k\024M\276\215\244\031\273\245C\377\274ZD$\275\361\373k>\253\271\212\276\244\006n\277\332\223\216=d\303\020>\030R\272>?V\250=\332\262\371\274!5\010\275~\266\224\275\333\224\013>\210\337\237\275X\350A\276\260\007%\275\235\254\031@cI\260\276E\375\026\276\267\242\224\276X\200=@\013<\217>\274Aq\275\033s\243\2779\215\230>\345x!?\2165<\276X\350h>u\203\233\276i\004\037>\230\035+\275b\306\023?\263\301\357\276\2123L>\315\253\223=\335\243\245\277\2054_\276\002I\323<\301\017\002=\305E=\274xY \276\2706\264=\225R\210>^\270\345>q\224!\276\326\345\371\275RR\026\277\\s\215>~\357\322>B\024\032\276\352\360\005\276\216\3046\276\276\025d\277\364\t\275\276<^\265\274\363tX=\320w\375\274\233\215\"\277\257LS>\0073\013>\373\"\342\275\215^#?\025n\261=\372\370\225>\267\212*\276\214y\346>*\234\204\276X\245\332=\265\217\355\275&G{\276}<\333\273\212\332\t>\205_^;\014/\316\275\017\211\r\2743i\203\277Pl:>\332RC>\373`\233\2763{\006=.a\277?G\240\030\271\362v\372=\003\237}\275\332\273\227\275\246\261z=\301\303x\274_\3572>B\363\243\275\242\n5>\314~\241<\320f\267\275\363\275\371\275\253x\254=\371\303\377\275U\000\267?\010\316\006>\370pv>\360L\036;\036\232\370=^MB=g\2068>\030\274\216\275\365\317!=\373\030\216\275\205\255I\276\003[\372=\350\310\313<\217\347\200\276i\336\205\274M\3400;_\253\322;\327Y\316\276\360\363\027=/\341{\274\244\205\023=M\337\240\276ye\261=`(\032>U\222w=\000\334\211>\253\226U>\204l\204>\3525c>T[\014>\201\245\r\275D\'O>\177\345\344\276\214\320\213>\315\206|=\006Y\214=\026\230\205=@\261\216=\227H\314<\350\274i=\250*\020>\375\350L>\273,V>\341\260\030=h\001\023>\237v\006=\347{\203\275\016\321)=\230A;?\255T\251?\366\013\001\277\324\331\227=h{o\276s%@>\251n\264\276\367\226\t\276\224\361\273=.\344\245>\375p\266\275`\020\334=Ouc<\033\210\":N#\204?\311^;\276\274E\302:\231\344\021=a1n>\201]L\276\331\216W=\177jp\277V7 \276LT\254\276\231\341\375>TG\203=\203Wx\276\337\230r\275^\275\\\277#\273G>&NO=\204l4\277lj\212=\370\276\004=\224\"\005\276F@z\275?\261X\274b\256b> b\302=\0221\022>g\224\251=[\363F=\022\200$=j\275\004\2762\217\007\275_\235\333\275j\'m>\005\033\261=\273\315\253=\002$\200\275v\202\205>\223\344U=qL\275\275\213\203`:\252\343\270\274\240\306\255=P\005\321\275\201\212\362=\000y\256\275f5}<*\004\036\276_\223\034=\222\021\307=\026\206@>R\264I=c\257k\276TgB=\222\332\252\274\003\374\257\275\2209&\276,6\213<\364\315u=w\210\025>Q\355\">d\371\264=\3478\201\273<\030_<\260\204Y=\247U\224\275\311(U=\311^\036>\013\224\007\274\370\345\001>C\357W==5\033>?\010\237<w\253\246=\250\262\000;\026\220\255=a\3521\276N\0213=\000,[=DU\322\2735m\241\275KxM\2750)\330\275\260\242\246\275\335\020\310<\330\373\205\276\330{\316=%\207\034=3\'<>\205}=\276\321\"\200>\035F\260<\273\261s>r\337\224\276\353{A\276\211\232\337<\257\326\231>Iq*>+)\271>\3527\302\276*\374\247\276\332\2423\276\n\371\325<\262B\212>kk&>\034\223\177=\211]\220>h\324*\277\312\205\306=\315\236\020=mqb>\020m\306\275\225\275R>\364l\263\274\364\267V\276\221\003z>\274O\026\2768\2328=\t\333\307=\023\245\262<\245<\205>\303T3\275*X\236\274\351z\342=tO\253=\330\017\034=\254\315(>,JZ=\370&\334<o\245\241=\273:\356=kB\311=\340o3>\247\255\373<Xb\306=\342\232\213>+[l<\224\232\337<y\203:\275\332\010\017<\020\031G\275pa\276<L@\006=\232\331\362\274\226\017\352\275\024\324\033=\272\\_>9\256>>\215\014\237\275U\250w=\033\007\350:\243Q\217=\006D\234=\3175\231;\325\321\256=Ec;=Qr\320=\205\201P<K\000\006\276T.B\275\014\336O\275\223S\000\276,\265 \276/\330\353=\312\216\267=\243\005\017=\020\321\337\274\363Q\r=e[)>\300\301\371\273ae\360=U\302\025\275\345J\255\275\2328\257<N\302\227=\034\303_=`N^;\267\235\223<\304f\202=H\355\331=\332\\3\275&m\225>^\275\273\274J\271?=\315d+?\214_\275\276\016q#=\374\001\013>o\320\211\275\216\312\000>/w\273\273\374\320\023\276\336\241+\275\207\025\372<0G\327;\006\025\322>\333&\027>2\021\t=%\340v=E\030~>\235bD>\236A9\274w=\203=\373\342\207\273\224\377\002\275\024x\235\274\300=\346=\265\"\023\276\372\233M<\357\325\363=\031\352\265=\220\203\023\2762^&>+\310t=\220|\\\276\205m[\276\262\035D\275\343s)==]\001>\320\371\177\276\2749\216\273&\267\226\275:\006\240\2744\004\206>\242\023n>\3408\200\276\337\351\331\2749\005P\277\271\226$=\340\220\031:\203\027\254>\177S\253\276\211\216\351\2757\322^\276E\267\325\276%\027\017>}\016l>#\256\327>9\310H<wD\234=\234M#?\014\330\200\276\020\331\020\276\262\352\010>\373\021\"\276\\\'\">_5x=\365\014\274\274Tb\236>\2329\023>r&\225\273\334\273\333=\227\227j=\370\034\006=\255>\341<a\010;\275h\311\013>(\266\232=\037\222\304=\233-\274<l\264%<~\n\201\275\232\2211=\247\311+>\351\260i>\260\263\362\272\360\027\006>\347\375B:g{\035>\0256Y=\021\223|<\270\331\262=\220\200}\276\253ta\275T\177\025\2740\334\231=\001r\321\275\2700M>b\3749\274\331\256>;\262\016\267>\232\304\204>cX\325\275\'\225\224>v\223H\275\373\224\r>b\221]\275\271V\216=O\226\201\2742\032\247=\324\261\246\275d\375b>\267>\227=\2349\235\275\322\253\n>\312.\256=-AM=\213\377\244=\210\316<>\200\233\350<\276\330\377<\255\254y\275\330\306\261<*\263\005\276\305mk\275\370\032\266=Wi7>1d{>K\374\027\277w\3401=\270M\300=\035\024~\275\031\237\254>\272\234@>\215$\251=y?\257\275o@A>\260\321$=v\025\327=YS\"\275\006\023\250\274\237\273\332=n\356\366=>9\203=\230\017*>\252x\325=\333o\315=Z\324\217>\2326\305=\320\362\002>\031\026\276\275\260\3321=\371\0143>y\340\321<\314$\037>\374\313\215\276\367=\022\276<\300\224<\033\225\366<\361\033\362=\313\365\366\275]\337I\274+\314y\274A>\332\274\373B\035\275\207i\262=\276\377\203:\334\333\204\274\336\331\205=\"0\230\271\246<\352\274\200\261\006;\307fN=\275\017\022\275\007\203=\274a9~=\306\312y\274|=i=\333\246\216<\202BE\276\003\251M\274\200H\210=\256E\340<^\314\006<o\260|\274}\211!=\346\t\346;Z\000\254\274\314\370H=\277\335\305=\345\352/=r\215\254=\215P\007\276\357\\~>\276C\263\275I{\377<\037\350I>\177}\361=\364\354\326=\236\204K=\261!\017>\203B\352=)\215\r\276\326\311\313=/D\244=\2508\222\275\273_U\276x\350*>>F\006=4y:>/Kd\275\365\307Y>c\214G>\344K\345\274\202\244\310=\276[\211\2755$\342\273<\001\235\275\374\n\313=\353s7<NHC=r\331\267\275{\2567\274\374\243\250>O\252\264>\230&\235<\347\037\256\273Q\030B\275+q\321>Ryl>\036>\006> \033y>\372\260\373\274|-\n>\251l\223=\312\260\025=\322)~\276o\2767>\322\345Y\276\3542\276>\335\362\353\275\307\"\020=&\247\226\275{\205Z>\027cF>M\271\366=\264u\321\275\241\257\324\275FW!>\177\320\200\273\337\341E=\203\177\332\275w\326\243\274\007\256\244= \306\034>\370\033\317\274\314_\016\276{\320|=[}\375\275\034\363+=1\226\006\276\221m\"\273`\342\370;\330\357\364\276\361\323Q=p\035\353;\343\330R\274\211\276:\275I\216\204<\371\020\242\275\246\356\341\273\236,\032\276I\027\326\273.;\t\276\214\317m=\017\335\215=\300\335\010<X\266D=\211\357\027\275\023\3048<\010F\367\273\230\235\261\275\361$\255<|\017?=r\274\'\275\345\335G\275`\304.\274[\342\262=,\t\350=\360\tm\274\257\373\201=\341\257\245\274\323\224\220>\210g\215=\306\316\354\275H\303\343=\026\266G\275\212\273o=\307J\r>\220y!>\243\266.=\214\347\265\275\302@\216\274\346=\027>F]\037\274\331\260\030=!&y<\264t\246\274\022o\334\274\376\362J\275\0370\231<6Ea=-\212)=\310\007\235=\033\354\335:DB*=#\324\214=S\364\261\274\312\0358>\311\\X>%\345\354=\366\216\365>\227\311\330\275\365\332\313<K\032\217\276\0133U=r^?=?\320/>\222u\005\275>\212\203>\021 \372\274\203\t\032\276\360\202#\275\245n2\273R4N\276\202\373\342>\264rc>\006N\250=\376\321|\276I\203E>\2350\233=\363\317\003\275\223LH>\322\323Z\275\352\210-\276\376\000]=\250i\370=\266\272\257<j\220\335<\207\354\010>\3438T>\224\033\200=\rp\211\276\371\256\203>.\302i<&\023D\274=\373E>W3\272;\tJw=\337\367\241<]\212O=\255Qm\275H\220l=0\315\214=\2675i<\213\217\250\275,\367\374=\265\331\234=\321u6=\264\335\317:Wb\372<\374\364\270=\311\334\320<n\001\356\275{?==)\256;=_\304\\=\002\025\201=n\204\313=\305EZ\275BB\231=\232\"\306=\370TG\275$(\333\275(\357\r\276&k\267\273\251>\201=\037\343_\276\327\026\211>G\241\034;&\024\203\275T.\226=\231\247?\275~\377c\276\276B\t>\246\363b>\245\005@>\035\032R\275\300\005\260\276$_\321>:\206\264=\312F;>\036\221\250>\271p\010\277\021\300\017\276\246\235\352\275\207\261\240\275&n&>\300\326w\275\037t\327=I\225\220\274\355?\n=\232<,\275\030=\025\275\300\233\373\275\2438*> \351\372>\221\tn\276\022\226P=y\331W\273b\233\207\275\312ZQ>\223z.>{\342\231>%\253\264\274KD\300\275\2016\356\275\302A\251=go\372\275\237\377O>w#[>\354\343R\276F\312X\276\304\025^<\251\242u=\205\237\236\274m\225\225>z`9\274\272\255;>\341\221?\276)n[=;\2171>TQ8=E\352(=\213Q\204\275\002\372\001\276\361\025\322\276\337\356\242>\206\334\203>\306Ib>\237\304<=\233y\356=mAZ>^\021\202=\230\341\244<<7\036\276\"\356\377<Vr\245>w\261#>\223%\007\276u*\014>\313\310m\276P\n6>\251\361\205\275p\257\304=\213\372y=S\347\214\275\002\022\034>\361\257\357=\362\027\263\276\213\213\313\274S\364N=\365\216\255=PJ\026>\027\207O>}\250B\276\307\355\336\275\363\212\345=\372\251\023\275\220\265\201<\033\237\002\274\265c\261=d\372\350=\365J\000\276\372\003\214=\\\205\200\274\246\276\254\275\333SR\275\027\315\256=\261\242\363=N\233\026>iO#\275\230\347\306<\305\253O\275\272\2318=O\310v\275\\,\333\274c\301\235=\007\265\020>\336W\224\276\356\253\371\275,\360\227\275\3279^\275\030k\030=\256V\005=\021\200\253=\220T]=\260\026\030\274O\2315=\2004*\275A\247j\275\336\247\026>\247`\001\275\374m<=\206\365n=\236\363}=\230\302?=cF\356\274cc.\274\216\024\205=\233P\347<\207\020\007>\215%\240=\251^\030=\266\257W=\232\036\001\2760\234\266=\361%\217=?%\334=\376\266\204=\024\021B=p\035`>?q\'>\267\312g=Y\331\312\274\225i)=\034\272d=\2043\274=\357\263\032\274\023\203\313<\367\222\207\275\376\342\001<\331J\254<\033D7\274$\230\360<yBz=\267\023\223\275 \313\311;\315\2467\276M\221*=\365\367\323=3\260\237\275k\'\332<\2476\310=<F\010\275\371\316\300\273\203\302\030=\216,-=\024N\235\274\235!\333\275e\244\204<\220b\231:d\016=>\341\022_\276H\252\305\274\340W\215\274\000&#>\201\365\315\275\221<\331\275$\210\254=R\344\255=\336#$\274\034\235\020\275\371F\024=u=p\275q\217\202\276G\321N=\270c\345=\227\325\237=Z\035m\275\303\257\244\276e\251\214\276<G\344>\341\020\272>vK\353\275y\r\032\276\265\253&\275\337GM=\004&\250\276\224\036==\353E\206\275y\004\006?\371\201\257=}(\305=\347\373\020\275\203s\214\276\276\231&>\367q,>\203 \342>\326\"e>\356\005\023\274\206\"\244\276\374\n\236\276\237\000\022\275\330\346 \276l=\205<;\3322\276\331\234\007>\"A8=`\357->\277\327\301>/\377\241=P\277\000\277\373\013\010>\377A_>\366p\274>\333`\034\276\351\214\001>G\365\344=1\242\275\276\331\261[>\n\236\">\2044\345=\317\222\002>V\277\006\276\025\262\211\275\362\004v>\201\245\320>z\260:>\026\024*>\005W\311\275+\020S>\234\003\247>\322\346\256=\301X\223=\361\201!\275\234\016\033\275z\354G<X\"\201=\021\323A>g\211<\275\305\245\002\276\370\362\220\275\321OI>Ur\354>D\276\022>\377\375\362<\323 E\276\207\257,\276G\366\215\276\213+:=\'\376\242>\325V?>\317\312/>\334f\220\276\235y\345\274\213k:\273s\201\353=\237\314\304<L\\\355=\263\211\220>\222\347|\276\232\274{\276\242\353|>\333\256\341=\315o\250>\354b\232=\264\352\001>\301\216\004>\376-r=\264>\016\276+\2103>\317\002\377>\317\316I=,\007{\275\277*\006\275\032\203m\276\333\006g>\201\350\270=\231\n\273=))\262=J\030\256\275\3025\306\274\3213\345=\223t\251<6cG\275u\3142>\035{<\276p\226[\275\271u\205\274\\\005\324=\226\223H=\n\317\355=$\275\321\275\354\201\227<u!]\274:\000\334\273\322\355\220<\260@^\275s\277\240\27626\002>\314G\024\275y\356\003\276gf\372<\275wd\275d\364w>i\253\005=\"\316\232\274\313\003;>\257~d=+\361h\275#\000\013>\211(\245\274\215s\316<\365yH>\331\327\232=\335Y\256\275\177g\001>\232\t\330\275N\357\334=\357\324\t=)<_=\251{\033>\242;\">N\037L\275XL\236\274\036\306(=\214\211\023=\211\343%\275\2043\314\275\035\223\020<\350\377c\274\356n\235=\013\024\361<\023\243\">\236%e>\323i\001\2776\306$<tc\024>\316\034i>\373C\030>\363-\232\275\"7k\274\262\245)>\242\263n\276@\365\374\276\007\221b\276\237I0>\310\217\203\276\002&\240>H\367@\277\305\033\322>\232\350\034>e\260r>?\354\301\275H\024\260=\032\004\366=S\274\220>\024\372\237\276\312\206^\276 