node {
  name: "x"
  op: "Placeholder"
  attr {
    key: "dtype"
    value {
      type: DT_FLOAT
    }
  }
  attr {
    key: "shape"
    value {
      shape {
        dim {
          size: -1
        }
        dim {
          size: 8
        }
        dim {
          size: 8
        }
        dim {
          size: 1
        }
      }
    }
  }
}
node {
  name: "encoder/conv2d/Conv2D/ReadVariableOp/resource"
  op: "Const"
  attr {
    key: "dtype"
    value {
      type: DT_FLOAT
    }
  }
  attr {
    key: "value"
    value {
      tensor {
        dtype: DT_FLOAT
        tensor_shape {
          dim {
            size: 5
          }
          dim {
            size: 5
          }
          dim {
            size: 1
          }
          dim {
            size: 32
          }
        }
        tensor_content: "\307\205\225\276\251\004\257\273h\'\374\276\017i\201\276uU3\276\2042^\276\363L\341\274AmA\276\377\247\211>\252\006\036\277\313Z\024>\200\246\257\276\262\2533?b\261\201>G\206g>I-?\275\262J\304>\262\2670?\346\340\200\276.\035\235=x\245Q>\274\261\017\2765\217E;\364w\237;\304J7=\363\r\201>\r\371\007\277\225\322\204\275\265\222\360\274\241\3633>q\311\016\277[4\205=\334S\031\277\263&9=\323\221\031\277at\207\274\300\271A\2765\010F\276\360\334\013\276\304\377/\276<\264\230>\301m\022\277@\026R\276\252\005\010\276z\027_?\274\336R\275\371\307->l6\276\273R\320\337>\323>\274\276\251\025\247\276\177|\307>G]\t?#b\016\275\301~7\276\337l\362\275g\340*\276Y\311-?\270\177[\275\347\304\220>\207\255-\277\357\343\017=\363\275_\277I\265\240>\255\301B\277ppj>\216\274\207\275\313\211\305>\014\311@\276\353\217O=\363\034\300>\211R>\276\014\222\320\2766w5\277\375l+\277J\262\221\276\014\325\372>\020\021\242\276\373\311\214\276\300\350`>\311\322\261>ZK\177\276\275J\345>0\314\263=\260\004\237>\361\273\241=\000T\212\275H\302\004\276\341C\265\276\340\277\261<\365\nx\2766@e?\237\233\357\276\277\221o<\210\307\203\277\255\334J?-Z\021\277H\240r>\033\372I>\243>\225\276\336\354v\276\371N&?\177\357i\2750\224|\276e\334x\277\371Qb\277\005Xh\277\312\373\037\277g\037\034>\3241\213\276X1r\274!ah\275\356\0012?=m{>k\320\355\273\251\272x>;\305\207\276\263\226\373>\310\025\020\275\331M\353=2\214\214\276\220\002\324:nFj?\257\254\326>\270\344$\277X\230\023\277\224\344\204\277\177x\316=?\335>\277\244o\326=&\205\016=/\220\374:\"\241~>u\253\334>\332K{>\363|j\276n\2704\277\303?\242\275\250\331T=\263\252Z\277?\203\211>U|\252;4FT>I\031\\>YG\014?\244\213o\276-\016\266\276\236\201%\277\250\256\306\275\201\263\251\276\223\323E>]\002i=\203a8?\031\321\302=\210\001G=\225~\242>\211\322\274\276\302\222\024\276\254N\014\277r\n\213\276U\205q\276\223\324\210\274\025\240\024\277\250s\013?\032\014w\275y\376\312<\230\373\t>\217\2169\276\024\230>?\276\357?\277X\023m?\324/h\276\376$\304>\211\013\261=\002\"\253>\020\005\205\275\2528\r?\361\231\234>\245\020\016\277\256\001]\277\372\363\224>\2036\244\276\222\336O\276\016+\232\276~O\362\274\222\246L\275\366\314f\277\273\361\277\276\250\265\n>\030\264\271>\352\334Z\277HDY\276\344\314\205\2741\232\320>\347?7\277\225\237\213>\332A\254=\2167\342>\025\216]<\333|\004=\240\366\222?\222Z\024\277\224w\253\276:\316:>\3451\016?E\367\225\276\365\273@=\256\244\311\271\002X\332>\023gP>\250\250\021?\364Fx\275z\243\210>\207\303\246\276\323\221%=\"\204\312;b\006\324\276M\364g\276o\354\206\277\222\335Y\276\315%\017\277\227r\377>\256\323J\277\3716R\275Z\301\026\276\332%\023?\213S\254>\037\231\335>\253\022\367\275\237\034\232\273\'\037\025>\221\302\327=\263\000\031\277d\221>\277\306\t2\277ta\246>R!\n?ic\244\276\030\224#>\326Wr\276\367\263\274>V~\216\276\273</?/U\024>\274\246\231>`d+\274+\235\227>\203\037h>\230\257\t\277\337\334V\277\216$(\277\005\275>>\035\357\r\277\301\246D>\'\3443\277\243 \022?\226 R\277\221\333\025?j\3339?\365SV>x\266E\276Vga>\276\212\274\275\276T%=\226[0\277\237\353\322;\024*\016\277I\265\024\276\255\341\010\276\210\253\351>nph\276Q\'\230>\253$&?\003\rv\276e\3071\277\003\006><\365)\231>\320%\224\275\005g\247\276\370\013\r?4\276\345\276\333\347*\277\262\340\232>\223\236\265>j\2758\277\364E(\276\351\314I\277\030\233\250\276Q\314H\276(W\037>;X\004=\034\236\205\275\004\347d>)\3778>m$A\275\214>$=\356 !\276{g\214<P\212\001\275\360\305)\276\034\025\211=\036k\261\275\"\376\017\275\272\253\033\275\231\016\311>\377\337\342=)\370\315\275^6\246\274L]\007\276*\255\323\275\372/;>K\261o=\271\t\333=\006sp\275>3\330\273\261:&=/\007\363=\010bi;\234\270\204<\"h.><\316\306>\305`\007>*\255&\277P|\005?\322/s\276\344oQ=\316\367\356>\324\3435\276\036\200#?C\261J\277E\260Z>\335\'j>\270\266\320>\363@\215>\206R\270\276;l\377;8r\360>&\322\215\276\244nx\275\3150w\2775\031\271\275\3621F>9:\003\276S\376\250\276l@\235\2761\257\026\277$\320\251\277e\013\345\276\331\333,>\234\376\317>t\273[=\255\0072\276\214t\225?)\314\022?W\245\331\276\250\254\265>\254\237j\276\314`a>\230\303\340>\327.\374=M(h>Z\213\027\276\253w7\277\370\016\202\275q\006\364>\204(\232>\321m7\275j\337\037\275\'7\301>\245\302<<D%2\275\234L2\277\014\273E\276\210:,\275\361\347G>\363\336\205\275:+\364\276\3360$\277\277]\243\277Ws\357\276\300\177\'=G<\257>\373\002?\276\223ee\276\320l.>I\302\347>\347\306\336=\254\275\177\275\234v\355<\255\270\361\274,X\224\273?\346b>\364E\004\277\330y\037?\035\276\020\277:54>\236\354\307>E1O>Rs\332>\031\357\254=\254k\004?\345\275\217\276\347\272\244\277\3333\241\276\234\016\204\276\225\035\035\276\357\332\205>\034\250\277>\206\337\037\277_G\021\277=\272z\277\3551\226\276V\347G>\231\222\253>\336SQ\277V\365\374>\'\022>\277\321\345f\276\371P\016>\226\020\364\274<\210H\276\336V\\<\267\372(\277@\243\305>\301\224\307\276%\351\177>\203\304\037\277\2530[\276\211\367\006\275\362\\\263>\367h\351\275\251\204\231=\224s#?\227\335\236\275\300\361u\277\021\3158?\313TX\274qjl=\355\364\243<\324\311\016?\"\265N<}>$\277\002\257X=\2549l\275\020\356\306\274\004V\352\275\3002\210\277W\272W>$\261\336<\343\316\037\276\240>\203\275[\276\013\275c>\274>a\231\347=\334\204\307\276\254\327.\276\360\275\337\275\240}\034=a\255G=\363`\274\2744\315|=.\3405\275\034J\224\276\315\342\002\277=\272`>1\374~\274O\216\272\276\234\374\327\274\001*\211=\352\251{\276\302K\223>\365\244Q\273@\354\244=\206\036\224\275}\344X=\265\306&=\366\024\252=\357*0\274\212\347\324=-l\241\275\212\210\353<\204\260\023=\242!\026>\014c\262\275l6p=\261\307\204\275\342\177d>\351\273\220\276\031\254\002\277x\203B\277\243]\007>\322\010\244\274\36770>B\316}\276c\273y\276\326\2443\2764&e>\200}w\276\004\2144\274\025\177\216\2773e\034\276:u\205?\021:r>\253\374\024\277\035EM=e\310!\277=\333\354\277\347\342\214\276\3537\345=\325p(?U#\230>\225\306\035\275PI#?g\252F>v\027\203>{\327\227\276\272r\250\275\320\322\264>%T\266>\002\237F>\327\312\305\276\023\n\216=\230R\021\277S9#\2775\226/>\244\177\002?\301\310+>l\301N\276$\256T>&\265\203\276\332-j\277\334q[\277\356\t/\276H\313?>\331\325(>\355\303%\277g\352\310\276\310\002\013\277\210\'\253\277\001E\t\277V\207\021?1r,?\260)\210?\371\240\026>\343\247Y\277\221\336\000\277\010H\241=\035\277\267\275\377\031 >|,*?\271\257\334\273\001\303\027?s\341\206\2765qs>\005P\000\277q\0365\277I\010-\276\310c&\276H\303\020?\243\213\220\276I:\005?L\274\213> \211X\277\031\324!\277\321)N\276I\335\235\276T\036\237>|\243\304;*\264\333>\20353\277\302\3109\277\205\341\360\275\026\340^?\230\227\032?*Q\341=\332<\020>\207\003A\277ZG\345\276\221n=\276\272f\363=\366\265[\276G\376*\276\2623\005\277\255\'\r?Pat\275!@\226\274)\226;\275\366\355\021\277\243\025\006\276D_\200>\0320\244\276\302\016j\276\321\002\354>\310u\276<B\343t\277\225\217\213<\026\215\232>\365:)\276\370\2452?\353T\271\275-\007\223?\336\235{\276\331\346\343<\362y(>r.I>6$\350=\244\003\235;x\210\240>\2307\034>\210\246\204\276\016\336\316\276\004\2768<\356\251\201>t3\r>\350\3243\275\346\322v\276Z\252s\274\210\346_\276\034\324\312>\317#\333\275~%\330\275\013\036\244\276\212\255\200\275\"\212 \2765D\036=\212\022\212=6\322\273\276\364#\013>r\006d\275\330#\260\275(4o>$\217\014>\350o[>|\316\021\275\3175r=qW\215<8\262<?\233\257\205<\207\"/>y\347\247>\341\324x\276\374\354\245>\374L\245\2760\333\242>\2608\304>\004\326\033=\036X\224=\215\005\203\276yy}=\313\326\r\277~!\214?\354P\002\275^\247z\275\255\023\332<^\343\031=\341\246\353\275\377\215W>\254\202\030\276\260\323\314=\272\302\224\277p_n<\331\243F=\242vI\275\017\350\002\277\243[\020\275\030\347}?\331\323\200\277Mt\223\273\216oc\276T\\\036>H\232\233\275\351\002\033>b\036\003=\313^\006=\367\364!>\204z\201>v\251\017\276\236\000\274=\252\010\252?\230\256\"\276TQU\274\256\324\000=\262\304\023\276\260\013\347<\002\222P\276\323\031\267\275\2066\304\276\323/\335>3;\232>\357\211<\275\271\007m>L\341I\277Q\304\304=\212\035\231\276X\000\037=\336\\I\2764x\217=\210\030\332\276Z\007c\275\247\241\036=x\3602\275\220{X>\251\356\212>\023\360\223=\356\201\213\274\270\371\225<\274 \201\275B\253a>\372b\204\276\233aN=\240iI>\274\321\"\276\262Q\016\275\2115\021\275{\'\337<i{h\275&j\007>l\225\304\275\251\025B\276\t.\273>\331f@<J\207\343\272\0054\304\276\374\3133=\3626,\276\253(_\276\2560[=M\355\313=\214\271\243\273\226\261\277\275\177R&=P\222H=ZV\361=9\237&\276%\3247\274K`\332\275\021\320\250=\311\324\'\275%\335j\275\000\362[>\2336\321>9\371\323\275rr`\275\241\007\337\275G \202<\266\206\006<\371T\305=\361\354\367\274\006\267\000\276yY~=Y\244\201\276\3707\365\275\305\250\222=.\241\202>\252\344\200\275\177U*\274V\335,>\362n}\275\353x0>@\005\230<}\325\272\273\023\227\230\272\312\220\321<\330\217!=\272\2213=\363\3564<\301\266\263=\265\024V>T`w\275T\013s=\220\317\227;4w\'=P\376\024\275\\qF\275\304\200\221\274\334\023t=\020\272\223\275\200L^\272\2547D=\020\274\253;<\3544\275\270[\221=,\236J=Q\342Y\275\333*9\275\311\374\006\275\350d[<\324\364\237<\330\272\210\275\000\027 ;\244m\r=\346\3241\275,\373D=t2r\275\000\032\034<\302l\310\274T\242\357<\244\324\337<\200\222o;\\\013\224="
      }
    }
  }
}
node {
  name: "encoder/conv2d/Conv2D/ReadVariableOp"
  op: "Identity"
  input: "encoder/conv2d/Conv2D/ReadVariableOp/resource"
  attr {
    key: "T"
    value {
      type: DT_FLOAT
    }
  }
}
node {
  name: "encoder/conv2d/Conv2D"
  op: "Conv2D"
  input: "x"
  input: "encoder/conv2d/Conv2D/ReadVariableOp"
  attr {
    key: "T"
    value {
      type: DT_FLOAT
    }
  }
  attr {
    key: "data_format"
    value {
      s: "NHWC"
    }
  }
  attr {
    key: "dilations"
    value {
      list {
        i: 1
        i: 1
        i: 1
        i: 1
      }
    }
  }
  attr {
    key: "explicit_paddings"
    value {
      list {
      }
    }
  }
  attr {
    key: "padding"
    value {
      s: "SAME"
    }
  }
  attr {
    key: "strides"
    value {
      list {
        i: 1
        i: 4
        i: 4
        i: 1
      }
    }
  }
  attr {
    key: "use_cudnn_on_gpu"
    value {
      b: true
    }
  }
}
node {
  name: "encoder/conv2d/BiasAdd/ReadVariableOp/resource"
  op: "Const"
  attr {
    key: "dtype"
    value {
      type: DT_FLOAT
    }
  }
  attr {
    key: "value"
    value {
      tensor {
        dtype: DT_FLOAT
        tensor_shape {
          dim {
            size: 32
          }
        }
        tensor_content: "r\025\016=Wva;U\354\303=\376\r\211>n`\221>\000\025;>\316\236\360=h\344\217>\005\341C=\332\210\264=\2279r=\377\026U>U\345T>`\210r>\204#\221>\364\262p>\0326g\274\204{i>\r\'\321=\036p\242=\r\267\177>\2120\233>\211p\200>\204z\217=\024we=\226\217\273=\373\030\230=\203h\233=\320\2142=\277@\232<\375\361i=W_=>"
      }
    }
  }
}
node {
  name: "encoder/conv2d/BiasAdd/ReadVariableOp"
  op: "Identity"
  input: "encoder/conv2d/BiasAdd/ReadVariableOp/resource"
  attr {
    key: "T"
    value {
      type: DT_FLOAT
    }
  }
}
node {
  name: "encoder/conv2d/BiasAdd"
  op: "BiasAdd"
  input: "encoder/conv2d/Conv2D"
  input: "encoder/conv2d/BiasAdd/ReadVariableOp"
  attr {
    key: "T"
    value {
      type: DT_FLOAT
    }
  }
  attr {
    key: "data_format"
    value {
      s: "NHWC"
    }
  }
}
node {
  name: "encoder/conv2d/Relu"
  op: "Relu"
  input: "encoder/conv2d/BiasAdd"
  attr {
    key: "T"
    value {
      type: DT_FLOAT
    }
  }
}
node {
  name: "encoder/flatten/Const"
  op: "Const"
  attr {
    key: "dtype"
    value {
      type: DT_INT32
    }
  }
  attr {
    key: "value"
    value {
      tensor {
        dtype: DT_INT32
        tensor_shape {
          dim {
            size: 2
          }
        }
        tensor_content: "\377\377\377\377\200\000\000\000"
      }
    }
  }
}
node {
  name: "encoder/flatten/Reshape"
  op: "Reshape"
  input: "encoder/conv2d/Relu"
  input: "encoder/flatten/Const"
  attr {
    key: "T"
    value {
      type: DT_FLOAT
    }
  }
  attr {
    key: "Tshape"
    value {
      type: DT_INT32
    }
  }
}
node {
  name: "encoder/encoded_vector/MatMul/ReadVariableOp/resource"
  op: "Const"
  attr {
    key: "dtype"
    value {
      type: DT_FLOAT
    }
  }
  attr {
    key: "value"
    value {
      tensor {
        dtype: DT_FLOAT
        tensor_shape {
          dim {
            size: 128
          }
          dim {
            size: 16
          }
        }
        tensor_content: "\003\223\276>\212)\377<Sqm>\377A\250=\341\336?\276\270\020\217><\332\214\275\005\215L>\277\364\313\274\334]\005>?$\327\275A[t\275\331N\334>\236\333\223\275\260R\250>\006H;>q\334\350=\307&\022\276Z\220V\276\205y\361\275\243\003\207=\002aK<\345\275\001>\230p \276J\372\336\276\001\030*=6z\221=\201\\\214\276L\371/\276^$\350\276\003L\353\275\231\016\273\275\005\320\025=\177XN\277N\340\270>R|T\275\313\211\213>\207\274)\276\302X\265=\372\351\327>\2767E\275[\245(>\361\220\207<Fu\371:\3133\214>\001\202;\276\346$\257\276\020IL=\204\250\005=\257\221\217\273\332\340\034>\302\227\001=\004\241&=\3755U\276\023S\237=\230\020\241>Y\301V>\242\027\022?\253\334\373=P\263\364\275S\347,?;\323I=C\3419?\013\037C\273\204\036\327=x\262\210\276T$\016>9:O>\3507\004\276\257i\330>\016`\022\276\361\317\220>cYB>\245k\004>\367S-\276\324i\027=\372\372\025=\226\271}>\270\033\347\276\352\270\362=\345\3177\276\310\346\001\277\237\363\334\276\257\315\037=\022\323\257>\214I\021\277\n\364\035>\220\245>\275z\331\252\275,\315\224<\327\257\024>/\030\212\2768\242:\275h\244k\276\220\342[\276hx\360\275\303BJ\276\222\350D\275Z\233\233=\307\325\364\275\217\031\246\275\310~\306\275w\025L\276Y\320\227\275M4\t\276\276\\a\275\n\203\021\2764\366#>n\004\330\274\317\2118\275\\\245\200=V\263\334\270\212\372\023?\240\337:\276\2020\261>\312\337\313>\246.\322\274\220\020\246>\242N\017\276\026p\302>\276d\010\276G=T>V\271L\276\343\177E>n\374\204>\027^\002\276C\340\325=\274\023\211>RP\033?\036D\006?\'\252\327>U\202\323=\023\342\343<\234\327\020?\026E&\275r \263>\010\231&>P\236$>n\373\215\275\016\340\013>\370\264%?\211F\362>\022-7?\276\362\344>\030X\246>4|\021\277wvo>\006\226\235>\373\205\204\276\023\350\352\273I( >\037\242\302>\243:\023\276d\375\307>\265=\t\276\364\263\377\275\310\277\206>\247\3231\277\231S\225\274I\022@>\2105\247\276\361\233f>\234\255\267=|\365\366\275u\026\016\276O\300j\275\233\345\016\276\367{3\276\004g\200>\003c\t\276\214S\204\275\323t\014>3\225\022\276;\323\227>\0254\216=^\246[\276\205\255\000?$\010\">\346A\325>\234\272\300=m:\232>\r\006\367>\013\367\014\276w&\277>p\317|>\212n\177>\177b\355=kS\253>\377Z\010?&\232\267>\251\035\014?\214\315\271>\030\013\026=\216\314\251>\377\263\301\276\000\034R\276\202U\331>\013@o=2D\r\275\221K\216;\243\004\302\276\275\340\013\276\2656?\275\\]\255\276\351\235\016?D\317\314>\336q=>7\227\207=\320(\275\275\335e7>\023\262\240\276\313\224\276=\320t\007\276\213\315\220\275q@\370\275\216]?\276\330\2301>\302\216\261\275j\336;\276l\327\025\276\351\371\226=5\243\244>\234D\275=3\224\017\276.\006\202=\306\325\242>\211|\366\276a \026\2755%g\276^\027x\276Z\006\372\275\327\000\236\276\330\021\212\276\245a\331\275\211\2616=\241\3557\276\035\347\214=H-q\273\360\013\225>\207_H\2751\0359>\224\033\245\274)\004\234\276\021 ?>\372\377(>DC\331\276\316o!<\276\345H>\\\211\336\273.\350\247=lF\023\274\377\351 >|,O\275\202\325u\275KG\260>\364u\273=vi\005\277r\233\212\276\257\314\255\276AV\333\276\373\215\\=\375\315\n\276!\2239\276l\357\t\276_\304\341\276\t\361)\276`\037\326\275\332\237\017\277w\263\245>\254\353\200\276\231K?\2766\214\006\277\013\250,\276\376p.?\335\257\020\277\323\332\';y\260\352\274^\231\276<y+,\276\233U\366\276\006\252\323\275\201\036}\276\364\021\365=\213.\267\275M\330\211\276\350D\000>\017\200S>\202\223\203\276g|\200>\315T\333\275\307\255\230>\302\213\'\275\227\246\256>_\270\017>Z\026?;bue>w\366\333<\034!\032>\341\003@\276&\226v>\206\354O>\306\205\301=%s\357=\270\304?>\275\024[?n\201\n?\220\226\305\276\271\3236?-&\230>\030E\337>q\\*\276kR8>\003\222\203\276\312\251V\275BZ\303\275\316\245!>2\351\t\277\267\006\205\276=B\001\276\260\321C?\021t\337>\233\214L>\324\014\241\276\003y\224\275\332\2355?\023\306\367>\241\215\331\275\025b?>\376r\225\275\265Q:\272*7\006\276;\022\010\275\377\222\360>\035\262h>t\236\310>\021\202y>5\002\206\2755\253\214\276\332\005\227\275F\345\233\276G%\277=I\206\032\276o\310\336=P\335\353\275KB\233=Zy\270=\3005\000<\2346\002>O\2422>\017\271\265>\350Z\270=<U\276\276 \324\301=\251\275\230=\361^\204\276\214\007\244>\256;\261\276\357\226[=\031t*>c\321\250>~\237{>\227\214E\276\310\376\033\276[\005R\276\240kU=\026\361.>\032?\201\275\006>j>@\311\266=\265f|>\224\351\332\276ZQ6>\236#\337\275\037\t\333;\022\300 \276\210\006r\276\2451u\276\365\247<\276\021(;\276\211\303\021\276\205\200\210\276\252)V\276\334\010\247\275>\'\031>\002v\334\276\354?\033\275\177\226\023<\357:89\260x\036\276Z0\346\276\\\216\361<\327\245\022\276U\030\017>\247v\347\275k\037\274\275 \361\033=\271\342\241\276P=(\274U\'\202\276\315z-\276\306\265u\276\241\213\316>\357\360\255>\230\212\232\275z\014\"?m\265\n>\370j\020\276\342\307\177=\303\377\024?*\016\013=\017\312\344\274\227\0147?)\331m\276\270\303??\336\340i>\361\204\305=\203a\r?\202K2>\222v\034>?k\n?\325Z!?}K\350>b\362T\276\351>\321>b{\216>\330\371\031>\024Z\n\276D\016\320>\371\260E\276\372D\270=\273:\277\275\327\234\025?b\245\211=\257\274-=\311\334k\276p\251\t\276\001\006\'?9\221\203>\310\277\206\275(p\036\276\013\336\"\276db\207\276j*\272\275%\203H=\n\250K\276.\306\313>\246:\003\277Y\230\205=\"\277\270\275\312\014:>b\035\321\275=/\237=\307\347\003\277\252\324F\275-##\276p\372-\276O\023\034>\323\361u\275m;\240\272\324\241\220\2754\203K\276|\205\316\275\303lR=\223\373Z\276\246\260\266\275\235@U=\003\277\221\275\nw\353\276\211\207\225\276\271\323R\271\313y,\276\225\271\210\276\023\231\251\2768B\305\276\370*\214\275T\330<\276\033\300\005>\206\307\220>\322\352\3669\001u=\276,\306\020\274\304\327<\276M\343\312>G(\311:\242\034\r\276\277-\r\276\010K4>\226\276\240>\210\242j>\0275\325>\313\036\234\275<\005\034>\202\353\205>\027\025*\276\240\031\270>\343\261\037\274W\217@>j\304\234\275ZA^\272\262\366J=^\231\037?,:\021>\240d)\275\375\'7>>q\026=\020\371\376=\374\035w\275]\262v\274\257oL>\033\2539=\256\204K>\214F+>`\211\250;\361\265\220>M~\032\276n\275\017?1\003\242<oQ\376\275y\271\004\276\244h\004\275\317\361\232\276\266\274\026?\357Q(>\371\265m?D\341\227?\206\352\214>\271\002\376\276\n\277\275=\362\343\266\276\210$\252>\221\336\006?\316H\303=\245\252<:r=\207\2765yl<\347\344\007\276\021\n:\277\'4\373=\267\2568\275\267\300\261\275\266\314)>:e\232\275\002\235\027\277CI?\276m\327&\276\206\0109>\265d\326>cJ\302\275\252\020\357<:\333\321=\025\371\347=5\215\206=dd\230\276\220`\203;\330(o<\027\354g\276\366\005~\275\241[\\>\230\317\261\276\236\363\266>\261\301$>Q\002\'>\266(\271>Z\026\204\274\335\275\344=\333R\276>\273\355\032>\026\210\362\275N\263/>\"y\240>,7\030\276\235\010E\275\266\200t\275^\037\302=U\023\'>\036>P>\274\261\263>\362.\206=\222\030Z>]g4>;\003R>\025\273\243>\306_@\275\327\305\003=\266\016\300<\215\031\222>\22669\276\201\0344=W<\204>\255a\304=\340\315\250=\366]P\275\365\206\002?\233v\321=u\333\306>|\037.\276\031[H>\370\361\223>\376\352\022\276\227\014\"\276\340\333$>u\375\245=\264a\000\276\260Z\210\274\3442\021\276\004Y\030\276o.\373>$\037\277=\313\301\334=w\343\260>u\017\226>Q\271\234>\377f\361=\255\243\223\275\237\344\275=\202U\247>\271\347\017\276\271L\230\276\005.\342\275\353\352W>\257z\007?U\373\200<\237B\212\276\360\252\347\276|\342J\276\265\2033>%\222\316>\346\222\222\273M\246\275\274cz\220>\t\274\005\2765\216\202\276D\300\307\276|_\034?\301>\334=\325\210[>\013x0>\367?\251=\261\025\206\276\250\302\r?\340\313\366>\nI\005>~\005\244\275\014\2463>U1\037=\300\326O=h\372\025<\2134X\275d\205\005>\372\220\303<}\300d\276}&\020?c\272\376>?\264t\275\276\006\241>\327K\210\276\335\260\001\277\351\243v=\335\323b=\025-<=\300x\263\275\021?\254\2754\216!\276\000\035K>\325\344B\276gG\307=|rL\276\357\214p\276\033\323\030>i\310\312>E3#\277&\305\035?\r\235\\?\376\302k<=8\351\276^\201\332>\202%V=[2\217>\024\3660\276\010\366\265\275\344Y\023?\361]\335>0\337\021=[U\240?K\325Y?Wy\372=N\030.?HfT\275\275\210\205\275\026\377\262=\\E\005\275Q\347\335=\236\234\003\275Pa5\2751\3241\276-wn\275q\247\351\275|\033\030>\377\253\222\275IK7>\332\t\205>\267g\010=;\303{\276\035B\366;\023\246\002>b\017\037\275\227\363\270<k\204\322<L\306M>\322[\224>\006\244\027\276\232sF\276\272R\276=dpE=\314\366\234=\200>\274<\241\256\006\276)\034\243\276\252\347\005=\344T\r\277Mk\220=\034\206\"\273]\244O>\301X\237\275\n\366-:\331\004\223>0\'\306=\241\233\300\276D~\205>}\335\255>\n\013+=N\001W=\361\021\256\276\247\264\367\275G\226Z>\340\242\342=Y\001\340\276\352\200g>R\007\211>\310Zb>\005(\370=\033\320\374\275*\344\315\274[nP\275{\366\224\275i\254\347>\t\034C\275\217\303\214>j\250\263=\261\215\257\275u\220\"\276\024v\320\275\001*\256\276R\215\260>\0043\240>-X\223>\367\321\250=P\271G>)u\325:\2037\271\275a\227^\275\340V??b\377\226\273\371\001S>\324o~\274\226\201S\275\374\361D\276\226\210\372=\004\306\033\276\311\323!<\245\225i>\004\221\227\2766\017i=h\020\314=\371\000\271\275~\322-\277^\263\273\2766(\013?k}\014<\265=\346\275\221(\016\277\332\320\273\276]\277\005\276ym\004>\234;\265\274*<\210=\264\346\245>\367\240\202\274M\225\213=H\3326>\342m\000\276&\363 \276\264\337\214\275\347\020L>\337a\037>C\371\345<n\231*\276u\010(\275\346a\243\275\222\233\266\275<B|\276U\250\310>\344\315\370>\206d~>\344k\324\274\364\244\214\276\310\"\242\275&D\032>\275.\326\276+\304\353\276<?C\2765\214\254\275\3748\357>\375X\"<\235qX\277\027\217\345\276AF\237\275+\260\255\275t\305\035\276\214+h\274\231\272\324<e\303\t\274k\354\366\275V;\201\2758\235\301<\275\332\217>\325U\033>#\025\257=d\210\346\275\303\374\207;\024\n\'>\201q\336=\201\225(><5\347=)\3737>\"\300\005>\t \231>\243\226N\2764U=\276N\260/\273\336\177o\274:\343\213>G\366S\276\273ko>m\272\324=\375 >\276\364~\'>.\304\002\276\014\033\177\275\343\276\273>y9%?\255\267s>\323\247,>t\232->\217\225\035\276n\026/=_\255\361<\313u\314>\325\033\355=!\037\177=\267\177r\275\342\330\256;\003.L>\'\337\364=\216\271\005?\202\200}>1\356\275>\370\317\370\2741\316\037\275\231d\034>\365\375.>H\366\005\275\227q5>9\236x\275\336Z\352=\211`\021:l\257(>\3345{=\334\021U=\222\005\306>T\375}<\277\223\232=\274\350\264=\334\215\022\276\355\307\020=\0042i\275\303\357\320=\213l\021\276;\371M\276\317\204\274=Q\274\277=\237F\n=0M\032\275\327\207\223\275m\270\004>\266@\242<\346j\263\276\324\240\350\276\005^+\277\266\266\263\275\357+\'<\300Z\215>\352\310\206\274#\247\243\274\030e\003?l\365\376>=\322>\276,*\242<\320*\021\277\317\354[<\216X\013?\327\275{>\301\0026?\312w\205\275\3013\250\272\362\206\330\275\263\231k\275\372`\314>\351\310\352\275\354\225k>\263$\024?\203\215.\277\217\345\020>W&C\276\216\377\311\275\225B\212<\021\275\360>\246\350v\276\215\355s\276v\331\243\275\351\354!;f\251\030\276\223(\007=\263\231\372\275\262w\266=q\010~>$*\263\274\305h\200\276\024N\335\275>:\336\276\000\243\205\276\225\014\214=\355\027\202\275&\323P=\033\210\251>$\327\\=\277\267\002>A\215u\274\210g\234<\330\331\217\274G\262\263<\270\374\203\276D\277\214\275s\317$\276TG\010\276\"D\207>crb>\243\303V\276\305\224}<\177\362\254\276\275\335\241\276T[\234\275\301\331\031\277\275\006\234>\002I.\276\250\313\026\275\223\220a\276]\\\023\276\346}\272=\263\212*?A\240\351\275\027\255\372>\265\276\266>fgL>a\303\205\276\310\327\254>\0029\203>\347j\201\274\177\343\277\276\317X|>\236\203\324\275i\253}=\273\324\250\275\306\310\267\276\334Y\351<\342\370\000?\021\3053\276\216\006M?\237\345\332>**\024\274*l\242>\036\245\264=\006?\233<\003\t\032\276\344\374G\277\010\010\360>\315\244\016\276\020\n\260>N\263<=* \376\275\337I\273>\216\r]?\364\314\207<\325Xj?n\315N?P5\250>\033\345\003\276\250,\304>\0015\273>\234\275B=\210\001a>K>K\276\323\336\'>\270\343T>\216\004[\276\353\r\260\276<:\321\275\223\032\305>\204\237\301\274n%K>n\030D\276(r(\276\341\374\003?\254\244\203<\226\210\363\276\022\206\224:\tN:=MW\027=\005zb=\322B;>\017\023)>\315(\230>N\375\003\276\246y\276=\034R9\275\'\304V>4\024\033=\232\356#\276C\326\201>+0\256\275@3*\277\277k\321\274\326\225\220=\252h\256>\032\\\345<W\231\310>S\2462\274\3744/>\357\230\013\277\356G\312\275\001]\322\275\257\031\305>\366\251\014\276\332\341;\276\212\202\025?\366j\000\276t\362\236\276)YM>@\352u>\303\327\\>\020\375\310>\205\261\311\276E\3155\276\231\220\226>\3504\205>\217\343;>\225N\027>\262\213.>HB\232>CB\353\275N>\376>\315VK>\004\324W>\355y\263\275\026`\233\2753\005\001\276%dd\276)ch>\226l\271=\322s\363=:\n&\276iV\354\275$\332!>\000\225\253=\315#\202\275T;\024>?\244\330<\001\022k;\331&7>P\235\232\276\\\365\003>\241\022\203>>\304\034>\357\304\376\275\320r\227\275\366\020|>\270{\300\275\033Y+\275\372f\013\274v\031\t>\217\264\203<\274\211\266>d\222\261>\311\362\253>\212\r\233\274\261HS\275\266\021\262;\037\305\006>\253\035\376\275\263\315\302\275A>A=\377\236t>\033}7=\336L\236\276\226\231\314\275\204\261\251=\337\2241=\372\345\207=\360\022\225=}\020}>\365\200\302\276\355\212\350<\rz\032>T\253k=,.\225>\360d\376\276\276\r\265<\3534\352>\017]\000\275\001\263)>.\360\332\275\271\320\212>\010X+>\\c0\275\300*\366>\250\351<;\251\327\267\276\312\021\274<\332\221\244=\344Du\276v\010g<\177\343\340>\315\3302;\312\\\207\276\006\322#>zh\216\276l\232\373<K\274\274>z96>\357g\n\277\035s+=%a\n?\030\350\027\275\225X\313\275\340\354\331\275E\336\216\275\032\001E\276EM\236>k\340U\276\376\0326\275z\343)\276\234\272[<\376\005:\276\014\360\025\275\266.C\276^\273\321;kQ\007\276n\214C\276\240\'@\277\205D\016>\277\266P>\320k\235=Z\234\225>\377\377\226=\006\276X\276^Fv>\325\230\230>M\255L>\241A\365<\3030\312=V\222\302>\302\347\262\276\250\220\252>\250\r\022>\246\322\t?>\336o>A\267&\276\251h\036\275c\n\224=\000\303\313\276\230NR;\243\014\355>P\322\374=|\202%?\225\026H>~\267=\276\035O\207\276h\246\026>\343\005\027\275*\202\230\275\267O\237\275\224|>=\345\224\227\275qH2\2754\317\303\275\324\030\205>\312\016J\276\367\017I>\004\2411=\016B\273=\321N\261\275\302\021\301=\357\004\232\275\272-+\275\241B6\275}\262\247\274\227f\206>~L\032\275\321;\200\274^\341|\272\207\320\033\276(J\360=\254(\014:\367\216\260>}\026\203\276n-\322\276\3613]\275x\312\200>\203\nv\275\367\316\323>\337\211\201\276C\033\305\275\255\357\276=\363\253\307\276\252\221;\275\263:\236\276\354(\271\276c\253\203>\230\222\261=\r\335.\276\215(\030>\373.\001\277\337#\024\276\030\243<=j\026\233=\236Z\201<\220\021\006\277}Y%>\376\312\202\275>J\023>\331\333\262=\001p>=\271+\354\274\201uP\277\3122\272\275\017\245@=\316\355\271;\351\001u\276\004T\"\276w\305;>\t@\003>lU\017>\037\230\370>\326\323\000>\3546\220\275\016\323\006>\036-\024=\r\345\223\275\232@\027\2769\024\035?\265J\017\276\355\003\223>\241ke>\"F\377\274\241?N\276\306\254\022=\233\330\241=\272\373\032>\"r2\276\210\211\004\274\r\"y>C\356b\276\261\262\230\276\227\221\006\277\347\370\035\277\243\342\n\2764\346\367\274u\365\206\276c5\240\276S\314\234\276g\377n\275\251W\'> 6\313\276Z\333M\276,\\\312\276\262\002p=0V\037\276\314\300\364\2758\n\301=\206|6\2750\325\310<\366\003E\276\303\351\022\275,\240N>2\300\001\276 \212J=T\203\220\275F6\232>\352w\222\274.\263\377<{\n\211>\310`\332\273\343\235\355\276\306\023B=~,r>d\227\200>\240\331d>Ytk>\037B\343<\372\277\010?.\250\263\275I\351\241>\323s\035\274!\307\220>\025\030x=\020N\344=5F\342>8\001\026\276(B\330>\3579I\275\n\227t\274\270H\353=\360>\220\275\241\320\026\275\336\346\017\275\253O\t\277\261cg\275\031\325$\276\375(?;\021\317\212\276\"~y\275\244\376\215>\026\030\310\275\277\245\356<cN\203\276;\205\363\275T#U=\337\346g>WK\324\275\342V\004>i\271\371\274\300TZ\275*\234&\275\306\235\315<[\363\230\275\315\241\324=\260%\221\275\034\262\304>\315g\301>\216\303\003>\357\031\223\276\330\025\001>\023\227\310\274\362\336f\276.\232\014\276K\205`\276\rQ\365\275\177M%?\036\212U>+\242\220\275.\0068==\374\367>C,\300=\360\270X\276\314\353x>\3536\245>\031X\023\276\002\365\344=vE\315\275\004\216\022=\236\220\365\274\"za\276=x\247\273\277\337\201\275LZ\r\276\243\205\356=A\327]\276\377\336\322=\302\234/\276\021q\227\276\240\230\374>\312Y\276>\233S\335\276\255\204\304\276\025\307\257>\t)\230><xj>\n-H=\256\247\022>t%$\277\016\020#\276\"q\"\277\270K \276\273ML\275\263\302\322>\327\215\203<\321\0107>\177~F=J\327\"?\275\224\271=\261\250\203\274G\311\257\276\276\360\223=\355\254q\277$\240!=\004\307\345\273\017\3005?,\207\260\275\013\235\334=\352\224\313\276\017*\251>\273{\000>\3012\021\277n\022\342=\016\213\031?\024\001\335=\331C/\276\tU\220>FP\201\276\227\361%>\213.\021>5\366\203\276\373\002N\276\241\177\025>\374\361>\276r\322`\276\333\314\346\276\337@\026??_\335;s\005\326\275\2648z\276-;\276\276\356\251\016?\025\221:?\262\311\000?u\221n\276\211c\362\275\"D}\277MH1<B\\\322\275\2311\014\275\014\'\305\276\316\226\243>_C\363>\205B\032?v\370\371=3\344\036?}j5=.\231\241=\037.j>f\351v=`\332\000\277\343j\030\276\236@\306\276\204\370(\276T\311\325\274\027\342\371=3\257\310<uI \276\317Y\316>hF\202>\374\370U>\342\354z\276\310\302\306\275&)(=\240q\342\274\216I\210<\274\270\027?\253\216\374\275\025\354\211\274\335\367O=JK\030\276\352f`\275=\360D\275n&\010>~t\232<&\221e\276\363\310\234\275\311\332\007?W\177x=\370\253\256\276\235\356\'\277\rI\203\2768\305;\277e\017V\276\251\002\274\275\300)\365\276\201\342|\276`\374\340\275\240\035\223>\244\014s\276R\261\222\276\022\370\347\275eP\315\275Hvg=-b\007>S\344\356\274\334I.\276}6\313<\241\332\211>l/b\2751\263\257=?\234\241>\024xY>\206lF\276T\227<\276\023e\246=4\005\005\276\326K\215\276U\330\311:\024)\017\276|F\227\276\353\033\210=~G?\275\001\253\t<\352\371\262\276\0338A\276\303\271\014\276j\037\230\275z\217\215\276X?4>\312\n`=\t\335\005>\356,\325\275\302{\001>\022\315\304=,\225 >\\m\311=d\367\225>g\331s>\027?\357\273e\304\230\274yQ7\275G\374\245>p\225\\>\250v\334<N\264\017\275\300\036\t\276\276\214\210\275\317\264T=\243\303\r\276O\004e<`\323\010>Z\0356>VB\300=\343\207d>\035\323\207\275\316\262^>#|\021\276\253)z>\300\234\010?\354\310h>\352F\242\275=\362\027>\327\373f>=\353\265\274!\270\225\275\235\355=>\031\035\355=3\n\037>YJf>A\223\256<8Dt>\333n3>I\232\333=\205\260\350>J\377\036>\302\032;=\330\372N=-AP<\317\355\031>\241\306\227>\377q3\276\341\356\'>\020n\220>\206T|<\243J\226\274\033\214<>\216\317\321=R\371:\275\322\331X=\351\306\233=0\026\227>\021\205\310\274\347u)>\\\252\001>\332\021\005\2750\035\223>\250\230\237\275\026&\206>\344\016\014>\2363\260=\371\356\022>$>\254>q\200\241=\367k\272=\363DY\276\357\032\022>\000/\306>B\263\'\275\305\252\020>AMV>\014\231\217>F\222#=\034\024\273\272\0243}=\'X\034><\026\256\274\2317\305<\2134\237>\034\031\315=\320-O<\205\025Q\276_.\327>k\211\\=y\237D>\266\217\025>\3316K\275\247q\233=\341\3108>n\307\245<\335\306g=\223D\004=\341d\237>}.U>\250\236\215=\371oV>\307\372\201=\n\221\016>\231\250\202=\255\375B>\312\022\244\2751\3354\276\215\250\257\275W\331H=\341\345\233\275~\232 \276\234\2742=Y\025\313=k7\026>\240\242\210>\036.Z>\360\014u>H\361\326<7\346P\276-\033\177>:5\376>fk\237=\350\014-=\235\024\t\275)\264%=1Ji>\215\347\230\275\235\270\013\275j&)>?\3222>VA\226>\310\200\213>mH\">\334\371\311=\213>\213\274\274\214\006>\255\357u>\331H\226\273\007D*<\\\315K\275E\322\205=\343\324<>\320\032:;@\016N>\242d\247>\262\264\205\275\017\tu\274-\237&>P\307i>A}8>f[\004>\023\272x>\2760\t?X\354\325=SI\237\275\r\213\200\275\'\346\310<%\317\r>\276R\317\275\002\231\200>\004\205\221\276\317\033W>I\371_>\254\002\034>]k5>Hg\007\275H\234\335\274\250?!>\027\245T<S\033\257\276W}\006>\245#T\276\002%\210\275\215\313:\276\3251\204\276\301\231\342<A\231\300=\033\025\253\275R\007G>\267\002M>7\217K>\350\r\237=\301wn=\272\256\344=\221\346\221>\277\037\227>\002\366\201\275\324\370#=\200\365\357<\035\022\177>\336{\370\275\367\343\\\275\233;1>1Af>K\'\322\273\330\305\210\273&\307\010=6\274 \275O\004\367<\252\336\354>\355\333\n?\220\016*\276G\230\311\275\314~\n>\303x`>\205U\317>\204\3654>\324\250\206>\333\217\255=\247)m\274M\240\306=\352\233\355=\014\2521\275m\210\251=7-\002\276L\033\010>z\016\252>2(0>\214fZ\274nm\202\274M\316\231\274n\377_>\242\346\271=C\325\240<\000[\345=y\3646=6Sa>\320]J>\344\335Q>)Ur>\363Lh\276\351\356\206>#\024\275>\307\rl>X\246\353=Aa\024\276\301_\263=\310J\224>I\260c\275TZo>:\377\314<\203\rn>\'d\274=\350\342\026>\303\257\021>\301\0136>\205\247\"\275\340\nn=\267\306\310>\342\215\263\275\331]\211\275\235l\035>\304\255\263<\241\222y>\367\223D=b\277\202>\320\267\276\275\215N\362=\332\206\216>\265\311\010?\233\037I> L\177\276\177.$\274\327\347\351>\331I\025?\310\371\333\275\340!\330\2739\034\327\274\343\334Y\274\314\"\350>\330\370\274=\376\246\026<\262\375\021>\250%F=w\3224\275\302\030\200>\247\312\203=\337\306\007>M\030\255\275&!\310>\225\000\213>\345\014*>\305\016\240\274\276T\001\276\326\277\213\274?\215E>A\017.\276)-\363=D@U>\262\201\034>\032\337\272=a\235I>\204\301l>\327l\222>\rT\356\273\251\304\210>j\331c>\3218H>\200\230\t\276\213\356\013\276X\374\352\274\034B\215>\262\024#=Q\006\215>(\246!\275\t\267\213>\365\203\">_\006\207>\026\322\361=\356\277H<}\022w\275u\033\242>\177Xh>\2721\225=$\362\036\276LA\344\274\302Pp>\373\265\214>\027!\214<F\300\"\275N\021\372\274a\344\n\274\265\032\243>n\235\272>`\267 >Zh}>\356\264\020\276\013en=\206,n=\023\262\211\275\237\271\010\276~9C>c,\177=\303\357\010\275\343\232\005<\366Ol=C\344\324\275\251\360\370=^\224\240>K\023\275<qI\211>|\324X>jN\315=[\364\275>\255\364\214>\215\256h>pa\305\275=3\t=\224Z\307\274\375%6>m\267\217;\037\254\"=P4@>^\032\376=\227\361\322;\237\266C>m\357\202>7\237O\275d\020\257=\237\267\225>\340=\007>m\227\341=\236\236^\276\223K\316\275\303\250\274=9vH\275\356\216\251=\303)C\275\374n\207=H3,=\345\310\r\275w\265k>\364\240X\2747\246\335=\267\317\311\275\235^X>n\036\331>\316\342?=0=\372\275\361q\t\276u\213\205>\350\372m=\021b,>\014\n\310<G,S\275\257\2631=\020\366~=\361\375s>\221ja\273\n\276h\275\240s\n\276\310I\242>\2047|=\210\204\024>\025\241\025\276\236\013o=\250\354F>\356;\305\275\301%;\276k8\305=e\312/\275\223aK\275\237\265\223>L\260S\276kc1>*0/>^J\016>A\274\237\274\302:T=\270\341O\276\200\326\362=\030*k\276\263b7\275\371\021r\276\245l\027\276\270\322\220\276N{\257<\001\023\236=:\037\320=%\263\336<\200c%;\262#7>\372ou\274\014b_>\324\236\376>\255\3450>\201\370\035=7\362\317\275\216;\212\273o>\260=M<\334\274\361\252\276=\030$\026>\261Z\242\275\244\'$>\207\340\210>\303\031\341=\257\346\231>Cy\302=\031\246/>\270F%>\333\327\215>\034\355\341;\353%c<\204q\253=\323\2278>^\231\350<\371\021\014>h<6<\372\033\256\275\333S\377=\217e\251>\322\252\311=\022\000\310\275\332\034\262\271d\273\231>\300\005\201>\211]\223>\201q\201=\033tD>\221\332\253\275i\017t>L^\210\275\343\243{>\246\325\275=\241k0=\002\002\255>o\314\304>L9\250>\361#\345>Gb5\276\227\222H>F\307\314>\017K\236=\345h\333\275}\346\242\276\2074R=9<\373=\245C\014\276 \326\270;gu\214\275\217\342\017\274e\257)=|\207\205;\324\237r>\240!t>\370!\344\275\200\363\375>`\255\367>3\244\375\274\270\227\253<\304\354A>\202\370\241=\264\003\\>\003\226\342\275\010\351\230=\226+\251<\342I\201>{J\211>\024\242w>\233\344\311\274-E3<{\367\315\274Q\024\210>P\377\317><\214u>Q\273K\276\232\262\004>?\222\344\274\230\315\237\275\313\267\033>\367\030\r>"
      }
    }
  }
}
node {
  name: "encoder/encoded_vector/MatMul/ReadVariableOp"
  op: "Identity"
  input: "encoder/encoded_vector/MatMul/ReadVariableOp/resource"
  attr {
    key: "T"
    value {
      type: DT_FLOAT
    }
  }
}
node {
  name: "encoder/encoded_vector/MatMul"
  op: "MatMul"
  input: "encoder/flatten/Reshape"
  input: "encoder/encoded_vector/MatMul/ReadVariableOp"
  attr {
    key: "T"
    value {
      type: DT_FLOAT
    }
  }
  attr {
    key: "transpose_a"
    value {
      b: false
    }
  }
  attr {
    key: "transpose_b"
    value {
      b: false
    }
  }
}
node {
  name: "encoder/encoded_vector/BiasAdd/ReadVariableOp/resource"
  op: "Const"
  attr {
    key: "dtype"
    value {
      type: DT_FLOAT
    }
  }
  attr {
    key: "value"
    value {
      tensor {
        dtype: DT_FLOAT
        tensor_shape {
          dim {
            size: 16
          }
        }
        tensor_content: "\361\227\270=\002a\264=\232\311\030>\037\370#>W\266\303=$2\224=t \307\2741WR>\257\226H>G\232\333=\017\335\245\274O\016$=\230r\242=\234M\311=\210\335\234\273\340\215\303="
      }
    }
  }
}
node {
  name: "encoder/encoded_vector/BiasAdd/ReadVariableOp"
  op: "Identity"
  input: "encoder/encoded_vector/BiasAdd/ReadVariableOp/resource"
  attr {
    key: "T"
    value {
      type: DT_FLOAT
    }
  }
}
node {
  name: "encoder/encoded_vector/BiasAdd"
  op: "BiasAdd"
  input: "encoder/encoded_vector/MatMul"
  input: "encoder/encoded_vector/BiasAdd/ReadVariableOp"
  attr {
    key: "T"
    value {
      type: DT_FLOAT
    }
  }
  attr {
    key: "data_format"
    value {
      s: "NHWC"
    }
  }
}
node {
  name: "encoder/encoded_vector/Relu"
  op: "Relu"
  input: "encoder/encoded_vector/BiasAdd"
  attr {
    key: "T"
    value {
      type: DT_FLOAT
    }
  }
}
node {
  name: "NoOp"
  op: "NoOp"
  input: "^encoder/conv2d/BiasAdd/ReadVariableOp"
  input: "^encoder/conv2d/Conv2D/ReadVariableOp"
  input: "^encoder/encoded_vector/BiasAdd/ReadVariableOp"
  input: "^encoder/encoded_vector/MatMul/ReadVariableOp"
  attr {
    key: "_acd_function_control_output"
    value {
      b: true
    }
  }
}
node {
  name: "Identity"
  op: "Identity"
  input: "encoder/encoded_vector/Relu"
  input: "^NoOp"
  attr {
    key: "T"
    value {
      type: DT_FLOAT
    }
  }
}
versions {
  producer: 1087
}
