node {
  name: "x"
  op: "Placeholder"
  attr {
    key: "dtype"
    value {
      type: DT_FLOAT
    }
  }
  attr {
    key: "shape"
    value {
      shape {
        dim {
          size: -1
        }
        dim {
          size: 8
        }
        dim {
          size: 8
        }
        dim {
          size: 1
        }
      }
    }
  }
}
node {
  name: "encoder/flatten_1/Const"
  op: "Const"
  attr {
    key: "dtype"
    value {
      type: DT_INT32
    }
  }
  attr {
    key: "value"
    value {
      tensor {
        dtype: DT_INT32
        tensor_shape {
          dim {
            size: 2
          }
        }
        tensor_content: "\377\377\377\377@\000\000\000"
      }
    }
  }
}
node {
  name: "encoder/flatten_1/Reshape"
  op: "Reshape"
  input: "x"
  input: "encoder/flatten_1/Const"
  attr {
    key: "T"
    value {
      type: DT_FLOAT
    }
  }
  attr {
    key: "Tshape"
    value {
      type: DT_INT32
    }
  }
}
node {
  name: "encoder/dense_3/MatMul/ReadVariableOp/resource"
  op: "Const"
  attr {
    key: "dtype"
    value {
      type: DT_FLOAT
    }
  }
  attr {
    key: "value"
    value {
      tensor {
        dtype: DT_FLOAT
        tensor_shape {
          dim {
            size: 64
          }
          dim {
            size: 64
          }
        }
        tensor_content: "z=\326\275\027\332\335<\335\272*\2758\255\013\276\231\200\320\275~\255\235=\354\240\233=;\247\356<\333\374a\275\343\305\377<\273\251\342<%\r\276>mV\037=\221\341\034>\376r<\276\207\343\345=\031#&?\032\203P\275\222\324\020>\340\346A=\027\025\217<\335\210\326\277PJQ=\365\316\265<\274z\022\277\356K\024\274p\026q\275\241\341\206\277\345&<>\321\311/<\214\311\206\276f\\!\276\001\034\017\275,yX>\023\346\025\300\177/\215<\334\024\264\274\353\311\036=\322J\007\276\014\277\226\275c?\204=i\365S\276\017\264\010?\006\252\335\275\271v#>s\336\253=F\023\227=\370\270\">xe\327\275\037\221/>\177\227\031\277\264#\005=n\320c\300q\246\017\277)\206A=\002\352F\276`T\206\274\254\357y\275\247\304D\276\262\".\276\rb\n\277\314\0041?\021\003><\036T3>f\212\377\274\247(\263>\2110\203\274C\252\005>\324\356\213<[T\370=\333\242\002\275\005\214\277\273\376\271\001\300L\3573\2752\253\336=\261vM>\224#|=x\034\331>\201\200\236>\377\256\212=\275\343\271>J\t\010\276\330d\223\275(\021\205\275\252\337.=5<\017\276\014\262h=\344\014y=\330\347\202>4\212\310=\217\3704>\010\307a\277@\275\267=%*\267:\326\255\214>\035\235\303\276\206\202\361=\334\\\313=\254\r\375\277nXA\276]:\261=?>L\276\367\250\263\276\230\263\227\277\003\333\254\275\352D\235:\"\3411>l\273\252\276\016dI<96T\275\374\222l\276/\225\021?\332/\t>\\*\367<\344\377\211>\373\201p\274\202\317\t\300\356c\177?\2479z>\264\265\004;\032\377\203=\267\266\014?\025j\365>\334A\232<eb\244=.\262*?\025\005\262=\251K\212>Y\377\272=\304\010q> \3559\275]\362\030>\250\245\322>\247\244\003=\234\374\264\276t\300\332\275\253B7\300\372\371\325\274\253B\320=\241\355\337\275l\340\363>\220\306\361\2761\233\264>\n\020\337<x63?\2776\364=\031^\311=\223(\213\275O\271\345=\257U6>\372<U\275\346P\302\2734C\371\276\001<W>\024\370b\275\0231d\277\246\234/>H\277\264=\313\007\000\275:\036\001?S\223\371\274}S\034=:\225\341\277\273K\220=\000|[>\331\372\026=\337B\264\276\303\256\337\277\351\002}\276\260P\202\275\277TN<\375\rp;wni\277\324\2619>+v\005<\016x$?\022\365\n\274Z#\214\272;\225\247\275\335\366h=F\227\232\277\213v\217>\251K1;\216\230\343\275z\2650<\245M\312=\'\252\224\276Jg\275=\t\003\231<\367\'\373>@?B>\253\253\316\275\261m\014\274B\013\350>6j\013?\242\273 >\264Q\r>i\030\037>\367\003\305>D\"\274>\225\314$\300\345\370\007>\324\341\310\2754\366\243\276H\323\343>\237\306\345\277\3633\374>\245p\207=\240\311>?/GH>\211\003t=\353;\337\275SLZ\276\232\206\316>\347\320\347\275\240)\263\275n\034C\277h\262\320\276\364\331\346\275\326\205B\276\355[\340=q\243g=\351\266%\273I\301\350=<\257\212=\305\r\302\2753\262\316\277\030B\210\275\363\202y>\311\252\246\275\344\376\224\275\273\005\257\277l\244b\276\037\302\246<//\025=\265F\337=\374Nb\277%iG\275\363\373A>\234\227\035?M\254\265=I\031\314;Q{\r\276A\220\327<C\tV\275\366J\023\2776\332\204\275\336\322\215\276P \033=\247i\327\276\250f\260\276,\020\242\275\332\370\335;\210S\326=\315\021\210>\254x\035>.n\370\274\270\241\004\277\336\374\r?|\346\260=\322\006M>\343\214\335=\202\3076?\t\237w>\003S\377\277@N\016\276K`R>M\322\200>\302\024\310>\240\257\010\300\225\017\323=W\260\037;Ce\215=\320#\263\276\244\376v\275\275am=\021\262\037\277m\340\300\275\374\341\313\276\370{j>uxh\276\352\325\216\277\037\347\336=\327o+<R\'\363\276\217q\376\276\314c^\276\330\313i=\367\241&=\'\354\237=\007[m\277\013\024\003=\310\004\326>\312\017H<\022*\307\275\343\366\204=\211\307D>\014\262I\275[\370\336<\0226\264=\224\366D\277@\3362\275{\323\360\275X\332\357=\344]\200>\211\256A>\306\234h\272\025x\022\274\344=\223=|\371\026\277N\010\203>c4\207>=[\371<\276x{\276]\357}\276H\244\277>\017\372\272\276.;6=4o{\276\002\343^>~*\020<\260\300\033>\267\323\023?\350\313\300<\241\016z\275v\310\002\275O.\007\276o\330F?7\020\317\2774\264\233>Y\345A\275Z\004}\275l\336R>4\024\026\3003\224\221>P]E>D.1>\335l\333\275#\230M>y\370@\276,\315\005=\032p\203>5\'\000\276}Y\210\276j\306F>lD\261\277K\272W\276F\323\345=~\247,\274\030\360\t\276\252?\222>h\027\267\276\310\316\225\275I\264\034<\037\007(>[\267j\273\316\357P=,\343\205=\030\321(>\257#\273=\n\332u=\037\201\220>j\246M>&%\203;\222\320\020\277\227\274\007>\244Z\216\277\'\210?>\034\322f=\263\356\216=\025D\371\275\356\002\355<|\231\316=V{\025\275m\367\264>\243\307]=\361r\263\275\261\027\306<U\337\266\276\3425\005>1AO\275\304\273\246>\377\354O\276rw\300>f\266l=Z(\304\276\347>>\276\270\320\202=\241J{=\305\017\002<=\223\264\277\033\353\346=\177\367{>e\226\246\276\322\300\216>\264\237g>\346\327\027>\024`\354\277MQx\275\352\243\224=\341\244K\276\275\021\020\277\034\333\321;\034\027\225\273\356\r\217\275\225|\201;\222\\\026\276\177\203\000?Ze\252>\3430d\277\260%6>\2421\323\275Y\317\005<\357\005\014\276\320\365>>\023\177U\274\017H\256=\361#T;\371n\317=d\256?\275\355\221\273\275\231\277\013>\265o\200\276\217\327\250>\212\226\016>\327\031M>\371\177r>\366\351\223\275\207\016q>:\250\325<C\036\246\277\262\030\024\275\214\003}\274\006s\341<U\325\t>N\242\203<\037\036r\276\004\221\000?g\\\261=!\255\332>\327XG=\2647\021?\243{\300\275r\265\322>7\223\033\277\340kJ>\330o\327\276\247\263\342\277\225\332\321>f\266w>\323\343\033\276\016\316\362=\210\363\301;\007q\340<hJ\370\277W\307\246=\3609\013>T[X>J/\202\272~zv>\r\215\032\277\251V9>?N7\276i\374\337=5\031F\276(L\231\2752V\n<v=\034\277\364\'e>\014\033\031>\177\223\375\276\354\203J?\242<\253>\345\262\316\273M\312\252\275t\352\222\275\333?;>\312v\207>\247\3201\276\":\3019{P\211\275|\025\230=\306\356\305<\2432Q\2754\363\247>l\363\221\276XQ\307=\021\024\223\275^\320(>\357h\002\276\276\315\241<\200\t\373=\002?2=\000l\221\274\207\343\207\277\335\215\277=\201\200_>\033\253\344=5\023\261\275\370G\236\274\004\241\004>}lb>h\025\215\277=\031`?\355\033\225\274\323}\371>\367\260\267\276\320\213\026?]\254s\277\030\335\370\275\246\332G\276\033\027>\3009\223\341\273\332\243\210=h\247}\275v\272=\276\250\260\003\300eo\313=\272\031\031>\306\231\274>$i\001>\204T\226>H\225\351\275\017\250a>d\364g\275\225}\276=dRp\276\334\n\257>/\327\203>\352\022\205\273USY>iIB>\213\013Y<\305\367\235\277v\362\201<\324$\310=\204\236e=\336v\027=\022\263G\276^\251\030\2762\017\374\272\306#^=\272\372z\274\006\257\333\277\222\0300\275\313~\217\275S\213\031\277^\0345\275\320\373\025\275\217h\214\275X\217N> q:>\005\340\203>\344\267E>\376?\343\276\264lR\277\325\262\333>2\235J\276w*%\275\220\031O>\227\2013\276\352\016\204\276y\262\242>6u=\2746\246/\300\361\365\275\276p\232y=\346`\300\275\341\264\330\275>\322\271=\272^\n?\215\030\207<\256\036d\275\202J\347=\003\232%>\037\367#9\231_S=`\364\034>n\330\013?\311\253\020\277\237n\355\277\333! \276\234H\224={\340P>\256\'\320\277C\261\340>\021\312\365:A\243\264>Ik\217=\244\234\245>C\207\252=\265)J>\312g\230>&\016\036\274\330\245\215=\247%\016\277\341\177\200>\261\303\007\276\225j\030=\376\020B\276\005\230n>\271#\347\275\306\004V\276dv\003\276\265,\260=\354\t*\275s\306\343\274\301\025U\276;\200\372\274*)2=z|\240\277\356\346\353>\250|\366>B\275\303=#\322\206=\327\024\307\275\\\247\302=\263\370\'>k\262\276\276\310\270\"=9\231O>\357\206Z>\371\300\001<\014*\001?\322]\272=?\262\242>\020\323\207\276\332\3070=f\320\271\277\247\002\022?\212\034\202<\255cM;\366\245s\275\220\2513\275K5\017=\247JK>\345\335\204\276\247W\033?\315}\034=\336\307\020\276.gi=\375h\201>\370\347\336<\375\360\373;\010\001\315\277tu\251\274\245\223\252\274\335^m\276\301q\022\300\231PY>\300j\302<\0277#>\2510\270=\220\230\370;\177\264\314=\372\206\2228\3203\305>P\003\215<\272\371-\275\220h\247\276h&$=\311\2539?\250\317\215>\331\316U=\350D\263>K\336\222=6t\024\273\010W\032=\344\3667\275\tT\262\275E\304\347=\001<\334\273\200\306\221<\356>P>\030\324\230\277Rx1<L\271$>*m\t>s}\250\275\003\222\254\2775\3723\276\317\250\017>\225j\206\277\371\233\313\276ao\203\274\3233\372\274\277\n2\276\372\271\014?z\010\243\2750\253\036\276\207\301\006?\330\313\335<&E\024\276\004\320\357>Ni0>#\362E\276\326a\327\274\362\256\014?\205>3<\354#&>\357\266H<rk\\>G=1>\032w\263=,\346\312<\351\235o>\'\226\357=\017*\201=tZE\277\364\337\200\275\245\277Y>\233+\301\273\343\"\010\300f\204\363<\322\221\037=\303\372\304\275\024^\217<\232\236\244\277\236\020\003>\366CB=a\205\361>\230\357k>x@\363>C\263\004\273\'7\240;C#\002=\373\022\211\273\245\2268=\350\034\306\276\253\250\026=\372\232\235\276`5\026>\275\241*>n\267\272\275\322\376T\276\243\235c>\256\274\374\2749\330\177>M\313\'\277\262\364b>\021\014\261\275\002.!<9\314\222>\346\374\204\277\236\301\304\276\345\177>\274\233%G\277y\035-\276p33\277\276s\223>R\317k=4\362\026>P|\022\276\333\213\276\276\361\035\334<Z\033\005>\212\270n<\243\215\212\277\247\231\237\274\326\315N\276\022\r\036\276\347\236\250\276H\331\027\276\306\372\304<i*7>\201\315\364\275U\001\235=I\203*>\362\361x\275+$[>\nYm=3XM=\217\366\327\275^\370\256\275\346\353\255:e1>=\331\033\253\277\224\262+?d\354\023=\231\000S\276SqW\275\376w\357\277\273\003\003\276>\374\247<6I\300>\301\257\356=\300#\221\276\274m(>\234}\254>\254m\330\275w\327\022\274\200\001\246\275\017\n2\276\022SV\2773\357\215\275AF7>\367b\314;\334\3205\277`X\212\274\024\362W\274\273^\250\273-\331\326=\356Nf>y\342\223>\253\317\360\276}\225\223=EIV\275\213*4=\234Y.\276\tWy\276\221\263\340\276\\\263\004>\333\016\242\275,\371\265=\013\355$\275\273\025\237=\300\206\373\272\204\3747>\2078\004?\224\200\001>\010\275X>\021\223\216\277\254\247\363=\334z,\276\024\374&\276Y\031\327\275\275\002\256\276\253\270\030=\013\026\033\276\345\212=\275o\222\306\275\214\014\244>\310\034\\\275\277\000\016\275\200\205;\276\362\"\364\274\245\232\261=\347\325}\274^\275|\277\022\274\306=\254\262:\275\t O\276\353\322)>k<\\\276:1\254<r\000\312\277\200\245\250>\312_{=\254\266\244\276}a\342\276\036rr\274\325\036\230>_\334\000?\321\277\274\275\367\250\202\276O\237\250\276\023\215F>\333\226\016\276U\302\035>\234X\232\274\265\316\020?\245\266\303\275\365\246\020>\365\236q\274D\030\006\276\352K\246<\223z*=\323\326\200<\353\tl\2777\255\351\275Q\246i\276\232\3141=\301O\372\276\352/\352<\236\234r;X\374\231\275\252\177P>]\250/\275\356\214\210\277\355\377E\276\302\032p\276~Xu\276\030\205\270\275\260t\007=\301\237\240\275\263\342\036\276\347e\304>\341\237q>\007\t\027\2757X*\275\322\325\361\275J6\303<\322\355\237>\37188\273\007~Z\276.\004N>\257\236\210>\270\376\204=+<\255\2765\271J=\'\212p\273\206\373T\273i\234\333\277\224\032\016>\316x\204>\320\n\325<\371T\013\277\303\270->\267j\211<\366z\353=@\332\032>p\215\233=y\372\243\275\342\301\033\276\"\320\253=\254D\013\276P\233\032=\002/\006>\360H\355\276\267\347(\276\234\313\347<\22303>\377\256{\274\026\250t=\347\231\005?\363~\257>\314&\261\275\014\005\207\276\273\275\334=\203\016\215<\210\024\315=\027t\235\275\313\315X\277\322dY\276\332\222\263=\327\014\312\276\3207\363\2753KN=\030\373\306=.[\242\275\265\343\005>[.G>\246m\242\277\361\021\003>\034C\204\275\026\251\201\276\335\257\216={\267\244<\372\236\207\275a<\260=^\0217\277\252^\032?d\236<\275VHi\276\351\367\"\275\215i\334>W\343\223\274\036\020\216>C\363\003\276\334i\032\300\374\n\202=\332\221\014?\251\324\020\276(q\211>~\273 >\026)#;\001\341\373\277HH\321\275B\354_>DZ\227\274\205\245\200\277@\335P\276W\363\013\277Ox\225>eKK\276\224\tu=R\233\006\274\317!\251>Z\003\334<f\211\005\276\031FA\277^\316\356\2755\016\205\275\030\212\214\274\365)R>w\231\237>\311\314|>*\"\317;[\200\253\275\366\321R\276vq\026>\202O+\275(\352\315=\247\005\320\275t&r\275\367\326K?\356:\226=NL#\276\037\376\020\276\302\2765=S\215\200=\357\224L\277\026E\376<\023\340\246=w\227.=%\3263\275\260\307\201=\323\037\002>\2375\360;\226Nn=\026\306\'>\317\225\246=l\3550\275f\"<\277\321\350\224\277\331)W>5\227\360\275\222\264\032\276\226x\374\275\027\326?=\331\270\233\277_\341I\275mQ\275;X\341S\300o\271\232>\325\016\321<\302\027\n=\255P\377=W\357\377\2772A\235\275#\3717\274>\024\314>\010\305q>\372\267\252\274\201\215\016=\024\361\n\276\362\226e>\\u\331=\306\213F\276\257\252l\275\272\r8>\363\233\256=D\321\360<\352\237\241=\322r\004<\256\351\'\277\330\370\247\275l\373\336=1\3673<\007\236\200\275\246\022\302<\242\016\252\275\300\361\341=\242\211\244=\233\'\312\275Im\001\300\233&\027<\021\331\000\300\343\305?\276\202\345r\275\3461\003>\r\003-\274D-%>_*$<N>\312>p\253\024>\251[\265>\345\366K\277;q\272=AM\251<\350\265<\276\255}\210>[}T\276\302\251\\\27596\362=t\333\357<\344{\000\300B\207o>[\202\271<\252e\214\275iN\320\275I\245\364>\302\035.>\237\036\211>\232;\371=\303\223N\276&\021\275>\n\004\210\273\022\361(>*\351\023=\373\017\006\275*P]\277\031\201\006\300B\315H\2750l\251\275\245.\023>\3036a\277\3220C\276\024\003\237=\337\313\337;\030^\245\275\376\217\300=V\272S\276x\217V=\014~\254>K\254\020>\376\201\262\271qb\033\277\271\266r>\241\350\323\275\033\3778>\312\332\315\276Q\007G\275g\034\322\275\340\\@=\234\233l\275\267/\333>\353\303\273>\306P1\276\360\266)\277\t<\333;\262\335\215\277nJ/\277\225\310C<\2372\027>a\377%>r\215?=\3410\205>\036\203\333>P\343E>\373\224o\275=\366\030?&\316\330;\204\236\236\274\344R\216\275\037`\215>\272\342\227\275\232m\215>m\031j\277\200\341\312\275\325\034*\276^\366U>\014\273-=\215\024Z\275a\213\213=0.\\\2750\362\300\276J\264\207=r\214\257\275\025[\314=\233\376\364=\337S3>T\333\365=\331\364\030=\331f\034>0\320(\277\254\265\252\277A\026\275=\204\262\200>\345U\225\276\001\374\306\277\341\340\246>#\226(\275bT\232=\243\373\005\2764\033w>\023\306\000\276z\226\266=\306\315\207>xS<>,\230\032\276\372U\347\276\330E(>?\221X>:\234F>\022{\267\276p\207h>B\016\370<\372\313+\275^T\250>\274\304F=pZ\300<\364\3676\275\036\314?\276\360\204\231=\033\323\277\275\305x\302\275\3518\264\275\223\213g>\177\003/>.6>>G\326\346\276\361\317\324=\366\236f>8\211\\\277j*&>q\206\246\275Z\025\n\276\327\236\003>]Q\260>\266\000\024\273\353\252a>d\370;\276\340\362\004\276\002\025\374=g}\273\276\330e~\275\3505\270\273\035\333\250=\304\t\275\275\270\001\344>\022\224f>\350\327\003<\177\254\235\275\014\177:=\344\365/\275\325\362\r=ja\322\275\215\032\366;j\016\220<\333\023Q\277\334:->\247\304j\276\200\264\370\276\366\021\251\277%\241\321\275\301A\317>\177\322\027>x\333\201\275\200\n\032\277\312\255k\276\312\254\003\273Q\025\220>\336\334\370\274e\274\373<\245\262[=\0363\222=`g\313\275&RW>\3756\360>\341\r\000\276\263=\017>\202\373\031=h\241^>:d#=\324\0064\275\300\362\306\275\354U\333<\343\360\367=\367\"\010\275\262<\345=\251\340}=\345\321\273\275-y\235=\336n\025=W\200\026\2770\360\034>\27797=\035\305(\277\346\r*\276\026L\244\274\266\370\262\275\376p\016>\306\3318>=\217d\274\304u{\276\337\366\340\274\273\000w\274\375\020$>\334\300L\277h\222\323;\317\350H\273?,\206=p\226\261;\252_\232\275\027~\260=*\344?\274\212\337\000\277O\226*=BM\006>y\277f\275\222\363\225>j\375\332=\222\265\333=?\274\307=\232\346\005>\005\260~\275xIw\275e\313)>\265\335`=Y\265z=\345I\336\275.\n\025\276\264C\263\277\177\007o\276S\n\201=\337\240B>\n\014\224=\376\363\212<A\352\244>\245\261@>w#u\277\360\373\342=\273\3577>$IN\276\326\016\320\276\225\240*=R\207%>y(\235>\344o\240\275}\274\345=c\374\332\275gW\240=\177\265\322\274s`\226>\335^w\275\216\033N\277\341.N\276t\265\255=\207\017\260>\255\003\005>\027k\251\275#w\037< \271\371<\373\205\036\275\206\2750\275\001\322\300=\277\002\342\275\356l\n\275\315\310\204\275\315\357<\276\375\\\202<?\314\306;b\023\230\277\373\024i\275u\327\003\276S\023!\275[\313\363\276\336\235\237\276\253y\254\276\201\001\226\275z\314*\277\333\315\342=R\277\006>\306\370B\2730\256\">\037\"\224\275U@\310\273\374.<\275\371\241\331\273\244G\024\277\263<\237=\201\340R>\2101\341=\215G\320\276\330\347\003\275P\241\037=\306:\313\275H\257_=\302Q\230=\266\320\001\276PK%=9x\007=2\310\327\273.\307\262\273\320r\241\275\235\355\265\275\336k\306\276\350\r7<\002\300\217<\246\261\332;2\201\202<\030P\271>~\355\002>\222\212\357=i\352%\276\201B\233=\205<\356=\221\300\026>\005\272\374\275O=\027\277\014\020\206\275\365\257\225=\365\021@\275\376Q\370;\243\265o<\273E\231=\311\234\312\274U\226\021=\275\220\265=+\366\312\276uI\324<\377I\004\2768V\251\275xd\223<\3601\004\274e\234%=\314\213\035\275O=p\276l\232Q>\261R\326\274D\272\205\276Z\207\277\275\267\000\013=|\360[=\377\244\337=\226\202\216\274\230\004a\277\252\347b=\255I\300\276>\217\255\275\314PB\275\316\375R=\200QA>4\t\034\277\221\351\333=\343g\256\274\357\240<>\306\004\223\277\246\353A>07\207>?\251\344>\246\252~<\374`>>\016\201\306\275\007-\005?Ohq>\275\356,\276\325\231\225\277\224\024\350<\355\377\317\275\305\005\241\277)\230b\276\263r\313=:\223\345\275\377\260\335;\0300\205\276\221\226\272>\025\237\353\275\316q\372\275%\217=\276\317\036*>\222a\210:S,\260<u\250\341\275_r\">\320Z\322=\233\367\033\276\240\335\301>.d\007\276\342\305a>\023]\237=\030\350\275\276Z\331\233\275\016\331\221=\333/!>\223X[\276\244\314U\274\362\342\356\275\243\227\017\274t\002\016=[\222\023>w\207O\277\314\211\322>\271\320\362<\2479\005\277\030\0359\276H\035\267>\363\217X=\037\274\001>\330\354\243\275\017\317\030\300\300 \255\275@\t\020=\003`6\2767\037H\275\301\017:;\035\231\002>\264\'W\275\327\345(>\305\247H>\226\216M\275\261\322\365\277\020\202\237>\023\365\016>]G\223=\252\246w\275\266L\007=\004f\247\275A|\247<\363W\000\275|\252\273\274\356\245\005\300\3322J\276i\331\352\276C6D\276PP<\276[)(\277\211\'\341\275M\003\265=\005@\241\277\302H\240=4\236K\276\033\363\005<Y\222\346=lO\367=1g\345=\230\215 \276\226z`?\247\303\216\276\"7\374=]\017\020>\344sA>`\200\340\275\212\204I=\234\303*\277\311\200\212<\241\305.>\332K[>(\304\014\276\315c$>@8\341\275\003\302\204>\036\201\327:}\242\217\275\027\343\351=\361\233\205\277e\266\026>\004\230\265=\276\234\206\276\345e2\276\'R\032>\216\003~\277\277\311a>s\024\265\275D\2235\300\350A\357>}\3507=\367ip=\370P\256\275\325\364\362\277k(\270\274$\277\201<\246N?>\266\265\217\275\\\336\016>\307\377\2279I\264N\276\267\306t\275\375!\363<\003\'\316\275y}p\277\244\2753=\014\0060>\265r\273\276\233\010\210\274\354\252\032>p\211\357>}X\271\274\313\374\230:\323\353H>(\006)<\306\244\245=\236\323\230>%\033\206=\256\345;\276\253\244\007\274\'m\324\277\207Q\330\276F\023\034\300\373(t=\\P\324<\251\231W=\266\000y\276W\264\364\2758m\273<\001\321\366>\231c\375\275\377?\024\276j\366$\276\311\'\303\275\2412R>T\021\220\274\255\233\252>EL\220<(\352\343=\360\366\332=W\240\326=8L\341=\014\\\032>jmq\275\202\206\344=\230!X\276\263\221\243=\270/\320>\003\231\273>\2215\027=\332\341Y\276\177\230\225>6\213\320\276\202b\211>\375\025`\275r\311)\276\336\365)\277\2570\303\277\331\252\023>]_s>(\2772\275p\245\274>\320\342\201\276b\025\016\274\242\347i<ya)\275;\241\025=\013\332/\276c\330\034\277\341\322\006>*\325\013\276J3\225\2742\366\251\275\247\231l\275\332;\301<L\240\376=Y\325\312\275\200\2304>1\327\340\275\255\277L>\211\271%>\342\3719\275\034Y\003\275\205gn\275\006\021\036\277\177\326\">AY\312\277$i8>\007\244\235\275kcU\276w\0050\275M\304\323\275\273\205\226>q\307\213>\320 \344;\014\020\311\276\314:\335\272b\r\225>\224>\264>9\017\n\276\177k\031>\342\304\354\273,p\232\275}\232^\276u\200.\274\354o\003\276\003\204\227=\250\357\223>^L\313<\341\210\000>w\273\316>\365j7>\336\3361>2*\211<\352?J\275\375;\270=\315@\354>\316\277\255=\020yI\275\002\272s\275\273(\027\277\025q\200\277\313\331\362=\247\376Q>\373\324\265\276p\n\036\275\013Gg\275^\tw\275\0271\270=\247 \347\275l\346\021>\251a)\276L\330\275\275Qe\002>\204\326J\275\273\372\242>\3001\302\275\035\251\037=CT\371\275\207\203\206>\376m\036\276\025S4>\330\005\026\272\254I|\275\250P\247>4AU\275#%\203\274\023F\224;a\207\014?>\332\242\273\367\313\341\275\364|=>\261\245\332<\031w\242\275\301d\361=\202\025f\274}?\262>nf/>\271\356.>3\332)\2778\337\027>\363H~>\252\361\343=\370\362\364\2740\033:>\205a\013\275\344ht\275\001\027\266\276\227\354\037\275\355\335\314\273\003t\344\276\245<\">\022\304\263\274\245\350\271=P\257D\276p\347\303=\274kX;\000\201\013\276\276\234\201\274S-\005=/K\200>\246\231:>/`\352=\230\306\016\276,5\336\276\022+%>\272p\336=\001\373S\275\254\307\020\277\323\333=\277\2315\227\274O\210\022\275\326\t\320<n:\353\274\\\212\n>e0[\276\231\234\022\276W\250\330>\022\003\276\27535\214\276\273\002\201=\247\005j>\000Y\264=\006\353\246=v\255\260\275\343\306/\275l\322\016<\373i\231>x{\006\275x\222q=\306#t\275Z*\005\276g\230\035?\344\217^>\272\276\272<\304H\312\274\250\230\204\275\310\231\277\276\272\326^=\020\203\310\276\013\027\326\274Z\214\255\275\305\2620\276)\264!\277kv\261>\021\331\023>:\230\330<\323\016G>\033\035\327=\327e\022\274\240\347\267=\234\226\305\275:\251\343\274\366\314\355>\243;#\277\330\301\210=\030\234\033\275XP=>\240\256\221\275\260!\234\275\372;G\274\370\247\004\276\0221>\275\346\327w=*\324\210>E\225\002\274\002\345\357<gk7\276\021\325\211\275f\331\346<\276H\346<k\313\313\276\261T\362\276=\251\231>\266\373\010>\343\244\212\276$\177\007\276\205\236\000\274\035ne>\271\3418\276\326\377\224=\211r\017>-\251B>\252\373\236\275\346_\357=\337\360\200>`\277\'\277\225\305\002=\322z4\276\265T;\276\272\222\034?N\305Q=],\305\273m\251\273>\306\334\224\274\275.\213\275\346B\216=\216\354^=\373\355f>\236\242\362=\267\ny\276\226\035\'\277\\p5\274\360\306\220\275\022\261\360\273\014@\302\275\205D\315\275\213\364\350\275\225\246W=\371|\213=\300W\271\275m(#>\326\323\016\276}Z\272\275h\265\257\273Ci\034\275\363\222j<\322_R\274|\256J\277P\027\000\276\262\177\324<{\345\344<\255\246\311\276QK\276\275\222\340\332\275\367\233\234>\244\243\241\276\362\212\313\274\372\317\037>\346\301\233\275\247\313\314=cu\312\275\021\252`\276\346V\323=\270\260\301\275Y\221H>\"\257e\275\333\337/>\257^K>\370D\212\277\315\256\003\276Si\255=h\024\371<\246\307\330\275$\243?=\020\230\017=ooZ>\225\033\242\275H\315\240\274[]\251\276\376\264$\276\233N\223>m\344\226\277\230>\013<\321\301\211\275\210\177\037=\245\337\221;\025\017\254=\252a\303\274k\271]>\212s\017=\334\314w<\035}\305<\232\347\017=\345P\312\273\302\265J\277\204\023\212>\365\312h\275\014\016D=8\323x>s\003\217\275\340+}=\273}\330=\257\244\223<\324\\\232=:\004\256;\326\267`>\240g\265\275\rgv=\316\372V=\246\226o<I\231\224=WJ\375\273\351\256\366=x%\307=v\331\000\275\032\337\240\276\'\316\367=T\331\343\275\005DQ?\360:\327>e\273G\275\335\347\210\274O\021\267\275\027o\314\276\247\255M\275\001\n\350\275L*t\274\301\037\325\274z\265:?f,\273=\035\210\316=)\252\336\275\302\270\300\277<\203\"=\021\321\210>%\214\253=~\\/\276=(\367;c&/\276\246U&>\376\201\355\275\005\025.\2753$\261\277\tm\264>-\376V\274\205\374\244\277vY\255\275\026A-\277\261$\230=\305)\321<\036iA\277L\265\213\275\034\227\354\274|ft>L,?=\301T\310;j\270Z\274\236\263g=@\354t= Z\214>\201D[\276\264\2236>~\352\204>\252BB=U]\221=\327\317:=\364\2435=\310\202\344\275\372\360\002=]X:>\232!M\273Y4\377;7\331\313=y\006k\274P?\007>7yw?\010\201\200<d\321f>\021\304\001>\321u\215\276\221\344\223=A\007\257>Yv\241\276V\014\007?\376\010\020\276/\321\006\300r\t\336\275\305\372\212>x\366 \2774~\036>\361:%\274\251O\022>d\215R>\022`r=>B\031=\310\360#\300\2377\275\277u\302\204=\335\307\037>\325r}=\326\302B\275\224\372\010=\271;\032>Pc\244\275(\222\210>\351\204G?E\n\020\300\376\303\220\275\233&s>\373\224%>\331\257n\275\004s\213\274\330\367\220=/H1>\264?o\277\312\002\365=\345\340\225>\366<\234\274\314\335V\275\267\254H=\221\304y>\301\3758\275\232\260\303>\275\316\310\275\322K)\275\344,#\277M\207,\276AFm>:`\306<\216\267\231\277f1\302=\347\231\203=A\347\007=\263\017\007>\236\335}\276GS\273\277\034\'\010\276\325\202\001>\027\242\206\276\035\001\256=;7c\275[)\317\276\335+B=i\347Y\275\0141\014?\0265\264=\327\250\300\275\222\346\307=\310b\003>\n\0354\300\340\031\340>\373\373,=\2357@=\003c\245\275\316\374\267>\334e4>4/\321\275`\231j\275\320\232\253=dv\307=<[\203=\314\317\024\276\037\261\370=S\234Q>G\311\206=\376\370\233\277&%@>\326c\233\275x\225\316\276\\G|\273$A\n>\315)5>N\222\r\274`\255\201\275V)g\274\nt(\274\"\260\343=\236P\030\277F\302\261=\331X\245\275l\377\277\275\260\305\215\277\304\222\324\277g\200\035\300s\356\214\277\216\t&>\250fS=\364\362\020\276\223\001r\277y_\204=\276u2>|\257X\277\030DE?G\020\332>:\000\020\275=\365\r=\357wz=\327{\232=\374&\177<\225\331X=\017\n\337\275\202\314\364<\227\340\023>\364\020\300>\300\220O=\234\035\350\275\345\265e>8G\013?\263s\257\276j\030]>\207\325\255\275\351K\n>\013\242\350=\2234\027>\366;\302>\312K\317\273\242\271\241\274\325\020\360\276\333\265\001=\326\274\302=-\302\360=T;J=\322\017\327=\201\013\337\273\220\310\231<`|B=-4\320\275ov\375=\2416\220>;\304[\277\025)\013>\237\303\247=\224t\366>\274-)\274\3600\245<S\232\254=\352js>B\035\233\274\266\340\374\274Y`\341=\205h\023\277\262\"\014\275\"\234\002=1\373\267>|\212}\275\020\354l\276\376\317|\277\333\252\357\277\177k\273\275w\234\214\276\007\264u=\201\330\\\275\257\323\223\275\021\305\313<N\3271=\002\031\354\275\320\301\r>y\030\356=A\034V\276WJ\310>\204\317^\275\200\223\247=\265\250\204\275o\252\327\276\335w\032\277bo\251=\346\314\326>Ix\306=\177\317)=\276\350\352;\264H^>\213\261\277\275k\373\323>\036\023\020\275\224\233\366=InV\276\350\350\277\274-\364\232=p\244\265>\002\223\272\274\276?\021\276,\325\343\276C\313\300=\211\253[=\363\277\224=\025[\355\276\312\224\017>\345\356\361=m\316B=\365\005\331=\303\014\320=A\005\030>(\356\272=\372\252\271\276\366R\177>9d\233\275_\032\022<\334\224\014\276\3253z\275\233\010\201<\362\264\334\272\251\224\277\275:z%\276\230\377\332\274zT\251\275\007\245\003\2766\324\033\275\003\307\372>\232.B\273\273\354\231>\303\224\t\277\262A\340\275&&\376\276\271\003\227\277\317v\205<Q\0104;X\326(\275f\214\022<\246\313X>\366v\376>@X\'>\tL\335\275n\016\240<\220\006\310=\207F;\276e`z>\034&\203=\273\340\207\275d\"\t\277Cpm\2766|\365;\177>\032=\212Z(>\321\366\210>mM\344>\324\206\231<{\210E\275A\253\'=\025\003\376\274\277\253?<\337fk\275\202O\354=n\345\340=\t\260\346=;\263C\276]\356x>F\213\375=\325B}\275\275\225%>\301\231\375\2766\241N=g\n%>\004!\215=\002\033\321;j\314\207\275y\363}>\311,T\276\323\341\243\276\314\376\004>\363\246r<.\344\020\277\010\217\351=\340\315\313=\337\035\350\2756\035l<\265\266s>4\3301\275\013\303\022>\016\210%\275\3078\236\275\033N_\276M\033,\274|jI=\030\005\000>\3508\262>\364\340\235\275\264q\026\274Q\314n\277|\016\353\275(}\006\274,\022\361<O\377\273\275K\216F>\335z0>\330N\266\274\002\326\215\276F\312\246=\361\000\032?\262\376#>%\333\">\213%\243=n\021\244<\327u\357>\345Y6=T7A=l\"\032\277\232h\2429\027\201\250<?\367\341=\2676\260\275\215\243\332\274\027\206q<\332\215\010\275\240\343<\275\nt*=3}b=DJ\027=\026-\206=nY\271=\346\343\261={\"U>]\233D>\230\256t\275\254M\234\275YtU\276\204\"t=\300\270\264;X2\005\276J\313\331=\376t\206\275+{6>F\350\377=\272-\014\276\353D5>\206^\374=\000n\322\272\214c\002\275\200\256u\275Y\367\r>\206\267\332=\371\276\\>\210\277\377<\013Z)\276\245E\346\275\356\362\001\276[L#>\274Pw\275b\223V\276E\247U>\230\324!\275\340\260\207\275\200\356\321<\274\205;\276\354l/\276V@V\276\217\302\033>\271\210\007>\231%]>\035\035Q>\246l\342=\022<\363=\313\003$\276\034\207\006\276\202&\261=$R\027=\3003\272\273\211\214L\276ky5\276}H(>\270\237\330\275\202@\256\275\r\014\003\276\340\374\263\274\253r;>B}\277=Th\177=\352\201G\276u\233\032\276\ns\362\275h1}\275\344\351s=\n\277\016\276Z)\246=\332\035@\276.0\'\276\024Vh\275 \240\222\273\207&!>\340\375L\274\364\033\336\275\375@O>\374\3274\275\227\241F>\321Z\301\275\224\253\030=\234!\031=R\271\235\275\211\237\\>d\340\030\275\000\244\354\272\210H\010\275\210\357q\275T\344\t\275\357U\020>\255\014J>*5\354=?o.>Zc\014\276V\020]\276\331~\036>\260\217\350<\256\'\355=\356\255\000\276\256+\355=\023\2456>G\230\037\276\260\202#\274\34062\274\23148>\373\326A>F\261\213=\3703\220\2743\3411>-\036\016>\000\362=\274XW\254\274\037\304A>@LO\273\333\237)>\242\364/\276\364\377\023=k\014\">{ 3>\177\272\r>\331T\000>\351d\000>:\345Z\276\346\325\272=6\034\242\275\235\242\325\275r\303/\276\333\273L>\227\243K\276\207\014L>\205\257\021\276\265\033\r>\351\302R\276P\225i<\342\322\340=`e{<id\r>\322\250\026\276\235\327\034>J5\222=F\255\236\275\324f\244\275\236(\226\275\250n<\276{\277\'>\202\275*\276\301\002V>B\361\336=n\n\342=`\271\260\274\250oa\275`\333\315\2740\363\273<\374\240Y\276\n\346\231=0*\253\274\3635\035>\022\272(\276h=\250<h\033\037\276\360\234u<\361\245\310\275j\275\344=\226#\275\275\247\322.>\262\177\013\276\311\312:>\326\303\211=\315\341W>\246h%\276\214|\026=\234\335==.l\311\275\244\332T\275\002\335\364=\310\271\355<\221\273\325\275\3042*\276\260\030\202\275LKB=\rvW\276~\267\205\275\250\215\266\274\322N\241=#\203U>\204\203\261\275\346\331\227=Kl\026>S\022P\276\232\013\362\275p\n.\274\024\010j=H\316\210\274L\271\014=\003\337Q\276X\374\313\274\234\270O=s\0314>r\337\230=\022w\241\275\236\200\033\276~\024\032\276\316q\356=9\310\016>\200_\371\273\025\367Q\276\313\372E>F\225\374=B\262\221=&\n\210=\000\356\2469f\2232\276\206\347:\276\360\274\237\275\265s(\2763\202\014>\037\263\024>T\374\026=\374l`=u\321\322\275K\350\030\276\326S\r\276bV\252=h\027\305\274z\235\313=\260\241\203\274\336I\367=\316\204\002\276\213#?>\360$\221\274\223*\347\275\252\302\276=\245\201B\276\210\267\256\275\010\201\215\275qZ7\276f\357\327=\277\340\363\275\243\237\362\275\014\t1=7\231<>\316T\002\276\364\271q\275\250\372\252\274\332\301L\276\354\372\325\275\200\201{;8\323\256<\355y\024>\327\224>>\373\034I\276\022\245\216=\230.\220\275xp\025\276VY.\276\262\343\334=\022\224\'\276\261W\037>\347\372\014>je\356\274*\001\037\276<\\\037>\261\027 >\364,X>K\021\370<\023\314)\275)g~>\025X\357>}#\036;\006\332\351\274\270\304\037\275c\210\230=/\305\200>\204\rR\277\223NC\276\374\311\260\275\n\355\344>\323\373\270>\214Y}\276@\242X=>\204\030=bD\366=\014J\264=\000\243\006>\001\320A\276Q]\307\275:\306\003\273y\261\251\276Y\274\256=\362x\243<q\234\000\300\314\301&\300\366\025\247\275z\177\004?\367\226\036\276\302\254\207\276\034Q\216\277\314\262\207\275[\325\303\276\2519\030\277\344x\023\273\t3\213\276\2379B>\217\312\273\277\356\271\022=`\201D\276\323\241\022\276)\307\371\276\230D\320>k\235\322\275\350\254w=\rr9> \303\020><\253T\276\243\261\264;$\357\016\276;\270\000?]\355\007\275\"w>=s\307y>$2l\275o\227\311=\201%\220>\010\264\360\275\206\020\274\275H\227\263\276L\036(>\036\'\266\277\332\022\202\275\353\352\013>\222F\223=uu\234>v\366r\274:.r>\200wJ\275\t\307\305={\310\233>\307\021\335\275\312\235\010>\262^\003>w\2517>v\207\360<(\304\207>\0361{<\217G\266>\201@\023\276\370[?\276\356\245\214\275\237\226{\277u\031\330\274<I\327;\364F\377;\253\332\010>\377\313\307>\367\213\346\277l\037\264\277\035\377\005\277\372\232&\277\3212K=M5\355=xb\341\276\253\222\335=\n\241\236<\374\375\036>EN\212<\366\343\330:/\271\276\274\342\224\344\276h\013\247\275\000\n\307>\223\006\334<\261\244\215>\305hf>\240$\016>\025\220\200=]X#>\267\251(=H\030Q>\272F\247\276\326\270\342\275y&\234\274\303\017l\275\346S\240\276\013\273[>S/p\2766\346\346<4\275+>\224\335J>\2144l\275\216\315\213\275\032+\016\275\024\242\264\277c\244\203=\010\307F\275\227\217\226=\242|I>\320\004\354\274\031\250\022=\267\253\367<\241\000\243<\245\361\223>\036\3777>\375\004u<\256\t\252=\004G\313\275\205\332\207=\303\367\021=\032c\313\274\371s\033<\326\222\004\275\2626\301=\027#\021\274aVE\277\315\001\000>~w\337\274\255\"x>|\342\375>0\341\262\275\273\n\237\277?\035\311=\314`c>\310\332\315\277~m\r\274\021\tV\276\207C\224>\243\300P\276\026\237=>wbR?\225r\201=\306\311B\277\231\026\262\274\351\276Y\274\332|\237\276]\034\312>\336\010\275=F0<\276v\030S>\234\177\215\274v\325\273\275;$\026>\262\353\020>\345D\225>OCe\276\260\251-\276\353\275\003>8\007\002\276\253tQ>\210\024\004>H4\212\275\223x;>\336-\246<\246_\327>\034\346\024\276I\236\336=\334eg=\265\214\301\277Q\210.=\210!~\275\201(j>nCv<\264_\035\277\021\303c\276\\H\315\274\346}\016>\204H\365\275\030\"J=\310\377\203<\237\017\266=4o\224\277C\265\027\276<\243\233>\240b\331\272\325\327\033\276\272\031;\276\337\302\226>\360\360\200\276\227q&\273\304Y\260\275\333\243\243\275\222j\305\275\261>O>\211\377\301\276\004\226\223<\371\362g=Wf1=\340>\201\277b+\235\275\026QM\275\304s\237\274\003s=>\3645\227=?Ul>n\331\243=\304\326\n\275\nfi>\302S;\276\362\177\0309\320?\030>*\005\237>_?\\?\0346\"?z\026I<Y\r\"<^\207\363\274\323~\245=x!\252=\336\354\236\275_\360/\276\224\252\223\275\203\375\245\275\225\030\331\275\025q\210>\373J\010\275\320\251k<\007\222N\276\020\2549\276|\203\242\275\177\031\300\275V\275\271=Y,\r>\032U\316=\246w\364=\260{\"\276\0147(\276\355\275Y>\352\032\343=P \030<\034\026J\276\020@)\276\250\320\360<\344\303r=\260\307B\275 \374\303\275AR\037>\200\315\357\274\302v\262=\342iQ\276\202\020\211=`\275\010<\30518>H\335v\275h\330\013\275\200\372M\276yvF>(b\373\275\200#\336\273\254\212\014\276\376\374\205\275)h*\276\305.;>\303\014\024\276k\273)\276\006\360\364=\362\223\256\275\355\026C\276\360\353\266<\373\034Y\276\200\0242;<M\304\275\350\320\000\276\374\271/\276\326\311\365=\310h\316\275\211\350Y>\200\273\364\272C\271+\276\303\272\021>\305\261$\276\230r\020\276\253v4>\013\031\013>\326,\264\275\'\257\036\276\324_t\275^\322\214\275:!A\276\000\237\217\275\247\342O\276\330@\305\274\\\014\313\275\'\253@>`O\006<\202+\244=&3\271=\311\205J>>z\312=0\351:\276\226\315\354==x\006\276\360\371\317\274\356\340\013\276\314`B=>\201\366=\000\004\3759\n\325\203=\034wi=l\243P=\2406\016\276\"g\010\276\370m$\275\210\326\241\274\317O(\276\344\347N=D\301\032=\342\010\253=\225\217Y>\272/\236=\004\007f=f\340\270\275\221.\007>\333\210\336\275\320bZ\275@\274$\275\364xr=\025\204R\276\006\361\275\275\033\327<>\332p\312=\270Fz\275\222e\376=\330Z7\275A\250\027>\264\223\316\2754\306>\276\345o8>\025\223K>\225\277P>Q^8>\024\2030\276\357\346R\276:\317\300=$W^=\360:\345\275\025\347M>\302\010]\276\357\253+>\316\325\225\2758w\320\275^Y\266=e\3533>*\034\000\276\370\320\201<\366\243\210=Hu\307\274+\273:>\037\365\314\275\030\375=\276\340\377\032\275\374!o\275\244\001 \275\344\226E\276\241\331(\276\007MP\276{b\036>\215\r\330\275\374\370y=\325\303\021>\276\342\311=\227\023L\276pw\031\274-SV>1hO\276\376d,\276\022\355\365\275\203\027\"\276[N\274\275\200\323\242\272\0337\037\276\273ZJ\276f)\027\276+\004\034>\347dQ\276k\277\031>$\301e\275J4\031\276\374\027(=\236\352\251=\023\'\020>\233\354>>\3178\\>\030\346\031\276\326p7\2764\253\"=\340\235\310\273X\036\314\274\360\374<\275\250\312\334\274\240\255J\276\374\251)\275\352k\016\276j\n\035\276\340\000\255<}47>\221\322Z>\331\340S\276=\\1>\322!]\276\337\025/>\226\006(\276\264\325h=xg\276<\260\317\037<*R5\276_kD>}s\035>\007\214W>\\\007\226\275n\253\367=\\\361\"\275`\230\302\274V\005!\276\361\317.>\344v\361\275\250\024\274\275k^\350\275\335\376\340\275s\226\007>\025\255D>,u\233\275\332\001\303=`${\275\371xR\276u\3502\276Z\332\213=\310VE\276\227\305\\\276\022\375\370=2X\212=\314\353(=\360\227\010=\204\024\036\276>\000\364=\236\262\231\275:\002\213=u\226\t>}\'\n\276h\247\274<\265)>>\307z\r>\215]\345\275g\364F>\271\3770>J\236\035\276\306\356\267\275\r\277\006>\370\361\201<\017\374\020>\275\360\014>e\3119>\2105\215<\313\202#>\247L<\27670P>*\260\322=\325\3705\276%O:\276\330y,\276\200\206;;u0#>\"\025\361=aF\036>\362S\261=\251GQ\276\200cR\276\330\325\212\275\177\273&\276\256r\362=\327\3407>]*\375\275h\006\t=++\323\275\374>\331<SW4?\375\323\355<ri\014>\006\346\">>n\032>0\263\031=\306\374~=}\372\215?N\324\264;\354&\225=t\004\271=%\372\002=\025\371\231\275\314nP\274\270\354\267\274(\350%>\030\222\305>\006\243&\276ss\036>Z\026\254\274\232\335\311\275\350\212\201\276E^i>\261\365>\275\363\324T\277>\177\344;\277M`=\023\337\036\273\233+\004?b}\323=\375\t\034\300\354\022\230\277n?\264\276\204\344^\275mf\252=\260_~\275\215\246\226\277\035\253\001>\234\030\353=;{\363\276eT\031>P+A>LnZ\276^\n\023\300\211\331L=\r\377\377=\365\0147>2\201%>\376\032\256\274\n\206\203\277\021\224c=\177\375>>\247\007\000\276\350\201\255\275C\303w\275Ga&\276\242dS\276\223\240\250;\326\257\t=y\005\274=\223\350b\276\353z^\276\377g\267\274\356R&<Bp\367\274u%\232\275\330\260p\275`;\237\277=\345\010\275l\305\021>\330\250\234\275f\241\332\275\265\315\272\274&\267D=\263\200\333=\n\356:\275D\356H=\256\364%=,@\316\274\323\346\036=\275\230C>l\332\020\275w(\037\274}\025w\2750#f:\010\"U\275Q\374\236\274m4\t<\323\232$\277\001\320u=5\302\246=%\322\216=\335Z\243>\232|\254=\263R\007\300\r\221\203\276~)[\275#\014\331\276\255F\365\272~s\025<\251\'\270\276\321\240\024\275\200\2507\275(\014|>X\315\025<\332\250\377\275\252\254\200\275\231\211\275\277\361.\244\275\214U4>\177t\006>\254\027\230\274\2037\272;\203\032\353\276\036J\035\274$4\363<]\355\024<N<}=\351\206\343\276S\254\236\276\353\256+\276\235\203[\276\243\330j<\025}j<h\237T\2763(d\275\225\301\360=\376\341\256=\010V\345\276\005)\013>\375&\236\275n\017\347\277\252(W=\256\324\271=A\"\"\275v$O\27785\204=\262\207\237=\234\326\"=\214We\275\371\357\231\276-`\251=\002\016T>bz\n=\270\214\375\276\371\251\364\274A`\320\275\006\t\251\275\357(@\275\270\271I\275\241>\212<\217\214P=\277\241\322\276L\352\221;\307\257\334=r\263\316\274Y\000O=\346X\037\276W({\277\361\354y=\303Q\362=X\252&\277\377V\351\275\021\315\003>\304Y*\275\362\0216\275}\024\301=&\246\304>{=v\274\261\325(\276\377\255\270\274\362\254H\277\000\201\200\274\337\324l>\372\020\256>\005<==\'\233Y=h[\313\275\250\001;<\217f{\275\231\204?=\300\266\002>\026\257\325\276\253\235\263\275\351\265j\275jS\370\273\\\2229=\316Ek\275\273^`\276\216\252K>\353\315\022=\320\221\250>YMK\277.`\340=\325g\036=\230\202\372\277\027\273\343=\267\354\214\275\010\020\264=\037u\357\277P\262\205\275S\236\'\276q\204\234\2759m\026>\334\214L\276\024\375\200=\375\327\210\273\201\201\321\275Y\251\225\277%\353d=\r\320<\277[\241v=\361\353\"\276\370\306\311<3\324\353>\205W\337\275\210l\273>\265\226\255\275\305\352\333\274~\267\360=,\010\271=\365Q\\\276\323W(>\213HB>2%]=\027\216\020\276\367\200\372\274&A\241<t!\204\274\203\251\227=\372C\270=\371\323T=\023.\224=\2660-\275E\020\334=\021\270,\277\337)\237=\245l\316=B\000\334>\213W\234:\305\201!\277\213\266\216\275\275T\257<\351ar<B\344\365=\325\324\332=\334\246>\276\300\243%\276\177\357\206\276wC\000\276\230\355[\274\\\311b\274\t\001\212\27594\200=\tR1>\\{P\2750I)\274@8\010=\340\263\014\276\362h\023\276\2779\030>Pf\014\276\004\241>\276`\346|\275\264\303\036=c\305Z>\216\370\204=\224\2240=\326]\326=,\230Y=\030\317S\276$\304\n=\300\201\024\273L\210\340\275_f\330\275S\261X>L}\r=\260\253\346\274\300\255\037\276!\3218>R\010\213\275\0235\007>+\267\367\275\251\243D\276\004\335\003\2758\306\242\274\255J4>\260\364\252\274@\315\326<\004~I\276\330\030\215\2744\343O\275\026\'\346=\244\336\220\275@.\252\275N\362\254=I<C>G\214T>\271fZ\276\361\365P\276\024<\002=\324\230\033=\034\023*\275\033:\315\275\203\3372\276\210Z\215\2740\317\005<\220\025\306<&\007\257=\024\250U\276B-\032\2760)\265<\351\007\020>\226s\345=\032\210\327=\274\200c=\361\332#>m\026>\276\230\023\333<{\354Z\276\366D\353=\2406\352<\355\362S>\346\235\006\276\254\276\033\275\372\202\304=\345\355*>\264^l=\305\0328>j\244\312=_\216\377\275`yq\275\317\235;\276 4.\2769\2267>\234\360\n\2768\215\365<\214\010^=\t\026)>\200\277[\275,{I\276\035\370\307\275\304\200D=\214\334\225\275\341\211C>0\325<\276\371\231\016>\300N\351\273\322#\374=\016\221\304\2757\'E\276\344N\315\275\264\346\273\275$\363y=\344\221\025\276h6\363\275\326\322\302=\336\\\323=X>\000\276\247\373\014>\262\256\036\276#\365(>\260\260]\276\3049+\276\240\255\245\273\324\2673=\212\022&\276\302\334\373=\314\350~\275\273U\304\275\361\356B>n;\252\275\275E:\276\010\371-\276\221I[\276\022\263P\276L\007,=\332\260\241=0g\006\275\256\344\370\275\244n4=\276\323\255\275\023\214V>#\313=>V\211\273=p\207\355<\036\322J\276q\010\t>\247+\\>\223\2465>\310\270\316\275\250\205\357\275\200F,\275ja\326=|\212\347\275D\230?\275\252\330\365\275I\013+>\353\230\025>\214\014\017\276*N\"\276\262\323\234=N\370\217=\260\357\325\275\341^\000>\352\371\314=\264~;\275|\237`=\240\244<<\327C\027>\204\034P=;\007P\276&\356\215\275p\264`<B\361\236=,{N\276R>\255=\212-\301\275\0233A\276L\'\017\276\020?\335\275\220\020\010=\3211\"\276>\215\376\275\320ht<\362\226\354=\246\351\241=&2\260=Z\225\336=\206\251\220=\3407\030\274a\035C>d\271+=r\266\221\275;>M>T\374i\275\202\251\323=GU\344\275\002\320\315=\265A\324\275\201\346\037>\333\340\t>\020\000F<5\2409\27602V\275\010\244\364\2744<\034=+|\002>\n\220\230\275\243A,>|\036\006\276bf\370=\036]\243=\237\254\026\276\344l!\275N1 \2763\216<>\257\205\031>\010\262<\276\351\235Q\276p\215M\274{\322\331\275\237\2366>\334oC\275\244\312\030=s\222\025>6<\345=\226S)\276.L\013\276\350L\223<\357\003%\276\324\317\314\275#\272\020\276I\0010>T(\024\276\202\372<\276r\001\253=i\033\001>\024\351?=v\343\261=di>\276Y\006&\276\324\235\007=\3611\326\275~\002\332=\364\034$\275{EY>\013\204\007>\362}\255=\340\347m<\330\307\263\274%\0328\276\0359\033>\311=\373\275\035(P>\376dC\276\262\244\365=i.L>\360\246\010=\250gs\275\273\252B>\352\220\325\275$\200\024=%$C>\022\2247\276\367&[\276p\232\253\275;\317%>\264\007Z\276\220\240\035\276<E\346\276\342&\261\275x6 \276S\203\245<\243\r\261\275\"\265\332\275\261\327}\274K\265\352=0\333\000>\021\223\200\277\363?e:\216\177\206>\362\233\257>\306\335\354=\375\203_\276\357\253|>{\326(\276\033a\337\275\3723+=4>Y\275\251@W=rD\346:\272\205\t\275EI\031\275\352\003~>]i\214<\365s\007\276.dw=8n\354<k\277\004=p\324m?\361Ng\275:\364r\300\226\365\240>\334Av>\250\266R>w\204\022\275\036\356\371\275\\\260\216\277U\214~=\356\277\247>Q\366\316\275\3740\031\275W9\213\275i\257\216=c\245Z\300\310\345\277\273\177l\215>\362\331\360=\242P!=PB\377\267\275n\315\277\203\246\"\275\220\213\203=\242\360\006>\255Rb\276D\312b\275^\255\315\276\336\223\267\274H\247\017\276&\006!<@E\327\274\236\253\021\276\256\255\006>Q)\304\275\312(\032\275\027\264\020\277\252\341f>C\265\007\275\022*\022\300\013\340\321=4\3447?LB\250=A2\243\277k\340p=2\303a>\233hJ\275\303b4\274=D\031\276\252/\265>\004\236s\274\367~+>\223\263O\275\016\316\246\274Kz\\>\362\323]9\266\327\213\275t\242\0078CK\000=tY\323=\217`\223\277~\204\027>>//>\177\024\021\276\251\254T<#v\235\276\225\275#\300\316l\253>1J\225>\236\336\224=\274L\325=\214\031\006>\315y\300\275\375LN=\323l\251\275wV\031=\302\242\327<[\240\301\275\373\223\277\275\212v\023\3006\273\215=\366\203\">\211\232\214>\034c\223=X\227\">\002p\035\276\2002\305\275\365k\016=vcT;Du\035\275\221\342u\277j\246A\276\'1\334<\351\260\275\272\275\317\345<\350P\204\275f\307\216\276\315=o>\251\312z;\341\270\223<\222\277\261\277\246\374\265=\333\301\340\274\005\2405\300Bq#\275\023\026\022>e\273(=\371\364O\300\235l\315=~\337\375\275\032\265{\276c/z=:\344\\\276\302L\210<\314\260\221\2757\006\214=X\013\240\277\310\206\224<9\021\203\275\264\351\227\273\275a\213<\214\354\314\272\025\034\230>S\034B=%g \277\232\3150\275\3177\036>\237\210\250\276R\215\000\276\247\013\007<!\317\356\275\210\304\322\275c\241P\275\376o\027>=a\231\273\246\211y>v\340\024>\"\274\257=\201\3330\276\033\303\r\2753\254\022=v\237M>\233;\314=\377\260\300\275\213T4\275x\024)>\352\331\007?\026\017\357\275\373\327\035\276\335?\033?\223\220\025<<\345\257<\203G\234<s8\007=\207\274o\277\300J-\275\236\335\014\276\337w{<\370)B\276i\214G=ev\267\276\255z&>>YH=4\316\022>\035\017 \277^\031(\276\211\214\026>LE\333\277k\026\263<\372~\242=\353\203B=_RH\300;\341\256\2754{\342\275NK\"\277X\r\324=\242l\024\276\235U\214<\233\354\320=\240ha\275v\317\372\275C \316=\316\016\360\277\nq8=\024\370\363>\301\030\310<a\222\203>\033\227\240=\242\030 >b\312\025\275o\231\001=\226\010\313>]\342->\326f\205>\343\202$=\370\371\036<B\234\252\273\356\304\212>1\3763>\201\331\004\275\221\032>=\035\202\030\275\343\342\271=\360Q>>\330\r\017<\366\003\321\275\023\221g\275\003\300\317=XR\001\275\220\202\227>%\020\311>\230\274\256\277\273q\345\277g2\324\273/\007\212=\274\271\266=J\357g<\257M\334\275fM\025\276\212\026\350\275\007\205\313\276\265\316\272>\"`\310=\3427z\275_\2507\276`\352i\275p\371\301\275\260\372\224\274\030\266K\275\273b\352\275\340\311!\274\244p\034\2760i8\274\000\237\270<\022\231\315=\336-\307=\000)*\272<\024\235\275.\323\341=\321s0\276\357-\035>\201LA>\033l;\276\320\346.\276\245ZG>\020\'\240<\370\336\215\275D\217\n\276%\232\r>`]\223\274\311\314%\276\202\275\227=|]D\276\014\241\240\275D\224~=\216\036O\276\245\317R>\366\251\211=\007q:\276\340\361\206<\236\216\032\276\272\010\t\276J\302\217=\310<\272\275\001\021L>\274\376\024\276 R\230;\2524\231=\215\3012>\037}S\276\253A=>\007\374&>\247\330\001\276\251\333+>\267\215\021>\321W >\025\337G>\034K\033=\236\000\243=\267\226\017>`=\307;\243&\325\275\266\024\233\275\226k\257\275\203\214W>\372\232\262\275B\306\211=\330?\031\276\230\2136\276Q\247T\276rv\301=i\264\037> +$\275c\005J>>\362\327\275\240\243z\274\324\365&=\200 \001\276\001\034F\276Zw\360=\207\027G>\036,,\276:\2701\276F\237\271=I\344<>P\314\201\2746f\247=\314\331\256\275>\266\350=\000\201\313;\352\315\247\275\230\376/\276\232u\262\2754\264\004\276\036\321O\276\221J\020>\232\210\346=\202\374\334=(\255P\275x\262\211<\250\317=\276\334.-=F \201=PE\256\274<\225v\275\316\211\272\275\327\275\037>\355mB>\276\r\267=\022\'\223=v\266\307=\323\255L\276\312\251\211=\343\264\025>\177\326\003>@\2447\275\033D\354\275\211\307(\276\206R\216=\224\355\212\275Hd\016\276C\203\335\275\246,\246=2\370\336=\254\033y==\3220>\310\252\351\275\271\266)>\360\231r<V\010\024\276\031\317\030\276\344\341*\276\215\002D>\220\2566\276\014jP=\316:\260\275\026\306G\276t\200g=T\0042\276\275 ]\276\212t\250=\202\264*\276\201\2163>xp\"\276@\2577\274.a\211\275\303\304=\276\200\253\314<C\202\032>F\300\322\275\022{\031\276\336\206\201\275\362\213\026\276*\240\323=m.\t>\242\371\373=\000x\375\272(X\250\275\030\3432\275\374\335E\275\202+X\276\352\001\276=P\230\371<\305LC\276#\216\007>ny\211\275\220 \306\275\377\0031>{ 6>\273f\001\276\314w+\275\303\031B>z9\373=\246\033\000\276t\3075=r\031\034\276{7\007\276\032i;\276\260\260h<$g\202\275\225\031K>\371\017$>@\312\025\2764\374\030=\200\204\336\273\022\030\036\2760\200\016\275\375\035H\276\035\3018>H\237\031\276\227KU>\210\220\\\275\255^\026>\300\355&\276\246\365\336\275\267\374\006>1S7>\202\344\026\276\025M1>@\241M\273;E\352\275\350\250\014\275\020y{\274\036\003\257\275\322C\240=~\307\256=\323`\022>\370z\r\275%\t\030>k\273\035>\'\213<>\370\257\031\276X3\377<\024U\r\275\256\302\301=\300\225\203;\\\037K=@#O\276+\001\306\275\307\270W>\202\305\021\276\373\2374>f\204\205=^]\016\276\365\037\321\275R\301\233=\t1?>Ts`=\035\264\037>O\367P\276\372j\333=Sh\365\275\226\253\363=\300\036\350;@\257\234<y\277\356\275l\010\'\276\361\220]>\300\303c;R\357\341\275\207\370>\276\016\303\371=EF\\>\370\376\205\275\3739*>F\304\322=\310\271y\275\267=\006>\301\344;\276\316\005\261=F\263\242=/1B>\rV\002\276\021ZZ>\276,\221=m{1\276\025Z\371\275\245\001\"\276\373F\345\275\264E;\275\236\213\376=\206\037\325="
      }
    }
  }
}
node {
  name: "encoder/dense_3/MatMul/ReadVariableOp"
  op: "Identity"
  input: "encoder/dense_3/MatMul/ReadVariableOp/resource"
  attr {
    key: "T"
    value {
      type: DT_FLOAT
    }
  }
}
node {
  name: "encoder/dense_3/MatMul"
  op: "MatMul"
  input: "encoder/flatten_1/Reshape"
  input: "encoder/dense_3/MatMul/ReadVariableOp"
  attr {
    key: "T"
    value {
      type: DT_FLOAT
    }
  }
  attr {
    key: "transpose_a"
    value {
      b: false
    }
  }
  attr {
    key: "transpose_b"
    value {
      b: false
    }
  }
}
node {
  name: "encoder/dense_3/BiasAdd/ReadVariableOp/resource"
  op: "Const"
  attr {
    key: "dtype"
    value {
      type: DT_FLOAT
    }
  }
  attr {
    key: "value"
    value {
      tensor {
        dtype: DT_FLOAT
        tensor_shape {
          dim {
            size: 64
          }
        }
        tensor_content: "b%\310>L[\263>\271\376\016\277\247B\375=\304=\035>\241\217!>\272\226\300=:\030\341=!\252\252=\0212\022>\372O\361=\320X\263>p\t\007?\016]\226=i\000\300>\031m!>\306U\240>G\306\207=\255\3772>\233x\023>\331\333\264=\363PH>\310\320\337>\273\274\177>T*\347>\004\200O>\237\017I>\305\202r>L\371\376=\204\220\031>\256\234\313>\270\334\202>\322$\022>\240m\023>\3372\036>\352\220X>\220\200\022>\371\333\004?\021\177\010>6,!>\273\314\276>\033\205\">\250\002\260=J\004#>\3131\377=C4\016>\273\317P>Nx\023=\242<\305>\200\225*>\206>U>\344${>,\002C>\262rz=\022&\007>\242\303\302>j\272d>\251i\361\276\326L\353\276\332$~>\020A\036>yu\217=am??V\375Z="
      }
    }
  }
}
node {
  name: "encoder/dense_3/BiasAdd/ReadVariableOp"
  op: "Identity"
  input: "encoder/dense_3/BiasAdd/ReadVariableOp/resource"
  attr {
    key: "T"
    value {
      type: DT_FLOAT
    }
  }
}
node {
  name: "encoder/dense_3/BiasAdd"
  op: "BiasAdd"
  input: "encoder/dense_3/MatMul"
  input: "encoder/dense_3/BiasAdd/ReadVariableOp"
  attr {
    key: "T"
    value {
      type: DT_FLOAT
    }
  }
  attr {
    key: "data_format"
    value {
      s: "NHWC"
    }
  }
}
node {
  name: "encoder/dense_3/Relu"
  op: "Relu"
  input: "encoder/dense_3/BiasAdd"
  attr {
    key: "T"
    value {
      type: DT_FLOAT
    }
  }
}
node {
  name: "encoder/encoded_vector/MatMul/ReadVariableOp/resource"
  op: "Const"
  attr {
    key: "dtype"
    value {
      type: DT_FLOAT
    }
  }
  attr {
    key: "value"
    value {
      tensor {
        dtype: DT_FLOAT
        tensor_shape {
          dim {
            size: 64
          }
          dim {
            size: 16
          }
        }
        tensor_content: "\336m4?Y\223\201\2748\t\033\277\265\276\021?@9\r\277\261\261z>si\312=\217{\234\276\317\324\341>[o]>\033\306m\276\'\005B\276\025\325\035\276X\267\002?T\023\230>\343\327s=\261!\024\277\330\324\332\273\r\347f>h\024z>\272\246\205>\231\340\353=\325r\326>\035\352\204\276\233\244\234>\366[\254>2\367.>\310\366\t\277=\225\021\273@\360\326=[\3708\276b\331]\276\260X\206\277q)\230\274L\271\240=\265-G\276\327\216\020?\013\227\345>4\322\215?\370e\236\275$/j=\341\325\330=\373\325d\277i\020\364>\224\267\351\277\274O\317\276\017\305\210>.\301\207\276\357\272\325\276\244\254\024?\272o\335<\353j\244>\232X]\276\346L\014?\200k\243\275\224\312W>\\0V=d,O>\370\314\221\276\255o\261>Ng\245\275\005\324\273\2768s\304\2756\374n>\227\303\234\276\274\000\237>p\344\211<\006\004\202?\254b\245>L\231\026?\004\024G?.\2125\274/\320\020<\'\005\334\275\007\272\244<\021\221\201>\202I\014?\033m\020\277\260x(>\325\326y?!\346\317;\3544\\?\262\377\031;q\336\212\275\354\t\343>!\027\305\276-\302\333=\310{\266\276o\275;\277\253\233\000?1r\373=j\340G=\t\275\034?\316\247\010?\010@:=\027\272{\276\023\3053?5r\220>\252\177Z\275\356\246\312\276\335\234\025\274w\356\225>\263\333#>$Q\334>\344E\276\275\3775\025\277\373\241\246>B:\000\277\024b\005?\263\207\270\276\326U\223>\336\307\022\276j\\\202>\020\004;\276\340\300y>[6\346=\207\314&\277C*\210>\344e\213\276\230\360\260>\362\350C\276\327\345\364>\326N\250=\343\3657<\311\021\002\276\016U\206\275\323\214\363:\016B\000>\023\267\000?\371Uv\277\345\\\006\277\321\013{?A\315(?5\231\345>\273\212\274>\023\342\035?\357e\366<3\357\005?z\000\302\276:\216\221>\254Y\033?>[\315=-\366A=sBE\276\000\033\302>\006\3322?\013\220 ?l\311\275>\225\243\340\276\272\222\233\276\020\357\336=;\tG\276\024\2127?.\372\361>\276\276\326=$\277\243>\2236\203?\203\004;=8\024P>\361V\302\276\036\323\035?\373\365\375>\'8\276\275DKZ=]3\312>II\245\274X43\276\"\005{\276V\356$>\257\372U\276\ni\213\276\245\200d?\3274l\277\312\262\353>1w{\276T\341\002?Y\376\377\275\304f\t>\264^\336><\264h\276\323\313|=\211$\324>\301\242\200?\317\362\016\276_\241\000?\232I\311=\272\215\236\275{3\257>\365B\325>5\357\001?\356i\003>KJ\204=\310\r\362\276\330V\242>tT\221\275R\304>>A\"\313<\254\335\006>\214\323\211>\371\312\034>R\314\225=\270\313\002?\031~\035>\373@\001\277\226L\227\276\337\245\310\276\3026\350>*\226\251\276\n10\276\343\312J\276).\032\277>\321\303=\361xi>X\223h=&E\310:\224\267\020?~\324\313>\230\304\242\275CtJ\275HGQ?y\344\301>\340bx?\3128b?\375\265\023>\267\200\317>\263\257\243>8\232\346>Mh\270>\2552k>\275\377(\275\215x\264>\326\010]\276\003\240\275\275+\006\207\276\243#\234>\261\261*\276Us\331=U\361\214>\342x9\276z\371\216>\0365_\276[a\300\276EK\276>\037\357\310\276\371\270+>\002\362\006>\365\232\357<\010\200\350=*d\000>\363S\355\275\251\226\313>K\n\371>\234\027\221>\t\231\206\276\332\370\213\276\240\343\207\275\255\027\331>)\360\310>\316\215\004<\320\347\215\276\333\253\243=\327\253e\276\366\272\377<^\232\236>\026{\277\276\200\262\023\276\361\223\021>\370\215\261>\002\"\030>\216\300\300\276\362\216\322\276\334/\244>\212\355\216\275\261?\225:\256&\007=\2720\363\275\3370\343\276,R\360>&\265~\276(\261\230>\n\373v>\r\261\261\276\365\364\034\276\266\350Z\276\250Z\364>\231?\257>\224\256\023=\207}.\276e*\213>\206\370\032\275\302\207\334>~\227\030=FQ\025\277\276\013\214>^\"\002?\016\203\307\276z\237\021\277\303Fa>\317\231\237>\253e\027>\035\031\346>\330P\'?\324&\371\275l]\214\275\003\222\033\276\276\007\231>O\342G<\017\024\302>{\240\331\274\210\311\010?\200S\247>\214\337\213>\316\262\325\275\241\301\341\275-\3606\276\203\304\307\275)\305\322=M\244k\276\373rJ\276\263\317w\276\247\257\334>\207#\201>r\002B?\315@\263>\021$\203>\023%\242\276\334\\}\276\351\024Q\276\362\241\326>\377$j=\313\035\342\276\241\332\342>\031\367\003\276\365\374\333>\026%\261>\004\306U>-j\204=P\324\305>\230P#\276\030\023\030>v\006\036>u\250\214>\030\2352\276\223\220B\276\273\221S>\322f\366>\333\032A?\276\311\023=\211\032\242\276\227\245f=\206\254\010?\177\013l>\034\375\256\276l \240\275(\337U>gE\345>\003\373\201\276\177\024\230=\276ti?}\034\220>u\022\206\276\030%}>S\337\222>=\316\364\276\266\210\335\2747p\325=\214\034\262>y\024\220>\374SC>\274\233\300>\243\333\331\276\327w\354\275V\3435>\014\313\210\273)U\232<g\230a\276\016\330\234=\267\363g\275\001[ \276\377h\004?\2378\375\276\312X5>\223\344\366\276=\370\201>;\304\231=\241\344a>\211\257\312\274\250\004\311\276\232\250I>{\227\303\276\203\306\274=\004T\317>T\361\334\274C\315l>\322\264\030>\372?\200>2\321\365\276\356\002\321\2763\360\245>:\033D\276#\022\340\276\255C\243=\227\361\007\276\256\256\277:Cl\017>\332\345\205>Cb\352\274\013\271\373=\262\376\216>\t\020Y\276\333\037\272\276\304=\322>\264\225\210=\317\250}?\237`\233>>d\227\275+\236\005\276\323\311\261>\333F\332\2753\325\205\276\363\317\025?\207h\203\276\243\272\251\276@6r>\225q]\276lG\255>\021\337u\276.\313\002\276\2454\273\275\204\201/\273\014\231K<\200\340\251=\315C\214>o\364\234\276}\243/\276\034\264L\276\251\240\\>\231\352\221>(\356\315\275\352\207\210\276\345\374z>BX\267>\177[\360>\217\311\253\276(\347\035\275\0105q>\305S\033\276H\255\351\276\'/\321;\277P\322\2753=6?\217\362\274>Z\357#> q\343=\322\232e\276U*\303\275\264\033\361\275\240k\022\275s\215D\276\0379\231>|\200\321\276\360P\224>\247\257\216>\321\213\367\275\"u0\276_\317\262\276\205\267\203\276o\236\275=\234\"\352<\226\250\224;.m\n\277\344\237\r=\371\365x\276\313>\343\275zaJ>\002!\252>Q (\276H\" >I L>\255\006)\275&w\316>\025\232\036>\243o\210\276\"\344\217>\226dA>\027\201\344>E\263T\2752\246\210\276\344\227a\275\250\033\006>\215\251,>[\301M?n\214\016?\352\377\366=\204\\\223<5k\237>\326t1\276\367\317\227\275\230\016\004>\345~x>\001U\327>i\274\241=e\303\220?\000\202\245\276\231]9=\227\217\300\276\302\2574>\355k\310=\251\364\340>\002\303\372\275\274S\027>\233yC?|\315\203\275\362F\365>\3608\313>\202P\227>H\234#?Y\346D\277y~0\276\3537\201?e:\236=\215x\032=\262\030\376>\017Q\310\276\002\250\254\276\227\307B?\372\334\244\276\332\377c>K\036\034\277\016\217\347\276Q\314D?\202\013\000\277\214\305\020?\320\033\236>\215\317S?\023\247k>\210\355\201>%G\355\276\347>J?=\257\235?\031\315E?\212Q$\277\036\375\t\277R\214/>?\374\273>;>\233\276\304\221z\276\316)6=\277\300\371>\306\204\300>Yy\177:\377\352\331\275A\335\243>\322\215\016?\022Y\305>\003/\227\276Pb\022\274z\216p>\364r\346\275Bj\326\276QA\242=\036\271\325=\220\335\255>\347L\003\277oE\354\275\247\337Q>I\273\311>\037\244(>\311\312#\276\n\265N?6\221\032\277\262\351\305\276\254}\244\274p\264\227>I:\237=\n\210\320>\277i\323> \031\231<\026\014\r\277\341&\314\276\234\374\316\276\334\343/\276\335\204L\276\330\037\275=\212-\367=E$Z=\321\022\357>r\235->\261K\017>\307\365\355\274`~\007\276\377X\265>\203Y\004?JI\205\276=\271\010?#`@>\341N\334>\260\010:>m\315F\275C>?=\202z\023?\333\257I>\024\244\021?\320\341\025?\037\231\312>+M\221>\004\354\301=\305\352^>k\304\021=\2433\254\276Ox\200>\355\362\032\275\236\022\264\272\255\262\223\274\362LX\276\005n\340>\256\261X>\344\303<\276\316\260\000?\267\3434>+\256%<K\352\005>\260\001\256\276%\201\034=sR\002?\213\345)\277qO\372\275\026\035a>9\223\243>lc_<\236\270/>\221\301*>\261g\230<\326\261~>XW\031\276&Z\036\276\033,\252>\001\335\367\275\206\254M\276>\030Z\275\002}\211>\203b\034\276\322\220=>\035\307B>\306Lz>c\316\233\276C\230\264\276`;`\276\266\307\242\276\276\351\333\275\r\3415\276\354\254D\277@\255\332=%\263C\276\2127\306\276\2607\272\276\2059\215=m\215\361\275\014\327\350=\223\317\253=+\361\t=\330Cr=\360X)\276\265\032I=\272G\305<X\026\276\276l\311\037?c\251\247>\271\311O\276\341\027\027\275C\223\270\275Cm\274\276\334/\210=\025U\211\275vs/\275\032%V?\005\251m\276\306tk>f\357b\276%\305\014?OJ\220\276j\007\315=-\247`\276\370\357\234>\253%G>\220\251\335\2765\013\246=\340\216\241>P\320\">7n.\276\375\362\r?\035\336\235==\366\216>\014\246l\276N^<=\214z@\276A@\301=\277U\246=\231g\327\276\334I\235\276\216\026c>\020\316\034>\216\360\243>\361\035a?LF\356=9,\245\276\373/A\276\025%\363<&\301\t?\220\033\300\272S\331A?\226(]>\264ZL>_\313D>\033\253J\2768RC>\266\035\027>\370\314G>\014\034\035\275\204\231\305\275\003\022s>?1\251>&\251X>\233\325=?\\\020\327\274el\372\276I\021\255>\2329E?S}\026>=p\005\276Hp\330>V\236\275\276W\351\261\276\304\264D?\300\235\377\275:%\270>\232\003\323=\370\214\254>\240\205m\276oe#\277F\273\312\275\213M\210>\211K\021\276\250\365\234>7!h>CG\310\276\017\317\000\277\237a\023\277\035i\'?\'\305\201>A\370\377=G/.>X.\306\276\017\355\227\276\354\340\216\275)\326\014\277:\373\016\277/:\307\276\312\315\004\2779\023\213\276\372\3108>Q\n\313\276\250XO\276\321\320-\275m\027\024\277&Cs:\245\205q>\260|\210\276\2319F=\203\216\216=\215m\003>W\345\007>\356\234\254>\340\037\032?i\033\030=3\305\237>3\221#>\253p]\2768\277\266\276\346e\202\276\276\317\324>\346:\216>\212\250L>2\336\371>\273\023\234>\222!\004>\373\313\326>\261W8>\005n\215<>5\351\276\342\302\317\276OA!\275e,\341>\210\223\026>\240K\236\276\327<\365=\324\016\236>\332z\023\276\302\007\013>\017\023\331=\206\336\013;\235\214:?/\241\305=Bv\337=\222\337\357\275\177\036i;jcm>8C\237=\217|$?K\301\335>\223\304\330<O\367\224>\220j\325>\316[\214\276\'\'\306=\345\027\253\276\312\304\354=\243@\256=G\261`>N\262\363>\261\332\211\276N\342\033\276sm\033>U\006\032?.1\255>\331\355\006\276\243\312Z>\217\213\220\276/\020\337\276x\023\000?\3259?\276L\026\215>.\237\032\275\364\316\026>\244\343M\276\213\356\353>\222\371\026?w\021\021?\031\016W>^\233\032\277\007\376\251>}\245->\0039*?\204\035\321\276\212\016\345=\337\205\n>\304W\206>\260H\320>\210\025\332>\357\373\372\274[\014#\276\226\375{>\274\204G\276\216\211\205\275\221\207\026\274=\327\334>\334\361\326\273\362\376\016?\307\023-?\013Z#?\020?F\276\r\215\301\275\264.??\271\275\334>\212\312\260>\037\377a>\006\327\t>\333\\V=(0\231>f\257v>!h\212>fnE>\256w\030\276\332\337:\276Q\204\210>\373\377D>\207\232\215\276\203\203\224\275\267\266\344>\277<\t\276\251#\222\276\034!\252=`\270\372=\326\270\001?yY6\276 \032\373\275-m0=\345\237\340>I&_=\353,%>\n7\356>3\320\234>\037\342\315>T\226@\276:\323\246\275\205\"\354>L\347\227\275\256u\256>\\>\253\276\234Jn>\273\261\327>\270q\305\276D\242\250\275\206\233\201\276\205.\253\276X\031S\276\354In>\272\272\210\275\331\034b>.\"\202<\324\214\325=\212\207Z\276M\277K\277\007\373\031\277\222\264\231?;\365\271>\361\361n\277\331\357m>\221SB?Y\237\037\277q1\246\276\324\277\236\277\200\200Q\277\303\331\321\27775\223>\304\206\204?AP\200\277t\0073\277<\302X\275P\370.\277\2248N\277\004\037;\277Dd5\276\316\343C\277\271\243\247\277\301\204\360\274I\020\021\277\005\370\264\276\000b#\277\331\243\314\276[\016\335\275\3449k=\315_+>\377\361\213?\306\240\205\276\\\212J>\037\003\245>Iu\237\275\362\231\337>\367\317\261>\277\3472>\017\030\217\275\345p\306\276\241a\371>\2737\\>\316u\377\273N>\027\276\374X\235>\200w\240\275\030D\254\275\203(@\275\216\260\375=S6\036?x\213\244>G\331\365<\003l\354>\330\241Z\276^\315h>u\360u\2767p\207=\330\315X>Z\331Q\275\314\332D\276l\223J=T\2272?7\360\313\276pn\325=\330\007G\276P\363M=\2115\236>\321\327\212\275\336\227P\276{\360w>nY\333>\374\374?\2767\305\324=\326\364&\275\3306s>\262\306\356=@\326\226\276Ug\350>\243\006q>\312g\300=\014\371\353>\231E\304>{kw\276?t\220>\301D\207>\020\352S\277\232Z7?\234\304\220>\211OS>*\321\241<\251\371Z?\n\342(?\320\264D?#\225\317>>\245F>\003%\206?1\252\010?\023M~?\353\376\210>\022;8?$\230\016?\305\027\">\365\321\355>\305\021\213\276~rF\277\370\002X>\241\270#>\315\323\352\276+K\201=\336\237\246?\241\247v\276"
      }
    }
  }
}
node {
  name: "encoder/encoded_vector/MatMul/ReadVariableOp"
  op: "Identity"
  input: "encoder/encoded_vector/MatMul/ReadVariableOp/resource"
  attr {
    key: "T"
    value {
      type: DT_FLOAT
    }
  }
}
node {
  name: "encoder/encoded_vector/MatMul"
  op: "MatMul"
  input: "encoder/dense_3/Relu"
  input: "encoder/encoded_vector/MatMul/ReadVariableOp"
  attr {
    key: "T"
    value {
      type: DT_FLOAT
    }
  }
  attr {
    key: "transpose_a"
    value {
      b: false
    }
  }
  attr {
    key: "transpose_b"
    value {
      b: false
    }
  }
}
node {
  name: "encoder/encoded_vector/BiasAdd/ReadVariableOp/resource"
  op: "Const"
  attr {
    key: "dtype"
    value {
      type: DT_FLOAT
    }
  }
  attr {
    key: "value"
    value {
      tensor {
        dtype: DT_FLOAT
        tensor_shape {
          dim {
            size: 16
          }
        }
        tensor_content: "\300j\211>\242VK>\200n8>\240C^>or\227>\257\253}>c\315\352=B\"\034>\362\373\003>\260b\361=\266+e>\007\264\256>\352;\256>\271\274\207>\215\276(>)\357\271>"
      }
    }
  }
}
node {
  name: "encoder/encoded_vector/BiasAdd/ReadVariableOp"
  op: "Identity"
  input: "encoder/encoded_vector/BiasAdd/ReadVariableOp/resource"
  attr {
    key: "T"
    value {
      type: DT_FLOAT
    }
  }
}
node {
  name: "encoder/encoded_vector/BiasAdd"
  op: "BiasAdd"
  input: "encoder/encoded_vector/MatMul"
  input: "encoder/encoded_vector/BiasAdd/ReadVariableOp"
  attr {
    key: "T"
    value {
      type: DT_FLOAT
    }
  }
  attr {
    key: "data_format"
    value {
      s: "NHWC"
    }
  }
}
node {
  name: "encoder/encoded_vector/Relu"
  op: "Relu"
  input: "encoder/encoded_vector/BiasAdd"
  attr {
    key: "T"
    value {
      type: DT_FLOAT
    }
  }
}
node {
  name: "NoOp"
  op: "NoOp"
  input: "^encoder/dense_3/BiasAdd/ReadVariableOp"
  input: "^encoder/dense_3/MatMul/ReadVariableOp"
  input: "^encoder/encoded_vector/BiasAdd/ReadVariableOp"
  input: "^encoder/encoded_vector/MatMul/ReadVariableOp"
  attr {
    key: "_acd_function_control_output"
    value {
      b: true
    }
  }
}
node {
  name: "Identity"
  op: "Identity"
  input: "encoder/encoded_vector/Relu"
  input: "^NoOp"
  attr {
    key: "T"
    value {
      type: DT_FLOAT
    }
  }
}
versions {
  producer: 1087
}
