node {
  name: "x"
  op: "Placeholder"
  attr {
    key: "dtype"
    value {
      type: DT_FLOAT
    }
  }
  attr {
    key: "shape"
    value {
      shape {
        dim {
          size: -1
        }
        dim {
          size: 16
        }
      }
    }
  }
}
node {
  name: "decoder/dense/MatMul/ReadVariableOp/resource"
  op: "Const"
  attr {
    key: "dtype"
    value {
      type: DT_FLOAT
    }
  }
  attr {
    key: "value"
    value {
      tensor {
        dtype: DT_FLOAT
        tensor_shape {
          dim {
            size: 16
          }
          dim {
            size: 64
          }
        }
        tensor_content: "|\"\200>3\273\202<\326[\030?\014q\277<\211\243\273>%\205L\276\032\245\010\276\362t\216\276\215\374\365>\346\255\017<S\004n\276\017\021\205\276g\323j>\177\201G>\031=L\276\367\302K=\226-\277>5\374\317=\361\240[>\303i\206>h4|>\312\236\213<\320_\246>\251f\244\2757z\201>\362\235\251>\331\313\302>\326b\270\276\212\\A\276\307;\363=c\243c>T\354k>\2061?\276\236\0216\276\2204\330\275\377vH\275M\364\243\276)\210L>8\364\337\276\305\250\377=\036\346\231\276A\034\273\276\2619\251<v\272\014?\374\177}\277S\234\307>\272B\376<\311\324{\276B\205\231\276Z\274g\275Iy8=h\016\250<\262\331\333>\352X\373>\377w\276\275\212I\270\277\016\021]\276\247F\225;vL\332>\\}Z\277\206\262\260\276#7\344=\362\223\006=\362\330\211\276\365\376:>:[\204\275k\312\244>\363T\347<\024)b\275\312\264\024\276*>\013>>;\325\275\0001\230>\236\014\265=DfW\276C\235.>6$\324\275\000\203\201\275\000. >\330\231\316=\007\3639\276\001\364\024\275\245O>>\211\234\266>\356o\233\275\177\032\215\276\016j\360;\3102z>\251\0145>k=\330\275\326X\'\276\241\307\313=\004\343\r\275\2168\204\276\342\254\207\276:\275\\>\267\220\240<\210XE\276\276\002\202;\334I`=\006\261\211>\234W\206\275,\267Z>\361\302o\276z\006\323\275\356\001u\275z\247y=N%]=\211\2278\276\212\023m\275\366\033\001>\372\010r>\332\317\206\2769\335\345\275\2070\267=\204\305*\276:2\205<\277\263->w\251\260=\223\346O\276\310\014\257\274\275wh\276\243\365\236=%\275\200<\020\250\201\276\\\277D\276\306\nl\2752\276\204><\'\241\275\326\361!>n\336\224\275z\007\314=\346\334\366=\322<\302\275\034t\271=\002T\362\274\312f\223\276\024\250\273\276A\004\222>\203\344\364=R\237\211<\343\017S\276\r\010h>\361\r\022>\033J\307\275I\373\325\276\306\177\r>e\202\224>I\346e\275\321\350l>3h\277<\032\301\377>\226;\336\273E\240\201?\264zB?\375\324-:\205\261G=\265\344B\277\'\372)>4\226G?\024M\340=\373\332]>\223\364\330>\351*\024>\236a\272=\267>c>\2529\340=\203\234\267\275\373m\235\274\252\332\271<o0\220\275\310\030K=\276\271\243\276|\231k>\274\360\027\275\306+\037>\375\271\203\2766\031\\\276\014\334\222=h#n\276&L\323\275\243\230\025\275\303\341b\2765\226\353\277\332:\312\274\032\237\320=\274\223+?\251\370\322=\002\357\010\276F\016\347=\255\350(=\363\361n\276u\327t>o!_>[\354\004>?\016a\276H\\\257>%\"x\276\354\355\321\275Is\n\277\302\000*>\027\374\255>W\330Y>\224\211\207>\266W\200>\3432 >\312~d>\342\306\274\275\361\311\355=~\016\r;6\016J>\205\362\250\275E\'\243\273\254\201\022\276\323\352\363\274?>\003=|\021\034>P\347\230\275nH@\277\2076\337\275\303s\256\275\227T\033?\222j\004>\301\263=?Gp\222\276\216v\205>xa\013>\256\034\355>\376\354\227>C\336\315=\r\347\356\273\256x\224\276\360\200\212>\340\336\004\276\257C\253\275F\262\227;\377\304\315>\315?\255=\"\246-\276P\260\230\276\203\314\">\210o\212\277m\277W>*\253P>\022s\332=\207\252\314>\250D\327\274G\347\034\277\365\301\021\275F\315\002=\3710\233\276\204\310C?\360\3351>Zt\345\275\322\272\234\276a\000\203\276\2529C\276D+X>\317\360\270>{\001\203>G1\360>0GT\275\032\244\341=qF\006\276R\033\246\275\347\261I\276\277\355\003?\362G]\276\375\3024>X\255\305=\345\303\014\275e\302\321>\233\340\350\276\366\212\305\274>\261\251\276\313\224\314\276\214\370&\277K\337a\276\235\332\217\276\034\213T>.\177\031\276\200\227\254\276\t\326C\277\212\224[=\273\364\361\275\363\362\220\276\330mE\276i\255\354\276\371N\217\276\215\253\355\275\312c\306\276\373\333\354\275Qc\233\275a\262\312\274_>\302\276\r*\016\275\305\026\275=\303\334\365\276\"\266\334=\267!\216>\311\347\243\276\021K\010\276\2653K\274\302}\340\2750\314\177<\251\206\322\277\360X\212\276\350\352^\276\230\211a\276\214\255@\276\343\266\344\275\001\274\222\275\215Q\214\274\271WL:\270\2404\277\261^\037\277\274\3242=\023\222U\276\214\365\200\276H\220\317\275\240\324[\276>\265\206\275L>\225=\351\213\210>.oK\276\224\363~\275\250N\266=I]\220\275\034\253\035>p\035\313=\223\372Z=I\262\343\275H\270I\274\005%\035>\221\210\220<3o\233\275\223\200q>$G8\276\367\227q=\025\373\224\275e\255\275\275\267\273\334\275\021D\211>\364\202\020\276v\n\261\275\017\033\010>\222o\177\276\336N\337<6\327\353=\320\375\230\275\361\372Z\276\213\000\340\275*\030\363\275\312\230\031>\234\335\222>\237\262\312\275c\027\245=\214\216J>\017\375\006\274\242\2422\275vH+\276\262\231\211\276!\226\235\275J`\201\276\363\026`>w\334*\276\370\306\007\276\341vE>\240y\215>\034\310\210>3mQ\276\035\013\022\276\234h\235\274\254\3050=a\230g>\216\371\351\274\351<*\276{\031\323\275\223\225E\275\277\303\372\275\316\245i\276H\346!>\217\024)\275\371Jb\276\177\235\227>U\017\321\275\235\342L>\356C\005\276R\016\002\277\\Qb\276\030\342\371=\232\376\332>\341W\277>^\311\210\276!R\324=\023F\n\277\312\256\020>\026?\205>\236x$>\227\242\267;\274F\210\276*\254\202\275\t\024\323<\317<x\276\"\177\331\276\306\335\240\275\204\334\001?\005\013\360=\317\276\377=w44\273\0371\361\276\270\263\231\276\253\013i\275\267\024\363\275\n\235\303<\255@\243\276\225q6=\253\007\344\275\222\233\336=X\332I>\207\005\316\275B\215\204>\032\233+>\366\215f>\345\312\321\276\370\267\362>F\365\236\276]\323\256>\264\000`>Z\234\264\275W*\022>\347|\252\276\336a\346=&\226\'?\361G\302>\237\255r>\333\332\211>v\262\201>\2145/\276#\"\342\275,\304\256=\335\320\317>3\355\t=\215\353\214?@\267a\275\317\026\004=\264\366\334\275\300\256\024\275\252\034\247>j\261\357;\005e@>\216\325\322\274\305h\252=\200t\252\273\021\024\007\276\306\302\004?\330\324\207\276\346}\301=\230\003\312>un\027?\034\214&\276\245\250\376=\3773\310\276\361)\240=\367\205\030\274\021A;>Q5\202=4\3512\276M\275\242\276b\023R\274\334{\315>\321\355\343\275\273\232\206\276h0\003\274f\237\320\276\0312@>\\\313<>*\035\232\275\007\3665\2760\330#>\250\001\373=WP\246\276\304\265\374\276\030\210W\275\010\031W<\300z6=\215\231\216>\266H\363>?\336\203\275\221\236\363>\n\n\271>(T\236\276&\001\272==\357q>\256\254A?\022!x\275\350\263p>y\000\366>\212\177\321>\211\226,>\235W\\>\361O\371>\304\372`>\337}\003>\364\331\275\275\222B\323>O\215\230=\023\275,\275\366o\205\276/\243y>QC9\275\212\016\230\275\355\230\037?\351\036\225\276\355M\253>\247=\304>!\037\270=\340\356\233=\202\262\262\275?;\231\276EC\235\276kXB\276\274\230R\276\235\370\350\276\316.\302?vI\037\277\340\036\312>\024\267\204>\250\313P\276.\210*>\\R=\2767\250\324\275j\016\301>\t\315\211=\254\321j\277\207S\360>j`\230>\331f1:\246\376\252\276\253\037\350\276p\250\271\276\026j\232>\305l6?D\250\037\277\247\001\027?\235E\313>(\332K\277y\366s>\0303\342>\355\272\313\276C\346u\276\266\203\001\277$\271\216=\227}\027\277w\246\323\276\r\225\271>\036\322\346\276\025B\017?\341!P\276]wm>N\2561?\220\362\256\275\344\3253\277\013\233\335\277\272sG\276g\222\370\2762.R\275\005\016.\276h\247<\2762\354=?\217\257Z?\374\351\203\276J\350\334\276!\034\240\277\333h)\276\242\255\014\276!\372i\276h\2712\276\002\314I\276\260\317\347<2\205\265=\270\232G>7\334)>\260\r\352;iq\\<\330\271L>\322\'\202>\262\225j>\304n\321\275\324I\322\2744\234\023\276.\262\207=P\0076\276B\370\013=\324?\272\2758\232\002\276\r\276\300\275\003\024h>_?b><\3333\276\361\367+\276\356\325\361\275\314h\254=\232\362\244=\017\003\265\275\335\242T>\357\355C\275o9U\276\234\023{\275\361\333\350<-\030\266\275\305mb>A\341\230\274\310\003q\275\315\367\230\275\314I\036>P|-\276\312\267\024\276wS?>\035\236`=\236\271\033\276\302\256f>\233\321L;\366\227L>\317L>=\215e\230\274O5\375\274\203f\330\275,\317#\276Bg\213=p\362%>\221l\"\276\304,,\276\243\244h>Zd0>\\\367i\276\273\206;>\300$m>\035\366\003>\200\314\366<P\217\233\275#P\233>hY\301=\370%\025\274;\362\205\276s\253\212\2765-.\276\226>\335>\325\203\263\2756\027\242\274t\250\021=x\017\n\276\363)\261>\375p\230\275\374\252r>\202U\035\276\354w\025\276\r\317^=\325\324j\276B\351S>D]2?\243\230\377>\344\003_<\023eS>\237\002\343=\r\244G>\365\324\005?\204\376\354\274J(\271\275]\007\037>y\371\177>\004\2419?\276]\r\277X\025\207\276\255\307\226\277\255<==\200\201\207=\327\230\036\276\322\036\324\274s\262\\\275\032y\320<\261|\265\276\223\205/>\324\211\021\2767\320o>\327_\004\277<\035B>i\222\024\276\231\374#?\303Y\036\276j-\216=A\306u>G\324\237\276\317\3472\275!\034#\276\245\263d>\001J\225=\303r\215=\370\367{>X\2102>T\2577>\003\313\252>\024\"\257\276\356?\204\275\031\356\201\276\215\2077\276\325e\220>\266\345\266=U\272\210>\324\017\t\276.\246v\276\177<\366\276T\317\022\276f\354[>\201\370\331=\246\340\311;\352M\271\275\256\030\264>\327D\211\275\241\017\242\276\373H(=\207c#\277r\201/\276\277-\262>\276J\235>\003\202\304>\036\276\237\277\371#x=\335\356\334\274\203\355?\276#\375%?p\254\315\275\273W\315\274\374\245\214>\371\336_>\362\311\217\276o\215\212>\375\200~\276&\317=\276\212\251R\276\311\030\253\276-A\324=\277\321]\275(\264\217>\257\300\010\277\256\313\013?\006\010\337\274(V\212\2768 \261\272\224\343\025\276,-\266>\230\374\223\276\233\331$\276\343\324\017\300\032N\306>n\362\312=w\202\035\277Cx1\276Z\223Z\276\3472\350>\342\006r\275C:\210>\361\200\233\276\022\370\204>\264\002\266\275&/\213\275\337L\\\276\000\316\020\276\316\325\372\276\265\350\332>GD\211\276\343\350\317>Y\240\014>\\\333\211\276\021\311\030\276\322\301\317=|9c=k\321I;\361\014Z\276\023\375\215\275\234\331\211>\033\317.\275\274\267\223>\223R\'>x\263\374\274\321\252\016=jcJ\276\374,\213\276\354\244H\276w\252E\273\335_m>\205\341\016>@\221\265\275\371=\257<\016\356(\276\373xV\274\356\010\001\276\003/T>s+\322\275i\223L=;o\022?\030\000\3678\343\203\235>\362\201\227=-\036\313\276*z}\275i\355\217\276\243\007:\276\203!}=\357\330\347>hg\367\275\321\323\221\275\rd]>\265\2057=:\364\323>F\273\360=?\010\310\275\364\003Y\277\214\222I\276\215\203\263<\023L\224>G\351\336=\274\221#\276c^\271\276-(\340=P\316s=\220$)>\233e\303\275\263\362b=\021\365\'\275\235D+\276[\363\007\276\204>.>\216y{\276\244:\275\276\355V\202\276\325\n\267\276\005\337\032\276\246^\265\2757\177\200=\326\332l\275\344w\213\275\346\254\035<Ed\240>x\0268\276\t\224\311>\0268\374<\301Sp\276\261\233L>\017c\014\277\215\214\214\276\313\226l\275\265P\244\276\004X\234>\016\246\033>tSi>%\0244\276Hs\215>\036)\362>\332\032t=\374\2146>\307a\273>Ae\035\276\013\205\204\276/\371\n>\001\225\220=\366\273\317>\333\030\022\2753\r\322>\233??\275\312P\024?\344\247\227<$7\037?@y\216\276 \rx>=Z\030>\340=\225\275\316\326\302>\r\202\013>+\213\203\276\240\n\267\275\326\307\317>n\217\315\276Oj~\276|(\336>\336\025\220=\261\036\305\275\007\263\014\276\301\261\202\275By\240\276\276_\360>U\231O\277\005D\231\275<\351\027\276\207a\310=\366>d\276}S\234=G\224\345<(w%>\363jx=\253\355\001>*J\330\275PWj\276\247\205\024>,\275\023?P\262\215\276\242:\226>\260m6\276\032V\211\276\255s\211>=\"m\276\240\200b>@\214\223>\264\267w=\013H\020>\266\320\203>\226\243\214>\325\251\031>H\245\274;\032\310k=\250}\217\275\261\3220>*\230\267>\230#?\276~\360\275\275\"\302\005\2764\271q=c*>>{9\263>\350\205\256\276@\360\277>\374\317\221\273X1\004=\315\237B\276\362X\221\276\005\340\007\275\304\277>?Gq\245>\362}\241\275\314\222\225=-\351y?\376MU\276d\332W>\275\261\252\276\370eE>\2124w?\266\235\267\276dL[\276\024w\031\276\362\rA\275\032\326\004\276\004\003\236>x\014\232=\0246\302>\256@w>(h\377\275\360)\270>\037\021\273\276\313\341\303=Y\322y\276\234\243B>$\377*>\206\343\014\276\260\320\371=\233\206\000\277\334_d>\004>\272\275(7M?\206K\001\276\2022\341>zk\307\275\207\224v=\377\t5=\014\033\232\276\200}J>\341\"\306\274\005\226g\276\233\034Z?NT\246\276\207\255\t\274{\255Q?\007\271\224=\017^\372=\205\335\356\276\010v\206=\022q%\277(\237\037\2772\351\017>z\244z=V\203y>\0227F>p\004Q?JC\245>N\315\037>\246\010>?c\r\024=]Y\214=\032\033\254>\"\030w>\347\270n>\214\263\355=ea\307=\353\345x\274\233n\327>g\252\365\276\3147\021?\2026U>\027\251C=\324`\322\276gL\277\276\200\3707\276\246\270\006\275\375\237\037\277\345\305P\276\227r\031\276\376\215>\277}\\\307\274\306\325\255>1\317U\277d\275\006\277v\330\244\276\365\224s\275\361\2018=\266\370\300\275"
      }
    }
  }
}
node {
  name: "decoder/dense/MatMul/ReadVariableOp"
  op: "Identity"
  input: "decoder/dense/MatMul/ReadVariableOp/resource"
  attr {
    key: "T"
    value {
      type: DT_FLOAT
    }
  }
}
node {
  name: "decoder/dense/MatMul"
  op: "MatMul"
  input: "x"
  input: "decoder/dense/MatMul/ReadVariableOp"
  attr {
    key: "T"
    value {
      type: DT_FLOAT
    }
  }
  attr {
    key: "transpose_a"
    value {
      b: false
    }
  }
  attr {
    key: "transpose_b"
    value {
      b: false
    }
  }
}
node {
  name: "decoder/dense/BiasAdd/ReadVariableOp/resource"
  op: "Const"
  attr {
    key: "dtype"
    value {
      type: DT_FLOAT
    }
  }
  attr {
    key: "value"
    value {
      tensor {
        dtype: DT_FLOAT
        tensor_shape {
          dim {
            size: 64
          }
        }
        tensor_content: "\246\323\374;S\0179=\242t\357\276Qec>\335\205Z\276\000\000\000\000S\335\027\274d\313\016\274i\014.>\335)}\277\371\243L>\201\"r>\005^&=\377\317\202\276\244\352\204\2752\375\303>qN\371>@\216Y>\304xs<\204(\353>\377\356\262\276?\310)?\364\r\357=\\\021~\275\"@\203\275A\006\345\276\306\366\277>\1779\306>\357\257`>\"\377b\273\237\t\316\275RE\215\277t\204\307\275\274\325\365>\260\332\314\276\366_]?\214-\215=\213\034\221>[K(<\375[\305\275PC@\275\362\270\344\276\346.\256\276-\233|>\241\332\256>\271\274\272<\3562\200\276\270\322\240\275\255\245\344=\037\027\330\275m\t\376=\317\361\250\275 \216\237>s\302\215>\200\3274\274D+\036\276*\363.>\325,\216\275X\363:\276~$)?\355T\030?C\252\353<\356)\320\274\000\000\000\000"
      }
    }
  }
}
node {
  name: "decoder/dense/BiasAdd/ReadVariableOp"
  op: "Identity"
  input: "decoder/dense/BiasAdd/ReadVariableOp/resource"
  attr {
    key: "T"
    value {
      type: DT_FLOAT
    }
  }
}
node {
  name: "decoder/dense/BiasAdd"
  op: "BiasAdd"
  input: "decoder/dense/MatMul"
  input: "decoder/dense/BiasAdd/ReadVariableOp"
  attr {
    key: "T"
    value {
      type: DT_FLOAT
    }
  }
  attr {
    key: "data_format"
    value {
      s: "NHWC"
    }
  }
}
node {
  name: "decoder/dense/Relu"
  op: "Relu"
  input: "decoder/dense/BiasAdd"
  attr {
    key: "T"
    value {
      type: DT_FLOAT
    }
  }
}
node {
  name: "decoder/reshape/Shape"
  op: "Shape"
  input: "decoder/dense/Relu"
  attr {
    key: "T"
    value {
      type: DT_FLOAT
    }
  }
  attr {
    key: "out_type"
    value {
      type: DT_INT32
    }
  }
}
node {
  name: "decoder/reshape/strided_slice/stack"
  op: "Const"
  attr {
    key: "dtype"
    value {
      type: DT_INT32
    }
  }
  attr {
    key: "value"
    value {
      tensor {
        dtype: DT_INT32
        tensor_shape {
          dim {
            size: 1
          }
        }
        int_val: 0
      }
    }
  }
}
node {
  name: "decoder/reshape/strided_slice/stack_1"
  op: "Const"
  attr {
    key: "dtype"
    value {
      type: DT_INT32
    }
  }
  attr {
    key: "value"
    value {
      tensor {
        dtype: DT_INT32
        tensor_shape {
          dim {
            size: 1
          }
        }
        int_val: 1
      }
    }
  }
}
node {
  name: "decoder/reshape/strided_slice/stack_2"
  op: "Const"
  attr {
    key: "dtype"
    value {
      type: DT_INT32
    }
  }
  attr {
    key: "value"
    value {
      tensor {
        dtype: DT_INT32
        tensor_shape {
          dim {
            size: 1
          }
        }
        int_val: 1
      }
    }
  }
}
node {
  name: "decoder/reshape/strided_slice"
  op: "StridedSlice"
  input: "decoder/reshape/Shape"
  input: "decoder/reshape/strided_slice/stack"
  input: "decoder/reshape/strided_slice/stack_1"
  input: "decoder/reshape/strided_slice/stack_2"
  attr {
    key: "Index"
    value {
      type: DT_INT32
    }
  }
  attr {
    key: "T"
    value {
      type: DT_INT32
    }
  }
  attr {
    key: "begin_mask"
    value {
      i: 0
    }
  }
  attr {
    key: "ellipsis_mask"
    value {
      i: 0
    }
  }
  attr {
    key: "end_mask"
    value {
      i: 0
    }
  }
  attr {
    key: "new_axis_mask"
    value {
      i: 0
    }
  }
  attr {
    key: "shrink_axis_mask"
    value {
      i: 1
    }
  }
}
node {
  name: "decoder/reshape/Reshape/shape/1"
  op: "Const"
  attr {
    key: "dtype"
    value {
      type: DT_INT32
    }
  }
  attr {
    key: "value"
    value {
      tensor {
        dtype: DT_INT32
        tensor_shape {
        }
        int_val: 2
      }
    }
  }
}
node {
  name: "decoder/reshape/Reshape/shape/2"
  op: "Const"
  attr {
    key: "dtype"
    value {
      type: DT_INT32
    }
  }
  attr {
    key: "value"
    value {
      tensor {
        dtype: DT_INT32
        tensor_shape {
        }
        int_val: 2
      }
    }
  }
}
node {
  name: "decoder/reshape/Reshape/shape/3"
  op: "Const"
  attr {
    key: "dtype"
    value {
      type: DT_INT32
    }
  }
  attr {
    key: "value"
    value {
      tensor {
        dtype: DT_INT32
        tensor_shape {
        }
        int_val: 16
      }
    }
  }
}
node {
  name: "decoder/reshape/Reshape/shape"
  op: "Pack"
  input: "decoder/reshape/strided_slice"
  input: "decoder/reshape/Reshape/shape/1"
  input: "decoder/reshape/Reshape/shape/2"
  input: "decoder/reshape/Reshape/shape/3"
  attr {
    key: "N"
    value {
      i: 4
    }
  }
  attr {
    key: "T"
    value {
      type: DT_INT32
    }
  }
  attr {
    key: "axis"
    value {
      i: 0
    }
  }
}
node {
  name: "decoder/reshape/Reshape"
  op: "Reshape"
  input: "decoder/dense/Relu"
  input: "decoder/reshape/Reshape/shape"
  attr {
    key: "T"
    value {
      type: DT_FLOAT
    }
  }
  attr {
    key: "Tshape"
    value {
      type: DT_INT32
    }
  }
}
node {
  name: "decoder/up_sampling2d/Const"
  op: "Const"
  attr {
    key: "dtype"
    value {
      type: DT_INT32
    }
  }
  attr {
    key: "value"
    value {
      tensor {
        dtype: DT_INT32
        tensor_shape {
          dim {
            size: 2
          }
        }
        tensor_content: "\002\000\000\000\002\000\000\000"
      }
    }
  }
}
node {
  name: "decoder/up_sampling2d/Const_1"
  op: "Const"
  attr {
    key: "dtype"
    value {
      type: DT_INT32
    }
  }
  attr {
    key: "value"
    value {
      tensor {
        dtype: DT_INT32
        tensor_shape {
          dim {
            size: 2
          }
        }
        tensor_content: "\002\000\000\000\002\000\000\000"
      }
    }
  }
}
node {
  name: "decoder/up_sampling2d/mul"
  op: "Mul"
  input: "decoder/up_sampling2d/Const"
  input: "decoder/up_sampling2d/Const_1"
  attr {
    key: "T"
    value {
      type: DT_INT32
    }
  }
}
node {
  name: "decoder/up_sampling2d/resize/ResizeNearestNeighbor"
  op: "ResizeNearestNeighbor"
  input: "decoder/reshape/Reshape"
  input: "decoder/up_sampling2d/mul"
  attr {
    key: "T"
    value {
      type: DT_FLOAT
    }
  }
  attr {
    key: "align_corners"
    value {
      b: false
    }
  }
  attr {
    key: "half_pixel_centers"
    value {
      b: true
    }
  }
}
node {
  name: "decoder/conv2d_transpose/Shape"
  op: "Shape"
  input: "decoder/up_sampling2d/resize/ResizeNearestNeighbor"
  attr {
    key: "T"
    value {
      type: DT_FLOAT
    }
  }
  attr {
    key: "out_type"
    value {
      type: DT_INT32
    }
  }
}
node {
  name: "decoder/conv2d_transpose/strided_slice/stack"
  op: "Const"
  attr {
    key: "dtype"
    value {
      type: DT_INT32
    }
  }
  attr {
    key: "value"
    value {
      tensor {
        dtype: DT_INT32
        tensor_shape {
          dim {
            size: 1
          }
        }
        int_val: 0
      }
    }
  }
}
node {
  name: "decoder/conv2d_transpose/strided_slice/stack_1"
  op: "Const"
  attr {
    key: "dtype"
    value {
      type: DT_INT32
    }
  }
  attr {
    key: "value"
    value {
      tensor {
        dtype: DT_INT32
        tensor_shape {
          dim {
            size: 1
          }
        }
        int_val: 1
      }
    }
  }
}
node {
  name: "decoder/conv2d_transpose/strided_slice/stack_2"
  op: "Const"
  attr {
    key: "dtype"
    value {
      type: DT_INT32
    }
  }
  attr {
    key: "value"
    value {
      tensor {
        dtype: DT_INT32
        tensor_shape {
          dim {
            size: 1
          }
        }
        int_val: 1
      }
    }
  }
}
node {
  name: "decoder/conv2d_transpose/strided_slice"
  op: "StridedSlice"
  input: "decoder/conv2d_transpose/Shape"
  input: "decoder/conv2d_transpose/strided_slice/stack"
  input: "decoder/conv2d_transpose/strided_slice/stack_1"
  input: "decoder/conv2d_transpose/strided_slice/stack_2"
  attr {
    key: "Index"
    value {
      type: DT_INT32
    }
  }
  attr {
    key: "T"
    value {
      type: DT_INT32
    }
  }
  attr {
    key: "begin_mask"
    value {
      i: 0
    }
  }
  attr {
    key: "ellipsis_mask"
    value {
      i: 0
    }
  }
  attr {
    key: "end_mask"
    value {
      i: 0
    }
  }
  attr {
    key: "new_axis_mask"
    value {
      i: 0
    }
  }
  attr {
    key: "shrink_axis_mask"
    value {
      i: 1
    }
  }
}
node {
  name: "decoder/conv2d_transpose/stack/1"
  op: "Const"
  attr {
    key: "dtype"
    value {
      type: DT_INT32
    }
  }
  attr {
    key: "value"
    value {
      tensor {
        dtype: DT_INT32
        tensor_shape {
        }
        int_val: 8
      }
    }
  }
}
node {
  name: "decoder/conv2d_transpose/stack/2"
  op: "Const"
  attr {
    key: "dtype"
    value {
      type: DT_INT32
    }
  }
  attr {
    key: "value"
    value {
      tensor {
        dtype: DT_INT32
        tensor_shape {
        }
        int_val: 8
      }
    }
  }
}
node {
  name: "decoder/conv2d_transpose/stack/3"
  op: "Const"
  attr {
    key: "dtype"
    value {
      type: DT_INT32
    }
  }
  attr {
    key: "value"
    value {
      tensor {
        dtype: DT_INT32
        tensor_shape {
        }
        int_val: 16
      }
    }
  }
}
node {
  name: "decoder/conv2d_transpose/stack"
  op: "Pack"
  input: "decoder/conv2d_transpose/strided_slice"
  input: "decoder/conv2d_transpose/stack/1"
  input: "decoder/conv2d_transpose/stack/2"
  input: "decoder/conv2d_transpose/stack/3"
  attr {
    key: "N"
    value {
      i: 4
    }
  }
  attr {
    key: "T"
    value {
      type: DT_INT32
    }
  }
  attr {
    key: "axis"
    value {
      i: 0
    }
  }
}
node {
  name: "decoder/conv2d_transpose/conv2d_transpose/ReadVariableOp/resource"
  op: "Const"
  attr {
    key: "dtype"
    value {
      type: DT_FLOAT
    }
  }
  attr {
    key: "value"
    value {
      tensor {
        dtype: DT_FLOAT
        tensor_shape {
          dim {
            size: 5
          }
          dim {
            size: 5
          }
          dim {
            size: 16
          }
          dim {
            size: 16
          }
        }
        tensor_content: "J6S\275\"21?a\263\206\275-x\243=\321\242/\276\345\240\t\276\327\367\302\276\024\310\354=\3011\021>\300W\352\276\331\202[\276=\0246>CZ\244>\362\0044>(\343\317=\237\270\035<a\265b=\214lS=\356$\025?<\361\230\275\246\356\261<\304\213\234=\311\267\031\276\022<\245<tdO\276\355X\"=\363\013\332\275=\371\177=\235\006m=\177P$>\356\215\312\274g\376d\276!\232\342\276\346\322*\276JMu<\335\206z=\236\303\247>/m*>\230\272x\276<j\027>I#\336\276\tG\216=\305\225\272>\305\201\306>\2722Y\276\225\026\215\276\020\355\271<\273Z\316>\333\311\357<\205\351\227\276\331\340h\276\034\222i>!4\302\275D\370H\276\237S\006\2773\367\r>\022j\t\277\205s\312\275\351J@\276\204\272;\275;\030\216\275*/\362\274C\275\033>i\237R\276\2658\336=\242\224\201?\254\367\024\277\001\363\255>\206r\234\275\027\211\020\276\206\002\343\276\236\026\271=\236\rw\277\371\277d>Y\005\273\276y\222(=o\327r\276}f\211\275\350e\264\276y\372\026\275A\234h\274\233\216\247\276\216\266\235=\351\253\037=\207\370\340;\321\215\341;A\037\211=\000C\340=\263q\205>\003H\r=\006Q\230\275je->.,M\273\345\205v<v\006\366\275Z\225\000=\177r\260\275ph\341\275\325\346\253\275wV\203>\336\271\024>\365\317\'>%\213\264=V\221\221\275\226\335R?k\217\320<\316\033\306<x\333\230\275 \234\271;\211D\004\275\317\245\250\275\363\244\205>:\211\030\275\233\355\210>\205\217\235=&\367?\274\331\020\307>\024\335*\276?\214\002?KJc\276Gb\302=>g\351<\312\222\031\275R\214\231=S\323\021\276\354#\360=\363\332O\276\253\274\003\276\021\\E=\243+\364>\211\000\261\276 \347\303>[\377(\273(\230\000\276J\331\037>h\263h\276\221\347\335<_\352>>c\361r\277\355E\256>\021\226\367>~J\335\275A\212\223>\251IY\273<\365\251>\216_\'>\316n\203>+\330\014\276\233\266\020\275\227A\026\275\246\355\">\310\360\230\275\375$\341<\371\026\322\274HqK>\251$\n\276\230xj\275X\270\243<*\254\215=G\036_>2\305\210>F\377\202\275\374nT?\'m\314\275[\356\010?\255\262,\276\'\2717\276]\333(\275\201\276\'\276ZD >\346\262!\275k\261\246>0$\006\276\3523/>\362rH>w\276\001=6\014\240\275\023\337R?\254\016\205>t\2457\276;q#\277\366\236\215\276\010k\023\275\250\326\357=5b\365\276\313K\355=Qs\000\276_\354\n\276-p\004>\332\366\002\275\240<\334\275N\360S\276IS\266>>\361[\275\362$\206>\341z\257\272hd=>\025J-\276\202\363Z\276\231\357,>\200\360\014?\252\343O>\236\341\263>p\323\343=\345\336\016>\003/\310>\261\335\226=\321\217\336\274j\211t>\267\203\312\276\332bV>Y\353\010\276\246\037\037\276\r\374/=\335\316\030\276\207\304\336=\356\261\242\275\004U =\343AY\276\203\013\202>J..=\245/5\275@J\210=\305Q\206=\016y\275=\323^\004?P b\276S\017o>\305\327\031?\303]\273\276\226\036;>N\216\004\277\263\315\354>\337/\277\276\217\257N\276b\262\035>\351\345\225>To3\275\351\271H\276\014\202\010?As\225<\231\354\014\277F\244*\277y\364\352\275?\246\260\276\341\345\021\275\231\366\035\276W\251\313\275\006\035\352\275\331\207\000>\231\263\n?n\212\320>\036[\020\277Pz\027>\000%\371\275_Fq\276j\005\262>UH\013\277ea\\\277\220e\200\275\354\2623?\262\371\233>[\373r=\245\201\275>\224\215\024\276sD\376=shX>PyM>\2676C\2751=\244\2762\337\036\276\017Ps>\272\274/\276e\021\210=\307~\366>\313yi>\275\031\263\276j\343\336<QR)=u\336_\274%\224\207\276\305\354\223=\305\225\031>\304\270Q=\2300V\275N\2250\276\270\330\'=Ob\221\274MX\233\275!\251l>q\024\020\276THi>*\006\273\276)\215\026\275\233\314\223>\351\346\027\276y=\207\274\371\237\n\277\334S\215>t^\207=\324\220\211>~\302]\275\303\027Q\2760\212\020>W)\375>2>\032>B\tn>\214-x\273\310\334\322>i\246%>\036MK\277\213\005\334\274\352\362\006>\263<w\274\226\000;=\225:\203>\351\362f>\340l\030=\374i4>`E\002>\216\257s>{\230\360\275\321_#\276\357\273\243>\314\\o<\305R\331>\006\254\244\275\363U*\273\245\205S\277N\036\273>7$\276>1pL>\377A\002>\356f\\>1\260\r\275,\304\313\276\375\325\317\276\251\307Y>B\021u>K,\037>\320\341\331>\022mL\276e\204g=H\342\226<\032L1?<y}\275\211\243\'\276\227\261s\276 9\356<xC\036=\236\355d<\261@)>4)1>\020\3244\276\277\214\013\276\234hG<\317\337t\276\270\331\036>/+\351<*M\020>\377n\266<\320\231\227>x\002s>\244\213T=\014\3063\274\222\"\275<\335=\323=\230\346Q\276\203{\332=<\367\022=]5J\274\270q~>\214EI?\2263\311\275\250W\036?^G\003\271\374\315\203>!\207\240\275\353{\210>\0052N\2765c\376<\355\352\215\276\024\362\005>\203\342\210\275\0133A;\252\2214\275~u\005?\305\341\257=\261q\350\276pj\007<\314\031\256\275r\344\032>M\343\251\275\000\2277>w\312\326<\214~\255=\307\202\005\275\001?E>\273\347\213=\271\0247>~\244@=\\\'\014>\207\000H>\356D \276\024\'\007>\226\273A\276\035.\344>cC\236\274\303}{\276\013\341\'=xJ\312=\037s\256\275hQ\013>\306g\005>\325z\n\276\n\214^=*\231\036\276\206^\363\275\247ma>\351&\334=IX!?\020\222\304=\200~\255\274\351\252\205\275S\306;=\2015O=\352\254n>0\347\262=\250z\274=\025\364\266=E?f>\366\267\007=r\331\300\276T\035\252\274\333\005a>\274FP>\242\320\224\277\247+\360\275\201sX\277\212L\360=\250\r\027\277E\\\201\275c\355\001?C\225\266>\376\177{\275\353\250\252\276/H;\276\024\205j\276\325\233\211=5\322\000\277?\025b>Q\337\236<\376>6\276\020\244w>\352,\250\276F\347\013>\261\363\247\276\307.&>fz\263\276\324\233\230=!o\261=$\'\277<0\025\363=\3141\202\276\n\2431\273\336)B>0\344:\274\253\255S\275\275\300\n?\340\267i\275\244\031\007\2764B+>M\315s\276\300\351\336\275\356\347\302\274ih!>\236\376\023\2757\2049\274\027p\341=\212J->\203\r\243=\037\347==\263\235\327>\270Ei\275\023w,=1n\247\275\355vY\275\303\362S=>K=>:\320\201<\010\325O<G\334A\275\027\023\254=$\222\322\275g\244\212\275d8\034>\331N3>q\374k\273vI\221>c\035\322\276\253\277\212\276t\014\254=\317{\t\277\265\272\023=\340o\377>\345\311\201;\010\234\245>\230\372\265</wv>\266G\233\275Xa\305\274\331\3231\276\370\016P>*NS\275\224\362\212\276T}]>hM\203?\347\243z>\220\300\323\275\316\032v<m1w\275%L\240\275S5y\275@\304H\275\361\n\320\2755\303\255=\305\277\020>NZ\016\276\025c\032\275-&\236>\n\371o\2763\203\235<\021\357\225\276Q\265\207=\213T\306;`(\n=\316\246|\275\036\006\204=\314\030b\275\356A\216;\013\333i=\2519\003>ym@\2751c\227\276\2228t\276:r\327\275ET\372\276\270J_\275\356\327\216>\336\2245>\t\324\022\276mM\365=u\177\350>\312\010\327\2760\211d>\217F/>\271nv>]?\256\276\313\254r\276\211\242\004\276\016\242\007\2762\366p\276,$C>B\271\322<%!)\277I\331E>\300\"w>\033\023\216<4\313\270=\204>\013>\312\222-:W(\255=*q\364<\003F@>\271\231\342\2756\217\261\275o\255\240\275\340\365\362=\377\005\005\276\232Ta>\314-\002@\272EI\274\301\275\010>;6\262\275\274\250\205\276{\004\305<G\352L>\274D\261<\207|\267\276\030\267\256\275+,\373=md\272>4\350Z\274\265\316\253<\266\023\307=\001\307\222\275\365\331\305>\361\253\002>3N\334\274D\276\004>\210\205\206\275a\\=>\342\343C>\315iG\276\271\266<=\335\235\261\275\016O\001={|6<#\260\327\273\223\027\367\275\232\211\030=\351\326\340\275EyI?Z&&>930>\020\373\232\275\315\272\027>\227\306\033\276x(\336=\004^s\276\222\r\033\276\037\230\300\275\357d\304\274\247\364\n>\366JL>\216ey=\3416\351\276\352X\326>\237I\376>e\371y>\320\327,\2765^\263=*\022$\276\246\261\223\275\2504\303>\2226\247\275(Pk>&>/=l\221\350\274C\033\301\276\223\007K\276\357\274$>\216U\227>,\210\226>D\327\205\277.+v\276\002\030\221\276\362g\207\276\366Ry>kU\230>I\034V=\231\227\342\275m\370J>\247\265\344\276\274 \265<\0319G>\305\200\300=\016\001\223\275\362\352\303>\361\336->~D*?\016\036\351=Df/\276\303\007\000\276C\026W\276\331I\321\275\236\354\023>\213\007\257=L{{\276\223\301\234=\207\306\316\275U\256\203\275\n\356\355<\3771\221<cg\211\275\276\005\223\276\302\371$=\207\315\215\274{\032\274>\331&Q<[\006\244<\356\265\222=\276<\213=X\224\224=\301Md<\030\226\223=\247\343\230=\'\230\021\276_\177\025\275n\2401?z\tb\276\365Z\356<~\274\334\277\341\326\230\276k\363j>\346\266\343<B+\256\276\357\204\273\275\262M\202=\312TQ\276\227O\333>\241\344\327>\364q~<\335U\001\277,9\216=\220\246<\277\206\333=>\010kq\275\201\303\305\276T\313\356\275\\\007\016\276\343kI=A\250q=W\035\225>\272ZS\276\260\347\261\275\214\035E=\257N\233=@\033\330=z\373B=<Q\262<\360\314I\275\233$\021>\305FQ>n$\036>\2000\t\275\317\034\002\275\'=\016<\211\371\327\274],R>\247\003\210\275~\330N\274\243\203\235\274\251;\305=j\3527\275}\222\377=\357\357\312\275\337\231\002?\001\035$>%\202\302>\325\320M?\200<\235=\216\261*>%\027\215\2762\031\235>\274\300\306\276\362\035p=\177\234\260\276\330|M>\206\273\241\275\021I\207<\246\223\267\275\327\336\n>\352Q.\276\300\374g\276\375\2243\276\036\223\273\276\373\027\"\2760\242\002>,\"\255\273@\372\342\275\204\364\032>\203\215\n>\311\322\235\275<5\215\276:\205\274\273\000=\256\275\360\253\346\275\247\236\354\273)6\344=\005\351w\276\211\236\t\276\371+0>\311\312.>\340.\023\275\003\257\022=i\003\215\276\225\346O=\327\225M>/\365P=\206\222\227>\031\221\036\276\360q\256=\3757h\274\237\274\004=\226\354\343=\336 \367=\250\320\276;\271\370\273\275\241\335\212<n\246\275\275\246K\275=,n\225\275\327d\303\275\r\211\256\274\312\255\026\276X\271\345\275\203K(=\"l\022<\303\020\032>}RI=\013\032\226>\254;\001\277h\360\214\276p\264:\277/\373\201\276<q[>r\272+>\325\204\351>i\351\216>\021u\237\274!\235`\275<\236\300>m\3050\276fqo<J7\242>\004\213\275>\313\212\207\276\215$7?\260\367\335<;\242p\276V\276\232>\210\005\302\276\255V)>8\3376\276\202N\006?\005\177\247\276B\306+>\247O\202\274\024\247\005>pP\346\274\243`\001\277S.\014\276Io\352\276\016\270\274>\307\276\355=\303\241\254\276\201\3426>\330\276X>\024\222%\276\360UZ\275S6\254\275\0033.>9\327\326\275 \360\313\275\2002\256\275V\\\323\276\331\324\300\275\322\213_<8\241Z\273\274`5\276\030\205s=\342\337\204?/ \016<:t\207>\210\204o=\205`\213=\2466\320\275!]\264\274+\004\034\276\214\322M\275\370E\014\272\024\315d<~x\327>56\310>v>I;b\246\327>\034,\362\2767+\232\277\251j\322=\274\324W>\314\263\255>y\037\037\276\2277\007?KD\303=X\233\215\276\221\217M\275\271\321\314=\024\222->\277\353\257\276O\365\366=Ss\326\275\035\214\263\274\346\3301\275\217\032\n?\203\354a\273g1x<f\306\362=\360\376z\276\031\326\001\276\206\\@>HFt\276EX\255\276\347\231\n\276}\361\233=oJ\004?]\313L>\222\263\314\275\345\026\t<5=B=Uo\014=\271\351\235\276\236U\367\2769\037\207\275S\251\001>\033\304\237<.E\007>\340\253\235\276`l5\276\371on>\026\010\022=2\264\231>8\330\001>y_F=\250P[=\001rM\276\036s\330>x\341\006\276\226w\364=^>\020\276\000\270b\275\351\320E=,\232J=\346|\034<\301\237?>\224\373\260=\334\321\306\275}\345\300=\221\377\266\273]\343i\276\214+\302\274\342\352\306\275\032\241\366>bz\273=s\033P\276V\000\310\275\260f\213\275\251\305\364\275\377\274\200=\343Oc\2767\330\234\276mb\210=\333W\365=\206q\"=\027\315D\275\252M\216\277\363l\305=\265\262s\276\355\212\r\277\324\024G=\315\030$>g>\022?\360m\324=\213\235\010\277\014\374\201\276\226Iq>\243R\324<\324\373\214\276\201\263\221;K\021\247>E\371\245=m\027^>W\311\217>\350~S>E\331\246>\347R\226\275F\354W\276:\022\305=m\222\236\276\314\232\036>\230\231\261>Z\370\0149\356<\373>\265\275\255>\000\tf>]\232\270=4\234\211\273\243(\314=\361\343\261\276Hz\232<\355F\215=n\204\367\273j\334\323>m\033\251=\017\004n\2767)\354\275d\006\206\275\034\373)\274]\001\017\276\303b\313=\257\005\021<gq\302\274\371\002\217\274\203Ff=\303\245\264=Kz\017\276\244\332\347<\017\2467=\2371\257\276xV\326=]\016\000\276\370\336D>\032\225\212=\177\244\302=C\033\315\275\'\247\312<\017\034\247\275\r\\&>\035\010j\276u\327\017\276fn\215\276\304\243\\\276\300ZP\277d7{=_\341\240\275\026\347h\275\324\374\340\275\235\225!\277\316\354\303\275\244\030b<\213\031a\276\201\365!=\364\2232\276\342n\007\276\247b\024>\364\037-\276\204\0206\277c\361_>\004[\202=B\206\240=\004\350\241\276(\312\007?\005|&=\272\026\356=\301H\035>n4m>o\374\007>\033\271\027\276i\rI\275\361\323\001\277i\305_\276N7\031=\320\244\351\275\336(\221\275\301\026\254\277\006\310j\276\322\211P\276\367*4>N(]\276\234X\037\276\333M\027\276\342O\253=<\245\257<\352\3358>\330S\214\275\205+\254>t\027\375\275rZ\241>k\270\000\276\311\332u;\341,\005\277\275\270\251>\024\032\211\275\357$\277\275\306\\K\276#\333\013>ZN\327>e4-\276\277\n\274\2746\037\211\272\345\257j\276\024O\007\276\237I)\276BA\374\274r\001E=\221$\001=\347\364\256=\225\374\366=l\314C\276\025\320\325=fO6\275?\362\262<\230\252\363=<>\037\274\215\234\017>\331>\356=\2429\301=\252\347\007>\026H\003\271\221\325\r\276\035\273\355<\2741N>\244\257\201?\254\255\'=W&\205\275\023\313\365\274\243\240z\275\003\030\024>\026\230\003=\2633\264\274\242NO>5\016\206=\362\343\007>VE%>\013\204\032\275\233\237\325<\027\0177\276\352lx\2759\365\020\275\205V\317=\307,\220>\n>:=\010\021\243=\340\036\301\275!Q\243\273\177[\237=`\303\303\273\222w\215<D\201\247=\336\276\335\275\244d\206=\273\357\337\2743\222\244=\312Al=\037s\340\275\017.\202>o\366Q>\361\276\205>\276!+>G\255c=\3005\355=\002aV<\312/9>\226\"*\276\206\027\333=\300V\004\276\257\213\037>P\277\033\276\236\350\214\276\310\266.\276\207\347\346\273\2124s>\211\246\240>s\367\216=\261\332\266=\270\314a=\225\024!\276\363-\022<\370}\207;\254\234j\274\316N\210\275t2o>\355|\000\275a\213Q>\335\343\247\276\026TN\274rE/\277z\335\236\276)\312\252>\221\206\321>*\200\364<\230\210?\276\252)\226\276\022^h>Q\232\261\276\267\230\n\276}0T\276\342W\270>\356\'n\276\025\032\264\275\352\206\340<\375\212D=\211m\304\276MV\321>\345\310\344\276\245\203\202\276#S*\274\032XM\276\r\267$>Q\366\'\275\345\006O\275c\202\223\275\201\340\\=\263`\037>\251$\235<\371|0=\314\365w\276\255\243\213=\233\357v\275(+\356\274-\277+=\330\372\277=3p\311=\r\264O=A\304d\276\226<\336\275k\005\204=\t\232\346\275\342\034\322\271\302\025G>!H\350\275#R\024\275\235+\347< \320\235\275\232\200\327=Q:\237\276$\223\262\276\021\213e>`\256\307\274ps\203>\265y\033\276\026)\205=\272\036\013>\304h\014>\250\337\014>\272\372\017?y\263\006\2772\025\227\277\225\006\352<+F\346\275][\250\276F\3235>eu\010\2774)\226\276\331dd\275\305W\027\276\343Z;\277\205\375^\2768T\004\276Y\004\274\276\242\355\247\276R\332\217>\236\353\\\275\357/A>\272\340I\276\276\007\375<.\034\311\274\212\363c>\027\333\345>\262\035\342=\221\002\203\275\034\324\227\276\274%V>\000u\034>\271R\304\274\332\301\321=*Wa<>\256\\=\177t\035\276\210\317\301=\264V\020>\214g\246>\221\215\343\274\254\1770>Fh\003?\326\020\231>\205\327\266\276\255\327\201\276\255\n+>\202\314\177=\251>A\275U\267u\276\262KB>\224e\301>\306\242\235>F@\243\275;&\005\275\266\201I<\226(\205=\353\361\330=\000\337\014?\232\307\023>\352{V>\346\020\"=\240\364H>\303\244\005=\326`D\275\324\037V=\335\022;>\377\363\"=T<\272\276\270b\337;\200\215\352\275\366x\206=\036B\202>(\210\326\275\377?\303=\206i\270\275t\235\302\274\220\370\267=\335\2019\276\305&O=\2021\177>\347\313m<\303\307F<Oy\036>P\301\000\277\254\253G?|\375\211\276o\254\342<\2510\033?\355\352\274=\203?\373=F\215C\276\200.\303\275\305\373\211>g;h\276\271`\231>gp\037>\032J\241\275\270#\305\275\351\326v>W\273F=\241q\237<\207\370\t\276BN\374\275\\\357\026?\235\'\037\275\261\347|<k\326\352\275\226N\"\275\352\314\217=7-\247<\n>\024\276\225/h>\230\023\230>y\233\013>\321\t\270>>d\027>F\226x>\333\324\003\274\232\226\336<:U\007>Y\"\020=\251\202D>\177\341\376=\324\013\004\276\332O\222;Q\334\240>*\337\270=\003\ti\276\273\016o>\367\263\212=)\270\231>\212\177\343\276@\373\206\274\227\240\267\276u\355\242>=F\013\277\231\200\205=\325k\372=\376\327\010\276%6\200\2740Rv>\231U\023\276\001P\320\274\255\001\014?h_\025\276\0140\217=6\005;\275\345=\275\274h\007\252=\224]\t\276\252\323\304=\374$\031=\033B\310\274\365\034?\275\330\344\027<\350~\207\274\2035\374\274\272e\204\276\256\270_>\317\205\355=\2321\255=\331h\201\275\276\340\345\275\235\304\202=9\006\177\275\265S\213?\345\340i\276\354\237\240=%\376\204\276\225\031\004;:\010\224\276%D\024?\rm\313\275\014\336\347\276\273\277\365=\323\\\214\276#\267\243>\332\227\313\276P\362H\276\301\263z\274\323\367|=\310\352{=\023+\r>\242b}\276\325gC;\265\273r>\250}=\275\236e\306\275(\203d<\274i6=\005|\r=^s+\2743\225\022\275\3041\336<\177(\336<\253a0>\217\212\005\276\036\032\270\276\330\032\345\274A\021B\276\025\322\376\274\200\257\260\274;7#=\213\026=\276\215r\212\274\037f\223=\\\034r>\247\263u>\006\\B<\253\250\017>\2271\360\275\311\001\362\275e\031\206=\034\217\374\2762\222\232\276\016\373\036\277\315_\354\275\361\322\324>\360\213\204:\235\320\233\276\265\022J=7z\276<\214\223\221=O\213\006>\025\322\235=\277\375\023<\234\233\202\276\301\245<=\013f\214\276\245\007\210\276>\207\262>\"\246\027>\247#\026?\264-]\276\257Zb>\276,\244\275\313\r\023\275%(\302=+b\177>\374Y3\276\301\224\376=\364\201P>\246\002\010?\007Y\212=\3270\312>\2507L\276v\024\002\274\361BL=6\221y=\262\311c=\220c\302\275-\256\224\276\342#E\2767aX\276\256\375\273\273\\\273L>\374\305\257=\272H0>\301\2210>\376\305\310>K\217\230=\247\315\027?\354\303J\276v66\276\253\252\305\274\213\034\312\275\357\255V>*}G>^P\244=P\364d\275\330\026\007\276|kD>\t\234\214>\201\210\350\275\355\272_\276-8\022>\227\004\241\276\010t\272\275\317y\001\276\377\371\025\276H\301\215<HX\037\276\306l\235=\213\rG>\322G\200\276>\214\272=J\371\306=\350\276\210>\373\010#\273\374\353==]A\272\275\312\375\027>\3474`>o\240\215>\301:\n>\'\364\355>\000\237\212\276e\360\350>\030\367O\276\250R\270\273W?e=\337g\225\276\003\353\322\274\\\203\005>}?N>\355\324\t>\006\342\255>\271P\331\275\334\326\275\276O\352\035?y(\233\275\260\345n\276G\310\310=\016\352\217=\325m\326<\324\310\001\276.\366\010;\210{\343=\340\213\372=V\321;=-M\341\275\335\272\205\275\210\237T<4\376w\276\230\3013=\346\220\353=\211\026m>\240\262\374>\263\255k\275\220\253v<>\367\206\276\245\253\257=O\253\315<\263T\224\275\037\213\365=\373\372\371\275\247\262]>\010l/>\370\356L=m\316\231<\255\004&94m\307> \311\230\275\026e\031>k\237\337=\256\257g=\017 \\\275\340\017J\274\014\274n>o:$=Q\016\300\274\021\254\364<\221(\000\275\246\234\272;R\351c;p\245A\275/~\021>\030;2=8wq\276\271y\003\277\322\215\022=\324\357l\276?\036\215\2763\013{>\211\006\033>\243\333@\276\025\022]\276\245\341G>\023\211V=\257\275\250>\226k\263=\345\323P\276aR\177=\216\325~<\267\317\002>\302\277=>\302\251\025>\330\326\241>\307\211\004\275\357\241(\276\214\000\202=\\\242\207=f]:\276\313\004\246>\252f\240>s/\217<c.1\276@\274\271>\245\353\335=^I\327>m\005\202\2746\354j=V6\262>\351\343\206=\304\213\336=\265\346\365\276\303\372l=\356\370\204>\377\374z>\332\330\261\272\024\214\007\276\340Q\257=\312\327\261\275\007\2279>\255\030\354;t4\n>\315\007\322>\005\022\271>nt\r\274\325h\373\275\341\033*\276t<\223>3\203\033\276\311\342>>\275\305\305=\311@\202\273\255;\200\275\025\006\014=\355 \330\276$\320K?:\214\363\274\363p\212?\002@\355\276\356\030\207=\256k%>\3765J\277\347\276\203\276\034)]?v\244`>\212[\213>\200\232\264=\357\025\r\277\250\004\000?\250xJ\276VC\253\276\2275t\275\277Q#<\345\231\252=\346a\211<\373G8\276\006o\312=\016\221:\275\327~\002<!\207\330\275\264\233\245\2742\305\030=\246\025\242\275\316G\256={\244\006=\310$\346=\350\360\215\275V6\030\276m\246&\276\311\266\016>w\314s>\030d\215=!:\020>,\n\252=\270\221\334\275\314\326\341\276\363\353\315=%\224\n\276G\336,>Vh\255\275E^\246\275\364\254H>\002{\245=<\372\367=*\200L\276\264v\340>0\351\007\275\207\262\232<\344Q\205>^\323\246<\342+\236=\222 0\276\355\211,\275=(N>\"\377(>\234k\227=\226\272\260:\353nQ<\227\246\250\275\204w\354=\255\343\210\275\264iV>d\253\006>|?\325>&\240\377>\'\331\223\276\026Eh>L\370i=\321G\265>0\205R=\001\376S=8+\360=\230\313d\275\006\3331\275\372\255\265\275hr\254\275\271\326\014>B1 =4\222]>\273y2?D\314\'=\334t\031\276}\313\311\275\370\322\210>\261R\224=\022\352o\276\200\242,\276\210\205\010>\367\221%\276\254\016\210>0x\312=\224x5>4\037\024>\351\312\033?=\345\000\277tf\270\276\037d\002\277\3629\365\277\030\223j>\233\r.>\236\221k\276\r\031\275>\221\022\333=\336\027\375=\327\306\335=\305\227\346\275A{.>\2721\326\276\304\025=?\033\017\342\276\002\r\317>\204[\356>\346\225E=d\226\315>\313\'\364\275\314\226l\276Pt\034\276^f\252\276\342\234\214\275\331:\300>=\177e\273\212ZQ\276\221 \247>\311\337(\276P\343\301\274\010\210\376=\334z\206=\\\325\332\2758\236\313\274\367e\360\275\001\005\340\274\353\327\236<\177,\343<\224\200u=d\035\250\275\177\223@\275\213\200\262\275]9m\275T X=\211Q\325\276\373\200#<\343\373.?\321{\020>>S\022?\260`#>1\266\025\276\2259\027\276B\027\020?\263\260*?\017\244\226\276\n\320\276\275\243|{>9\354\334=W\262\370=(\206\313\275\207\0101\276\232\277J=&\005\357\275%u\264=\344\224W?\344\250\032>j_Y\2768\3648>\377iO\276\001\0238>L\324f\275~\024\331<\264]\242;5\227>\276\005\2370>\300\335|>`\000,\276\302\373c=\3767\"\277[&\237>h\t\317>r5n=\277\264f\276\311\',>R\\\243\275U)\363>\3630.<\022\256\177=\235\237\237\275`\021\303\276\265\262\201=\255\327i>\301\353\243\276\265\333\305\275\"\321\271=!\3466=\'\324e?\202\306\007\276>\253\025\277\023{\262=o\024\222=\212\035F=\304\365\302\275_\340p\276\021%\343=z\246\357\273\001\273g>\004+[?x\333Z>\234\027\336=\227\337v=\332\344\000>yNF\276\206\337\212=\375.o\277+B\274==A\t\275\253\020\">\036\014\227>\337\266\341\275\204 \332\275\274Lf<9\366\016=e\347\250\275\017\020R\276\352\271e=#\003\221=\367\271\326\274\220\255g?6\247L>\002{ >\210\274\311\275\210\026U=+\251\334\274\330n?=\305\2669\276M\3039=0\016@\276e\177\215=\366j\321=\246\021Q\275\030Sj<\276\013\312\274zQ\347=6\336\273<\205@\353\274\211\363\317=G\307\010=l\005\013\276\274q]>\000\250\271=\344\327`\275\221\266i\275\313e\364;K\t\363=\364\322/\275\347\234\217>\323,\305<O\244\211>D\211\327\276\326{\325?\255\024\'>:\344\303\276gM\302\275\343\211P>\216\2153>K)\251>\302\237\327\276]\252\322\276.E\324>\035\246\023>\243\3230\276\325\257*>\254i*\275\200jK>\301\002\223=\241\023!>\026f\032>\254-\263>t\332\023=\357\227o\275\246\'4=\'i\000=\321]\277\275\364\002\370;5\027\220\275B\261\256=_\346i\275\265\3774>\372{\376\274l\024\253>\263\212f\276l\374\352\274\021)H>B\227i>\037\024W=\026\243\236\276;\236O\274j*O\275\016r\356;\361\260\230\275|\366\310=a\237x>\243\201\315<\361>\262\274bO\000\276,9*\275\345w\022>\375\360`\277\003\373B=S\262\003?\374\235u=\361\033\327=#\321B?\034^\007>p\302$\275\016\372|>\347o\002>k=\347=\231\n\266\274\3546R=W\372\r\274\r\243\203\276\3772%\276\315\344\347\276\317\366\301>\250\340\305\273\366\305\233\274\277I\005>\r\305\030\276\206\355\332\274\241\260\024>\273\274\016>\317.\267\275%\364\273\275a\330\006\275efv=\250\327\235>4\364\261\275\004\246\024\276G\344n>\233\324\373=\224\273\254\276\233\345%\275d\010h\275\351\256\022\276\246\342\342\274s\257X\275\215\274E\275$\202\241>~\376\221>\301\321\237>\t\226\220>\314\'\300\275O,\235>\'a\035\276{\205\232\276\315\202\315\274_\246\260>\237\360\231>\\4\342\276\322\231F>\334A7\274\317a\235\275\242\356\246\276e.\177>\003\nt=\334W\000\277O##>ANw\276\346z\301>SDq>^M\251?\216\356\237>6\340e>l~\033\276O1\003<P$\321=\t\257\373=\355\215Z=\342\305\223=4\006\255=\220\346\241<a\275\215>\213%\211\276\022[\270<\240\033\331<\023\332J>\344\351T?\335\245\220\275\037\303\t\277\016\371(\276\354\330\220<\367\3278>\330\366]\275\353\354\017\276\221\023m\276\216\360o=n\316\022>\032w\254>G7\246<\214E\273:\372\210\247>\341\364\354=\n\276\357\276\344\355\314=\223jy>\024\324D=/B\331\275Q{|>aMh=1B\363\275\231\031&<\252h\022=a\004\237=\010\014\340;\230G9>\331%\377<\337\200\240=6\225[=7\326\225>?P\210>\336\210(\275\r=&\274$\305\n\275\365V\203=\213\3577\275U\356\250\275\242\237\215\275\327\010\010\276\251\212\215\273jC\200\274\340\262h\274C,\365<\211\264\376\275\232\243\224\275d@B\276\240~\364=\370*\344\275\214\365d<Y6\237\275\225<\032>\022\310\301;\361\370_\275\370\303\217=\0104\216=I\354\324\275\177:\302\275\002M\263>@$\312=\356\202\371\274R\354&=\000\304K\276\351L\310\274w \351>al\204\2763\242\254=\341\232\243<[\037U\276e\243\263\275\001\256\207>_[\210\276\204\261\224=;\215\260>`v%\276\355b!>\177\304\035\277\253\257\265\276\273\0132?M\006\216>\302Y\364\276h\314\357\275\257\276\255\276\013\323H>*\250\251\275\247\335o=\366\226\325</\222~>\223\314==B\306\352=\2460\3269\246\354\020=v\206\211\276\352\001\231\275XH\300\277\252mO>\024\362\374\276\364AJ>0\304\362\276\036\006\033\275\035G$=2ZN>R\323i>?R\304\274\234\215\336\274\354Y\200\276;\033\022\276o\204\316>\355\2634\276\214\227\233>$\213\320?\353\253\000?\252RM>\252#\366\276\213\024\000\277\230\r\201=\024Ix>\036^\272=\247\242;\276#\026\364\275\210za\276\257fY\275\270E\007\277Qi\320<]\325)\276\244\231)>\360\345\237>\350\253\324>\220dY?<\377\337\276\"#W\277\'>\210?A\200}\276\340k\021=\177\373q\276\256% \276\374)\206\275\361\244\334\275\236e\230=\332\304\\< \037\254<\030\250\022\276-\006\024\277\263\322B>m\033\375=\375c1=\004\033\200=\000\001\353\275W\342\313\275\271\023\277=~dJ\275\237\204\310<\212\217c\273X\004\252\275\277\204\204\275\203\351\262\274d/\257\275\232h\030>\n\347\034?\337V\032>n\264\357\275\254\013\357<\002&z<\301\273P\276\001\262\302=\211^\317= \225\212=VB\227=Rd\231>\352!}\275\274\302:\276K\255\374<Z\274e>b\226B\276\032\350\326>\034\017i>\321T}>d_\246\275U\036\333;\377\273\241>\214N%=\377\243\306<\314\332]\276\322X\007=\263\035\364=@\254\223\275y\366<\276I\304\251\274sVb\276\247\033(\274R\350\023?\210\000\233=\007\307\343\274\030d\317\274\320\326;\275<\377D?\332w\217>\334G\252<S\200G=J\036\201\275\002\317\353\276\247l<\276\r\362\201=\257\007;>:\0066=\314u\246=\310\305\333\275)\200\022>\213{\326\276?7\311<\210\331=>\242\014v\276\\\271\020\276\303\315\t>A\023\326=\244\037c\276\031\036D=\377\355N\276[Lg<\345hE=B\362[\277\233!_>\2767\303=\242\025\240\277\337\315\204?\362\302\024\277S)\223=C\365\025\300|\270\031>\252\022\272\276\262a\203\276r\t\253>K\227T\276\245L\216\276\277\232\330=\3116P>v\032\316\276\0077\236=O\205b\277k\320i\275\370S\255\275 \235\203>\3347B\276\254!\001?\357.\240\276+\035\240\275\2111Q<\265\002\204\276W\326\204\276\217\201[>q:\035>\031\231\240<\037\0000>x\365A\275J>\202\275\326]\004=P`y>\244\006\324\273\333.m=\350\353\302=\330B\260\274\274\234\201=\366X\245=\2134\014>\375\016\220=\335\305\265\275\035\271y>\332\3713>\227W\243\275\334,b\274\225\017\254\277\006\237\233>\311?\254>\331\307\367=\t\016\334\275G\3719?T\004\334\275\375\352\006\277\361\324b>Y.\201>\002\304\372\275\007S\262\276\026<O\275\247\361\323=WR\023=\232\0363\275\023\024\002?\320%R>\2139p\275\347j\257\274T\022V\276\272\303\274<\200\372\316\274\256\010\236\275\024\250\010\276\200\3158=\331\276\036>\006\257\235\276\230vy=\270\255\267\275\3539,=G\245\363\275\256f\270>Zf\233\275B\376\205>\030\301\'>\323\350\273<W\272\266>\335\311\223>\302h\260<\251\351R\275\037%\027\276\352\263z;k\"\215\275\246\300\240=\317\231\035\275\"i\235>\374\275\204\275ZF\216:\321\240\202\276\330-\014?n\004\376\276\032h\337\274\377\360R\277\355g\333\276]\331\226\275\007\337$>\372\350(\276\006K\326=`\314\214\275S%%\275\2422\303\275\332\254\224=\371\022\004\275\201\270\215=\037G\253>\213\245\252\276a?\022\276m\004\375\275$\245\207>0\222\357=W\351q\276\036\306\204=\350z\255=\t\036\247>\260\321\257\276Xd\023=\343\342\211=\226\304S>\223NW\274\311\341\326\276l\364\255=\000\210\266\276UD\014>\2454\'\276}\240\006\275-\032S>\222\323\025\275\235r\022\275\277S+>\365\316\001\276\013\216\206\275a\344p=\346\004\235=\370\020\212\275;<\335\275\325\231\220\276X\230T>\010\177\262>vz\335=\251@\235\275\332Y\n=\302\371\304=\354\342\030=\0075\006=\247\3547;qG\230\273[\372\204={\364D>\343*\211>\3730\317>\334\372\306\2753U\010?a\340\204>#\200\205\274\204\261\233>qn\341=\025u\267>\261.\346>:\346*>_\365\324>\266\245\031\2762\036\277>\342U\221=5\'\215>\204\217\313\273O\236\030\2769\0056\276\363\311\300\276\014:O><*\204\275(l\210\275\2758\300=\227oY>h\001\266\274\201\310\352\275L\261\005>)V\001=\014x\312<@\023\254\275\366Jp>\325\266\233\275\220\331\317\275\034\000\200\276l\014\245\276x\024\340\275\246\271\026\277\250?\021\275\031VD\276\023\324\227=B\252\'=kx\260\276Bn\313\275r\007\262>\327\333\001>4\027\026\276\271\205\000\274.\034\t\275}\223I=\010[\210=\240\374\002?[g\245=\264\240\354>\036\340\264\275\235\2016>p\0024\276\304\322h=Y\322v\275\266\310f>\2160i\276\020\332\263==\337\240\276d\364\233\276\nR\302\2761E\014=.\022\223=\243\341{\276\327\235\333>\271E\244\275.\002\014\276\236\'\001>\"\311\227\276\342i\350\276\254\007\217=A\316N\276\021\037:>\257\320\202\275\305+4\277X=\322\275J\331\027>m\177l>z\3550\276\2508\031\277\2628\206\274\014\226\320=#\2503\27689\302<5O\207>\366\002,\276\213W\253=\237\243&=\034\322\244\275.\255#\276W\223\256\276\321\207l>b\245A\276\302L1>F]^\275FK\242>\231\252\031\275b\213\007\276\234\327\320>Cj\331\275|\273\321>\303N/\275i\016\266\276\256\240\267\276\375C\247=~\326\025>A\231\201>\213*h>\361\030\272<i\202\235=\330\234\\\276\216\270R\277\243\"\r>\035\255\027\277\321\330\205\276\024\027\326>\320\266\235>\257Fl=\037\377L\276\212\333h>o\330\252\274\277\266\324\276\007\273\265\276\340X,\275t+\005\276\242.\324=\327\275\010\276\230\205\261>k\3751>^\013\222><\177.\275=\2737>\254Bk\276n\2057\275\337\223\216\276\267\300\337=\007\273\223<~\245\r=^,i\276\037\271\236\2750s\002<\332\224)\276\r\351b=>\205\216>W+\001>\2504#\276X\350\231\275\330(\350<\363B\221\276E3%\275\221\364&>*N\025>\226\334\325<#5\230\274g\030\252\274\\XJ\275\017\007r=\303\245\t=C\333\014>\255\372\023\277\367\370B\276\222\202[\276[\216\335=\254\214\315\274\004\244h\276\226\026Q>D\\\033?\007\020\006>L\234_\275\362\025Y>\013\026\275\276M7\354=\006D|\275c&\327>p\223\014\275\\\017;\275\215\014\020>\346\324e\272\233\214\r\275m\3712>\205\367\367\275\233\244V\274c\316\241>\300p\263=\242u\251=\375\303\330\274\026J\241\276v4/>\036\337\277\276}\301\233\276\205\\o=#\341V\276\375\037\010>\325A\224\276V\036\247\273&\n<\276JQ^\276\357\303&>\323\352\246>>\216\223=\363\th\275{\270\"\276qV\026\275\330R\r>\271_i\275\324i\221>>\026\376>\003)\323\275,\375J\275Q\217\211=\347\233\311=\326\327\232>\220wc\2764c\244\276\333R\326=\002L\r\275y\t8>\0019\003=5\224\351\275\303\267\266>Y\254\355>\374N\327\276\237\"\245\274~]\013?{\361C\275\0057I>\002\226U\276Do\250\276\3029\322>\250|d\276\366\272\301>\3153\260\275`\326\220\273a\250\333\276\002\211\341=A\200e=K\335\217\276\340\317\375\275L\202\236\276\321\247Y\276\331\243\241\275\244\026\200<h\207\215=/\226\201=\307\242\230=,L\335\274x\231\237=A?\210>\262\312\026<\343\347\342\275\312\352\n\276}\230\206>e\215\t>\023M\220?\325^?=J\202\002=L!\244>\261\270V\275\017\006\225\276?\202*?\376+\350>U\006\266\275\241u\216>\001X\002>7I\\>HQ\223\276L,\227\276\0032\323>\177\2107>=\377\334\273\345\306\307\275m\207\211>\010\"r<_E\263<Z\321\276\275\352`\364\276\240\024\207\275 hG>\265\302\"?\240\261\000\277\235\210:=U\263\360\2762\037\273\275\010X\327>4\2207=\003\324\024\277\\\251\333<\261,?>\036\216\003\2767\373\225=\340\251\200\276\354E\356=\276+V\276\003\014\213\276D}\230>)\303\034=\257\361\250=\266\253\214\276fN\224=F{\275\276nw\257>\210\202\265\276U\247t\276\235\031,\277\267\263\303\275\361\033<>\327n=\276G\022\214>\025\245Z\276\225\346L\276\003\361h\275\2111\341>\215g\234\274\313M\230=\217!q\275\3508\375\275\314\257\333;q\210\315\276\032\317\242=\205)\266>\355\272\213\275\000%\363\274$=\n<\026A\310\274\027R\032\276\330\254m=7E$=\263\014\016\276\337y]<\254\322\003\274\262$\027>\240?2?\202\201E=\377\306\351>\336\326\002?\375\256\036?\020l\335=ZD\310=\205_n\276\360\364O\276\227\016\376=\336\322\223\275\363\205r>8Fm\276\007\352\256\274E@A\276\366wN>\"<\241>\246\202\006=\3074\307>.\2551\276yM\002?\327\025w\275\202\373\200=@\207l=\240j\257>\354\227\245>\271M\003>{\217\206\275\266}G\276\340\253\264>\316@\243>+\2123\276\267{]>\320\023\333<\321\372\360=\361\256\223\275\242V\233=\334\271^\275\030\212\026\274\217\034{=\027\231\017?\371G\217>\244\372\033\275\363\027\312>\241\310X?\275`\247<\341Is\275\211d\005=O\226i\274\301\212\022>\374{\315>\256W\262;\257-\335\274\321\377\206\276\222\037=\276\336\213\377\276\373e\034?\236\323\031>(\353\277\275\373\335\330>\250\223<\2765\330\337<\261;\245\276u\331~>\\\376\230>\220\241\023\276|p\273\276\374\243/=K7\202\275G\252g=U\374C\2755\232S=d\333\276\274\253\3271>\2605\230>/D\245>l\202\006>.+\006>5T\335<\211\237\007=\251ob>\252\032\230\276\003\353\237>Q|\203>]\232\364\275\'\\T>\022\331\026=\305\035j=RZr=H1*>\331z\336>\251\215\t?&\002C\277\010\t\r\276V&\353\276\274yt\276\257\322\225\275\t\344R>\246\365@=\350\037\240\275\373\253\216\276\244M\354=\231\220\274>f\237\315<<\332\323\275\000\000L>\277\216\236:\374/C>\207Q\376=\323\333\000\276\010\177#\275eR\030\275\225\\#\275\270\216?\276\335B\265=Os\263>\311\234\264\275\350tf>\262M\205\276\005\363\323<E\345\322>E\314\"\277\223\307r>\302\246]\2760a\210=;\250%\273\340\214\275\274\334\274\347\275\241<Q\276\374\304\025=\003`\243\276\025\320\347\275\353\270O>\262\347\243\274@\212\365\275;6}\275]\375Z=V+\250>\370]\031\275\004J@>\'\373]\275\252\263\216=\3426.>\324>\025>\254\250:\276\240\036\201\276\325\355W>,\347\207=\253)Z\277sb\336>%t\243>\365\266H>\330\324\021\277\255\376\373\275\251\273\277:\003\233a\276\206\331\006\277\225\001\241>\357r\244\275\340\007.\276\346^\007<Di\222\275\331M\004?xv_\276\340\242\213\2746\033\313\274L\350\350<v\330f\275\343\002^<\253{<\275\363\257\230=\352\302\313<\0017\250\276_\224\361=zf(\276U\336T\274 \031\037>\240\277\373\275\256\021\005\276AR\000>e\323\014\277V~\031>\031\024\375<\326\240\254;\024JI>\220Q\360\273\222(Y=9\023i>\220\352>\275<$_>\343$Z\275\032_\334\275\351A\260\275\317\327d\276\374\300\205>FQo>\271\376\007?\315\271)>\324/\375\276\243Pj\276\317\022\201>\225M(\277\2558\302=\016e\037=\246\306x\276Sr\321\276r<\306\274\252\263+\276}\324\240\275/Tz=.\213\217=>G\233<\230;8\276=\177\021>B\331\235\275^\243\300=\345r\017>\213\200\364;s\374\205>\017\342\371\275\260y9\275\246\353P\275\2711\222\275]B\327=\024W\251\275\022\263\220\273wv->\205%\001\276X\223\265\276#x\007>>\332\346<C\304|\274\017\360;\275\3764\010> \233\217\275\r\224/\273\265\t\265=\330Z\227>Wr\377\274M\t\343\274\265N\301\275\210\024P\275\322\232\202\275\270S;=\214J\033>aED\275\217\237\003>\304\313\266;\343\330\305=\027im\275\200\031;\274de\326\275\236\334\322=\214d\213=\2353\n\275\3467W\274J\'\223<`e\371=\n\256u\277\272\364)>\035H\217?\201\016\200>\216Jx>\355\3627\276\336\203%>\255\337\261>@\233\233>\032p\240\275\242N\235>\356\262-\277\213\235\n\276\315\323\021=\263XT=\325Zi=\036eq\276\324\017\213\276{\2156>\356\000\206=\263\263\t?n-F>6r\320\276\324\370J\276W\016q<\276\310\233=/_t\274\305[\346<\377x.>+o\333\274\312jT\276\260(\247=\240@\300\276\263pS=\247\251\024\276\007\323\007>%C\023\276Ih\016=Cz\201>\017\0334=\301\377\257=L\243\201\275\345\244\213>\345X\240\2754\360O\274\263I\361<\306\301Y\2750\032f\276\216\275%?\225\360h=u\021&>\257G\314<\367\246\221\274\013[O;\007\r%>\202\276A\273\226\327I<}\257\006\275\013\203\373=N{\251\275 \365:\275\177\311\324\275fE\202>z\255\277=\217\003$\276\272\007\r\277\212\004\375\275\334e\001=\n\232 >\213A\341<\201\214\215>\332\240M\276fZ\201>%\236\236\276\227;\026\276\241\354\236>$\303\244=\007F\332\274y\275\211>\205\0252\276\211]\002>\220\365\316>h\320\215?\032\001\307>8\233\005\276\222\"5\276\001X.\276\201T)>?F\304>6\007\017>\215\373.\274G\n\205\276\"\263\363<wn\267\276r\206\242<\325\216\313=\304\321\370=Z9\334=T\367\374\276K\2162\275\037z\207>c\336Y=p\360t\276\336\211\247\275^\016\032>\276\374%\276\377\372A=\026\353\323=\266\303\317\275\310\025\313\276\010XP>\277\3429\276]\267E>\371\357Y=Av\024?\246\264\273\274\304\343x?\356\344\250=\n\260\031?\370\036v>\263j1>\241\244\200\274\337\360\177>\224\0365\276\033\037\223\276L\315\232\276QE\351=\260\257\321\275\200YT;N\223\226>N\362\203\276g\241\336=\210\224\241\276\276\206\007>B\243^>\273\335\220=\275\352\361<Y?p\275\235\235\360=\245H\373=\333\332Q\275\273\372\342\275\245\370\230\275\036\334!\274/-\014>\303S\247>\207\034\233>\343\354\224\275l\366W\276\203\273\271=<\010\320\275\000Z\304>[\037\371\275\361j\235=(\326^>\245\330%\2764\310t\276\345\253\271=\354K\251>6E\017>\301\023.>\021\213\321=\022Q\217\2768\265\033>\311\366\304\276^6U=\3224\346\275\262\177\203>\3049\026=\240\311\326\275Y\225\322=\361\017\374\275p8\272;\315\003\010\275U\016\307>\251D\231\275\312N\315=\344>\277\275\207\243\n\277\217\232p\275\250z\254\276\033L\312\274\260\366>>\030\006n>\240!l\276!\376\322\276j7\366\275A\271\234=\270O\241\275fY0=\231K\331\275\024\237O>\013\204\216\276~x\303>\n\237h>\222X\263>>*\320=\355\003\357<\000\0271\2773\351s>\261Xk>\225\341\230>\306\253/\275\211\323\r\276[\211\231\276\312v\232\274\317i~\2748\345\233>\317T\327\275\223\n->\'&L?\023D\367>\366^!=\004\361u\276;\034\255>B\025\251\273\372|\201\275\323\367\177\274y\030\261=(\361\021\275@\021\010\276cu\'=\021\374E>4+\316=+\275\000>6\003\\>+\006\013\277\216\213\010<\202\323\262>\003m\204\2758\273\236=\314\010\316>\017n\010\276\371bt\274Z\251\201>G\216\316\274/F&\276\356\224\202\275c\037\223<*\245\001>l2\210=\034\261\020\276z\235\252=5]q>\313\223\027\277\240\326\232:\202W\202=\275\273\030\2741\022\377=\001<\211>l\345\367\274\022\267\220=\351\360\322\275\276\365\202\276\343k(>\217=@>\0312\340=T\255\201\275\024nO?\2026\246>\235\333f\275\204\370\254\276\332\026\330<\265j\301\276\210\357\013>G\270Q\276\210,\204\276\217\215\247>\231\356\212=\244\250t\273\355y\247=\220fp\276\260d#\276|S\317\2766gP\276^J$\275\241^9?\007\241G>KH\335\275\342c\252>\257\033\366\275m\274:\275\373\204\357\276\230\'\177>)\037\244>\316,\002\27662\332\275\215\326U=:%\027\276\211?\357\274vx\027\277\374t\373\275VC\273\274U9\010\275Q\177h>t\203\007\275C\217\377\275\013\220\375\275\300(X\275w[Y\275\327Z\013\276\254yo=VQ\300\276\031\212\372=\332\034\001\275\rm<>\023\017\250\276L\300\027>%S\333\276|\307\253\276\331\327B=\377Q\267=\r\200&\275A#\262\276\231d\221\275]C\247\275zP$\276{\024\212\274\330\027\244>\213F7\275]k\225>\037\000\301<\312B\300\276;\201\332=d|\355>P\353K>xS2=t\034n>\247e\354;\344-\317=B\363f=P\304 =s\221\317\275\202\206\027\276\351k\230\274T\010\312=\343\004\331\275\262\004\212\275I\002h>xO\212>\344\257\026\276;\250\340\276+\204\007=\240uJ\276Y\326\224>\302\240\031>_\272\030\276\003\334x>\245\0358\276\014\243\223\275\276\301\275=\024R\247=\nu&>\314/\354\275\276\0260\276\344\205\201\274\334!Z>J\212+>\231\313\177\275\207Q*=f\371s<w\324\035\2740\365\265\274\255\360\300\272\013\375\206=\312T\213\275\251\330\306=\244\000\016\276\253?\225\275G\2708\275\225\360j?\004~|>/\242\014?R\362I\276\356pu?]\351\300\277\200<1\275\026\252\t\276i\036\210=\223\014/\276\322\253\372\274\312\220\223=c\210\224\276\337\324\207=\343\223\334\275\366\226E\276Q\233\243\275P\231\000>\'\242\000\277{s\202>j\337Y\274uU\212\276\356b\304<vg\032>\232}\347\276\375\237e=\365*u=\323\324;>t\343M\276\272\267=\277261>f\222F\276xw!\277\361T\353>~\2209>6\216\206>w\2267\2751}h\276\323vZ\276Q:8\276*\353\253\276\205y&>\367\312\245\275}$x\276a\270\224>T\307\235\276\342\233\340>n.\213=\354b\231\274^\331\243=Y\325\220\276\264\333V\274w\2274\275\215\325m;\203\223\013\275x\355\344\275<\305\254\275\365\300\364\274\235\'\261=vni<\202K\321\275y\377B\275\345F\336\276\276\326u\274c\022\306\277{\325\004\275\000\372\272>8\323\302>3q\303=\364\024\306>\235\021\343\275@\205\342\275\004\275\231\275\0367\220\274xh`>\222[\225\276`\302\230>D\367\007\276\034\374G\276\302\260\223>}\306\341=\325\356\004>\351\030&\277\217\317\254=7\3646>\025G(\277JS(>D\2639\275\353\016\272\275D\324\201\276\027\000\206\276\247\276\215>\276c\027>>-h\276\354%N\276\303\031\023=\032TP\276\032\314\313=T@\315\276Iw&<\273\212\353=\224\202\275\276LXl<\014u\033\276\251\366\312\275{0\025=\345T=\274\010\004\206\275\\,\032\275\317{\020\275\262pF\276r\204d\275\356\177=\276~\247\363=s\366W>d\365G<\000c\372\275\010\t\207>\253\342\364\274{\0013\275)\277\004>\310{\255=riD=\235/\224\275\371\372\275<1\005\251=\270\235I\275\374\005\255\275F\253t>\213#\376=z\004\255>v\256\037>PmS>\270\001k\275SE<=\227\211\344<\314\000\276=\211\250\253\275O\254\254\275\027\220\201\274\355j`\276\373\310\246\276\323\246\310=+FW>wV\005?iq\356>%\265=>\373\236\030?\336\226$\275\021\330\320\2750\341\232>\254H\">\004\337\233\276{S$\277/\2617\275\313\247+>\347\356s>\347\242\214>\276\311\007>5\023R>2\316L\275\017\006\324\275\260\001 ?\007\204Y\275ztZ\276\020\201\271>\274\254_>\276\211B\275\366\t\370=\002\007\205>{8C>_\007\324=\025\203:\275\t\311\247<O0\016\277\004F?=\216o\355\276\211\347\240=\221\266\330\274\350\250\212=\313\244\005>$\'\340<a\301\027>\311\'\013\276f!\333=1\376\203=4\302(\275\360hs=e\355\037\276\210\321\223<4)\344=\177\264\303=t\2264>\274\000\324:W\203\036=\242\330W=\241\304\231><\3511\2762\032\304:\227\267\213=\263W\335\274d\013\010;\302\344\007\276\r\221\005>\002~[>\310o\007>\361\240)\277\357\325\022\276\206^\020\277v\023N>\036\224\217>y\343->D\304\362\275/V>?e\334\266=\025\232\365=\224\006\013;l2\354=\222\375\204> \206\277\274\222a\352=0\373m\276W\241\266>!6\321>\234\304\363\275\225Np>\222\267\036\275\262\363\376=S>\247=Z\3752;\314\210\301=d:5>\243\323e\274h#\203\276\242A\003\277,\n9>\347\013\021>\350\234\001\276\273i\245\276\375\'\241=@\016\376\276\244F\303=\256\2005=\355\356\240>L<\016\276\336\2059>~\213\226<\305\247\017;u8\363=\326\025a=\302\345\225\2748\\\221>\004\375@>g\025\340=\272.\016\276\320\252\261\275s{\026=Dj\227>\354\301\223>r\007\213\276\2554\364>9\227\336\277\220f\024>:F@\274Gz9<\003(\027<#2\222\276\257\016S\276\342Z\024?\202\013t=\3660m\275\3271(\276\243\375\311>\311@W>BYZ\276=\310\205=D\267t\275\002\212\254\276\n\255\001>\362@\013<i@\025=\036G^<*\275\330=\311\274!>\207\035\016\277\270\267\207\276\350\242\201\275i\020\323\274\307\326\227>\255\206\006=#\257\313>\310\027\235<|-\024>pC\250?\357u\271\275mC.=A]\033=^6.\276\003\245\257=\234\031\002>\364\220\026>\005\r\001\273\247M\342=\266\211g\276\357\303r\276R\203\347=\033\247\214\276\257\307\354=\266d[\275?~\344<\334K7=\n\017!\276]\001b\275Y\303\021=C\276J\275A\366\274\274\302\267:>H\374\211\276\257\332u>x\001\275\276\352\310N\277\366\010\375\275O\203\272>\274\366\236>;gU>\020\020\010?\317u\231\275\036\354{\276h\335K>\000\003\037\277\250\t\232>7\037\252;\223\031\327\2765sA>\\\360O\276\t\256A>e\025P>\000\235\241>Cx\277>C\346\023\274\030V\261\276 \302\201=$\273\\=[\365\017>\246\364\311\273\250]\010\276\002\210\230\276\255y\331>\241\261\215\276\240\203(<\354|\301>\303\353`>\234Y@?\357\016D>\341\026\213\276\212\026\262>\323\356\317\275\'1#\276\304\354\005\276\304\237\344>`O\240\276\300\363\212\276\'\366q\274eog\276\026\270\222>R\334\013>\245x\356=\'c\231\274\360\201\002<J^$>\223\311|=y\317\242=\243\300Q>\030]\037\276\027\225\r=R\215\202>mZ\323=\374\2569=\322&k>O4\201>\210\220\363>#Ht=\341\3162>b\r\214\274\213\005>\276|\240P=dp\220>X\316\371=\202\014$>\276\312\007?$m\253;\320;\317\276\032\231\321<\350\235n9@\202\314\274T\236\277>\231F==\260\2552>\325\236s\275\374\374\231\276$\037\236=b\233(?4\001\r?1W\027\2768\301\037\276h\034\363\274\201\325`<\221\'\210> K\366;Gc\242=gh\212>px\032\277\rF\334=\273\341+>%b\330>p\314\312\276\235\213\006=U\325\204>\372\201\243?\350k\376>n\366\001\276\275\365=>\304_u>>\341\203\2748Z\366\275\336t\210>\177(\267>\001\010\345>l=\251=oh\207>B\203\"\276x\303\215\2755\262\352\275\241\364\037>\345\364\207\275z\307\031\2757=\210\276\370c\216\276d\333\020\275\003UL>\030\335\261=\332\224\241=\270\310\016\276G\251\337\275\230\024<>(\367L>\265\267\232\276\262\337\224\275\255\t\335=Rj\337=\226\264\353\276\376\307k>d5\246=\346B\017?\264\016[\275\242\033\026\276\032L\272<\0307\201\276\212\301\316\276\253c\253>\nKR>\217\355,=\365\236\303>d7I\275\311&/\276\306\237\003\275\2029\010\275\'\347Y>\220\204j=\322\355\217>\364\245\226=XUI\276d\216\017=\266\356G=\340\326B9\303\306\202=\222\3338\276\217\332\351\275\364O\212>\267()>\311)\371\276AQ\027\276\222Z\004>L\205\035>B\236\235>\247D\313=\020\245\314=k\030\327\275\311P|\276\371\322\037>\211A\007>\241\261\347=c|\025>mh\237\2758\2527?@\031\236\273-\300\337\275SM\n\275\230\337V>\344\317\014\277\301c\342=\307\337\276\273\226\251m\276\333\3311>\275\032=>\365\242\207\276\021`\323\276\371\270\351\275\376\200\212>\310y\"\274@\373\307\275Z\007\331\275\356\324\177\271f\\&\275m\3443\274r%\016>\317\247\221\275Y\314\000>PXD=\334\334->PCD>a\rL>\030\241\354=h\203\247\275\332\271-\276Z\306\220<\343\233\234=.\340N\275S\372\330\276R\343P>`\247\001?\364\212\016>cJ\370\275\r\002j=LZ\276>\324\245s\275\355\337\352=^\275h>J{\305=\236\214}\275\213\207\341\273\326\001\235=&\212\031>\270\027\230=\325\013\216\276|\2542\274\275%\222>`Q\325=\217m\217>JZ\030>\252~\035\275\032Ir\273\231p\374\275\212\234&\276{\353\021>{\026^>\235\355\377=\032\031&=\357\303\316=\253_\361\275\022k\353=Wc\002<\2352\021\276b\024\243\275\346\316\253>]\333p\274\r\334\230\276\200\000\334>\244\tX>\303dX\275\234\332\266\274ej:=\331t\'?\003\035\350=q\242w?\227h\303\276\025\3275\276\360\202\216=\352\006[=\312\254\320\276\030\207\321>0x\225\275\363\276S\276\023.W?\252\030\316\275\t%\026>\306\337.\276\233\246\221\276W\377\200>uPM=\221\222\371;\233\367p=\211\363N=\221\017]\273;\006\275\275\013[\246=&#\000\273\330\t\364\275\222\240\325=\367\216,>\354bR=\350\266\2359\217\201\237\275q\361\353<\205\371\226\274D\022\301=[H\252=\210\323\334=\202\343\200>\026D\267\275\013p\342\275\257\215\214=-\374\327<\371\010\\>\256\221\033=8\202F>\312N\357\273\003.G<\263\323v\275\322\376\372=\207I\226>\t\222\347=f\301\212\274<!\330\276a\242\253\276\324\306\330\275Y\244\264\276Z\261\'=\\\372\323\275\350\177\203\275\233\364:=\0028\023?\033\232\211<g}\302=-Wg\276T\362\023\275\317c\036\276S(\207\276\211\210+>\324p\263>o\327\247>\373h\217>O@\206\275\365\305\016?+$\262\275\305\252\030<\265\356\243\275\321\367\256=\256F[>SqL\275\342T\362=\337\237\360=\nA!>\226t\313=\335\337\274\276\003\275->!\355\366>\n\246!>?\3718\275\r\314%\275#\277\335\2745\235I=\272\265\017\276\274\030\227>\344LZ\275||\n>r\206\356:U_\004>T;d=\331vG\275a\\\250>\361C\241>\341\257:=\244\t|>\375T\337=F\200\233>\377R\010>Tp\301>\370&\221\275D\261\211\276\021p\266\275\371\220\213><w\202>\244\016 >\031\247[>\270\246F\276Y\016+\276\325R\246\275\323\023\256\276\205\307\032\276\204\241\221\275\377\330\362\274?D\254>\205\033\363\275\251\324\024\275yP\250\274\001N\027>\367\003\263\274C\230\037>\212i\023=\"V\324<Fb\005\275\231n[=\325\2330\275\271D==\005\203\233:)\024\224>mF{\276\341\356\376=\231m\317\275&\301\000\276\333:\352>N\362\356=\246\202\210>\264\357\222\276\243\220d\274WY\034\275\224f\372=&\374<>\375\376\346=\304\377W=A`\203\274q\323v\276\322\225\245>\260\2257>\236eY\274\240!\004\276B\223\315>-t\031\276\3743\265\275pO\223=\024q\313=\320\246\306\275\344\236\220\275\'l\t\276iw\023>2.\220>\227\276:<\263ru>\207\276\262\275R\016\254\274\350F\221\275{\027\213\275\311L!>\3538T\275\204\223\013=\000\025n\274I\t\376=\00553\276C`\311=\007\213\001\276\261\270\261\275/.\220=s\260e>\003a\252\275\372\264\275=\332\343\250>\025\366\215>\307Y\010\274\317#\252\275\010F\274;\351\314`\275\362\001\231=k\026\330<\355\2241>ka\221=\336\\K=J\241-=\245l\370\275}j\242\275\3016!>\001\225\370<\373\340\024=\214\204->s\265\031>\325\235\007\276\362\032\223\275s\244\201\275I\021[=\031\t\203=d\035\330\275\341j\266\276\376_\334\276Q\234\001>v\2444\2768:I>e\237(\276\"\272\240=mAM\271\177\257\221>\017\342\357<\337\223\342>\374\014\252>\023 \352=4\342\216>\336Nd\276\333\321\">cM\276<$\253\220\277\253\r\212>\242\200@\276*\263\252\276\301\226\213\276\263\025\255=T\021\333\276f7D>\203l|>\005@\325\276\264\206v>\232\256\304=-\265\237\275\320\323\360\276|\271T\276\366\235\247=\3539\240<|1\351=\244?\261>/\031\000>\033\0348\276y\200\272\275Wy\276>\335\227\220;\224_g\274\2207\201\276\200\336i=v\322U\275\036_&\277\177\036O\276;C\027?\303\034\220\275D\'^?\314\375\375\276\372\263 >\300P\232>KHq?\265@1\275W\351\005?\352\376\025\276\034\335\205\276E\236\032=\036L\004\277\035\307u>\017xP\276\030\216\314\275\331V\001<<\306\030=\"c\030<\325!\242\275Lp\272=\0060\264=\216\217V>\361\357\'\275\266&\224=\177\"\353=\034\356\325\274\027\371\246=\264\2660<VdI\274g\2435\273\327\377f\275\274\364Y\276\274\006\327\274\367\324=>\355\330A>p\340\t>\373bw>\361i\234=\023\314\336\275\224\330\277\276\362\235\367\274\363\241\352<b]\030\276z\265\030\275\035\257\202<\034\334b\276\321\2148>P/\006=@\250!\275\272\"\004\2769b\335\276\265\221\004\276m\220\262<X\033\243>\305\324@\275i[\356\275\t]\225>\033%\345\275\302\361\030\276\236cH>\350&\247\275Q&z>/Z\202\275?w6\275\366\306y\276\256\376\317<\313\340G>\007\265\373\276\335\352\236>dE\243=\234\266\354>6`\300=\266\324\t?J\265\364\2753A\331=\357|\371=i?D\275\036\327f=\326\270\247\275y\014\321\275\315\264\t>*\017M>\220`+=\210\"\r\276\0177(\276\273\325@\276\355\276\r\276\201\262k<\337Z\204>&A\030\276\201\225\303=`G\021>\247h\013>C\334\">2UX>\356\336\324=\203\310J>\341\232\261?\346.\343\276\020T\\\277\365\242\204\277\365^\226?\352\365\r?En\230\276m\255\304?\024\253R>M\255\005?)\340\030?\215z\330\274\375\257\236<\023\204\207>\245\342(\277\026D\244>\177*A>\277\361+>\301\377\376=\312\211\010>\025\363\201>\"\354K\277\\0-?\275n\340\276\033g\263=\036\235Q>0\023n>@\247v\276\261\310Y\276B\267J\276F8D\275\021\207\222\2747\256\311=\027\360\370=\230\357\226\276\262\265 =\307c\032>\261\016Z\275\221\006\372=\326\360F\275\216\3067=n\247I=\222\3300\275+\346\265\274n\247\207\276\217\223\367=\322)\302\275\002\311\004\277\022%\304?\026\271\355=+\373\003\275\365\254\335=+HK\276\2028\320\275\301\311\244\277v\021C>Q\371+>\271V\266>x\221\214\277\034\272\227>_\017\263\275\227g\221\277\017\311\201\274\266\357\r\276UD\340\273I\374Q=\357\017\301\274E\014N>\276\212:\276\307p\372=\221K[>zV\216=\215\362C>\372T\'\275\242\002\016\275\025\217\365=\341\301\357<\301\020\210=\307K4\276\\\243e\276V\3225?4u\246>\330\242\031?C2\374\274\242\276\332\2767\353\235\275\3349\260\275\217\034\316>H\003\007\276\0109*=_T\254>\"H\214\276\202\323\014=\363\240\007=\022K]=\2660\311<\311\370\016>\035\352\221\275@\365g?8\343\332\274\357\002\014?\036t\\>\n\031~<\021\210\013\276AJ\356=\217\376\327=\262r\374<\035\333\033=\312\203\035>\272\226\243\275>~\n\276C.\331\274\3445\014\275O\037\210\275\361G\254\276\311\016\254\275G\023\304>\262\235u86)\313;Dm\271>V\030;>\367i\220\276q\241\013\276\036\024$\276f\"\003>\332\224\365\275I\375=>(\327\314<?0z\276G\017Z=!\2761=D\314\014>Rnr\275\312\206+>(q\333\275X\222\222\275\22125>>\006\224=S\326e\273\031Y\206\275\223j#\275\204\'W\272=\277\320\274\033\207\003=\233\274n>M\230\333\274\253\377\022=/\252\003>/\371\236\274\242\034\002=\r\022\221\275\\\\\231\274w@\221<\245\224\005\276\265\231#\275Q\317\003=h5&\273\312\365D\276fPV>\233\024F;\203\017\217>\035Y\245\276\355\226\314>\264\320\022\276\336\301\376=kG\034\276\210\346v\275\221\2671=\340SE>\245\244\343<G\225x\275\343C\t>W6-=2=\003\276\002\247@>\014K\310\2738\217\263=\225\250R\274\0035\222\274\231\254\177=\327\017@>\303<\334=\t\005\240\275jvv=PU\027>|\307\240=\276\377\331=\306\344\350<vF\222\2741\274\254\274\362\227\273>E6\031\275a\004\362=}}\006\276\037\356\000\276\235\353\267=J\347G<P9I>&\331\226\275\373)\032?\271\036\035\272\243C\t?\343s\371\275\264\247\007=f\364}\275|-\227=\370~\257>\227\330\215=^.\342\275m\330\336=\367\032\000\277]y$\276\027\340=?\323\272I\273\233\345\244=\346bt>p\314\234<i\333\230\275c\"#:\373\001\023\274\202%\345\275\"\315\210=\023\316x\276]\010\221\276\271\263\211\276\337\013\211\275\242\303Y\276$\256\363>\332\"\023?^]\205>{\314m\276\021\'d>e\226\372\275\2277\310>%|S=k\017c\276L\212-=i\332\353\276\335g\037>+\252\370=\346\210\334\276\020\032\"=\004\303\305>\316\202\343\275\025;\267\2769T\331\275QM\364=\010\257\244=\303\225\324\275iu\n>\362\320\211=\353\254)>\347\205\024=\023\254M>\275\002\217>O\223\230\275\245\002\031\277\354\035\244=J\373p>\242\245\000>\n\253\"?\336?\031>-\332\021\276\373\240~>\301cN\276\3705\034\276\320\255\202\276n9\211>\227\336W>S%\373:)\274\201=\266@\025>J\005.=\260\223,>\034\263\006?\037\335E>\376\353T>\0073\220\276\271t\262>\202\313X\276g*\235>\014>\n>\377u\217=T.\322=\005\345\207\273\235\017V\275\314\246\277\276\230\317F\276\240\353\301=0\325\210=1\324\r\276\265\244\001=\255\214\205\276\037\345\t=\357_]\276\253\316\206>\034\271\334={C3=;\021\315\275\207\005\352<\344T\022>\3525\t=\223\026\021>\\\250G=oq$\276ED%\275f\217#\276pX6=\300s\215\274\320\276\307=)$\001\276\2039\350\275\205\013\027>J\230\021=\2264\260=s~\231\273/\224\343\275/\317\320\2754\243\240>\247k\016><\331\201\275\301\373\315\275\323\210\272=L\203\372=\231\321\277\275\010\n\006>\377_\031=\244=\346\276\307p\266=1R\000\275!f\216=~\255\237>\207\243\013=<\352\255\274\230\370\010\276\024\273\255\274\345\251\256\275\242^\344=w3\231>c\016\201=\003s\227\274\006jS\273\215T\202>\001\352f>,\352\351\275\215\214\355\275\305\221\n>l\264A\275\300+A\274\036+\267\275\251\001 >\024\272\022\274\336\252\037<\205\007-\276\240\233\257=\216m\306\275\235#\261\275\211\232\004>\323R\215\275\243]\023\276\314_\356=\241\361\036<3\007e=\344\277\'=\016`\322=l\274\221;`_\373=Y\221H>\277\240G\276\177\021Y\276\365RQ?\265\340\324<\243r\004\274\346\340s\276y\317\036\2767\341->G\341\025\276\217\307\370>&\327\274>\t4\031>\002\335\241\275\237\001^\276\253\272\335\276\204\222\326\276\255F\200=\352\3543?\004\nd\275\234H(\2764\352|?8\234n>\360\330\264\276\027~\201?\320$\265\276@\336\326\276\320\r\362>\010Z\356\276\"\317\250>x\247H>\203TL\276<\261\204>\372l\202>l]\362>\230I\264>\210\332\351><->\277V\346\'\276\251~f\276V\010\251?\347o\247=2\200\352\273\271zd>\356\212\206\275\360i\350\276\002K\252\273\325\257\020\276\246\355\024?\203\225\261=7\256\254><\314z>\177F\240\276x\024V\277\001\227&\276\332\363\000\277E\230\347>\300\345\237>\001\004\324=&\374\227>\010\354p>\311\213\232\276\346.6\2761\272\324;z\353\233=/\214\255=p[d\274\206a\245>\025\014A>,\216q=\037\\\204\275,\244M=\221z\014=P[\335<s4]\274\"TT</\272\n=\360\023w=\222{\305<\032\371\341\274\014\001\336\274\307.\370\275\016b\273>U\367\361=\202\213\240>y\312\340=(zM>\355\253\007=5\007\255\276}:\240=\264f\241>\204\336\371\274\016i\033>\314\022\346=\215e\027\276A<\207\276\306eg>$K\021>\010]c\276@8\220?\\\354\023\276I\n<\277\217\033\204\273\035}\311\275M \271>jc\233=}\364\360\275\r\337(\276f\214^\276\240\342\'>\260\306\214\275\266\235\004\276\to\216\274\3141%\276\263\250\250\274T\250\232>\245,\014>\357\251\034?\257x\350\275(En>\027>\263?\211\260\250\276wI2\277\237#p>\303-:\277\277\361j\276=\302 \277\361\345\020\276\353\003N>\177\232\005>\326G\354\274\231x\026\277j\241^\275\355\343\305>\372\247\205\275\245^\007\276\2565\357;\365\200W\276\321S\034>\3401j=4f\307=\027;\367\272\020%:\274\207}\241\274\247f\031>\371\"m\276\303\374E>.la\275a\nI\300\360\316\277?\3253(\2748\275{\276w\261A\300w!F>[\212\211?\200\345\001>\2742_>r\227\200\275k\214\003\277|+\313\275/\206\251=$\245\327\276p\355I>\335\033o?\212\270+>\346\260\013>\360X\265=_\204\'\276\316+M\300D\337\362=`\252\014?A\225\203\275_1\367\2748b\002\276\340\243:\275S<\364=\333 \024>\305\3604>\037\010g=\251\364\n?\212_\'\275d3^>L\302\030<\\\223\250=\371\270g\276\364\350H>\233\307\256\275@\211\377=\005h\273\274\247\304\r=\365\3412=t\243\231\277\262\364\367\277\005;U>\253\332\013?\276i\326\276f\027\026?\246\260\234>g\006\323>\266y\267\277\037m\207?\371O\013\276v )\276\013%\340=\202\016\240>\007>v\276\201RR\277\365\255\316=}*/\275G\350A\275\376b\361\274\177\371I\276\"8\270\273\306\311\212>\273(\260=\200zZ<\373\344\270>\367\236\325=\312\304\265\274\334-\303=\032I\225=IV_=u\333o<\177^\207\276\305!j\276aP\310\274\n<}>\364\215\211=\261QA\276\263`\266=b\341\300<\244\025t=\251\266\326=D\007$\274\001\350\272\273\202\212`>\360[\272<\326\361\275\273\373\2415\275\373g\\>G\2255>\322\250\367\273\025T\242\276\215.\001>\315\317\344\276:\204\362\275`[\351=#q\004>\254I\227\277\210\353\n>\306\002\026>\246Q\336=\367\356\324>\217\232&>\26153>\017\324\346\274\353\002\215=\225y-\276^\367r\276P\333\300\274D\354j=\001jh?\242\2060\276\371A8\276\252q\006\277\312\235\322=\322V\331\276Z7\037\274\331\243\263\275\231\215\211>\263B \275A5\205\276\272\0169\276\261\375\262\275D\363\026\275W%\252\275\271\350\344<~\t\363>p/\270<dO\004>\272\246\032?\013z&\275\375\215\240\275\212\217)>g\034E\275\245\320]=\320\225\221\2758m\364\274\265=\032\274\216\266\322=wp\353=\313\000>?@\233G>{\033e>plx=\265y\305\275XA\n\27671\264=\371\324\333=\337\361-\275\362n6=\375\\\337=\3748\325=R\330\245\276\227\224\022\276\337\003s\275\037O\254\274\t\203\302>\367\262Y>|\326\177>\3776\014>ey\263=\350n\274>\220\"G>\255@\317\274\252f\321>2*\236\276\310\014?>\274\337x>\010\250V=\253\316\217\274\301\322\034\276-WI\276\232\023\352\273g3\"=\226\225\014>\035D\262<\307\032\243=9\341\003\277KY=\275\225\341q\274*A\000=\256*\335=\034&\224=\340\323\r\276b\360\243>s\235t\273\261\031/>n\363\221\276\203tY\276<\303\340\276\306v\025?\312l\027\275\256\335L\275\023(N?\353:\024\276\r\014W\276\261\315\021\276\343K\257=N\332\005>$\253n\275\251.\222>!\336g=\3225\260\275\222\214\212=\024\030\300>=\376U>j\241\343>}\"\200;\2121X=C`\257>\245\t\221;\264o\270\2752\313\327\271|\372V\276\303\244\260\273\303F*\2769\357-\277X\325\221\276\014\234\221\276?\375\344=\246\247\263?[\031\021?\312\000\270\276\327\n\242\276N\373\333\276\026\022I\277\010$\216\276\007w\325=\252\350>\276\235\340\343\275.\330\232\276\215F\002\276\266R\231\276*:\231;F\371\214>\267\375\245\276k6\336\276\340\322q=#`\t?ot\t\275\013\364\225>T\346\t\300G\261\312\276L\230b>\"\243\020=#-\333=\366p\200=.\020\277\276\213\333\252>H\007\257=V)\013>\244\251N>\036\261\341>C>\235>\251)\205?\374\017\332>\343u\010>\327\327!?\365\"^=\335\216\261:\244-\037\276w\014\201>\301\372\262>\317\013\360=fG\202=\210j\300<z\307\006\276\305\r\333\275\030\302\230\277\207o\265>a\000\232=\276\224\n\276U\212q>\255\335\342>\251?\001\276\277F\345=\217\243P>\263\033R\276MX\314\2766\251\222\276z\313\210\276\022>\270\275\203\363\366<\314$#=\362\021\032>\255\n\004\276e\033\211>\0275\367=n\263\243\276\340n\364\275\300:\226=\233\014\312<6.7>\002\335\032\276\\[}>\2105\205=;K\257\275\263q\231\275G\010\317\274\207XR\276\336\243u>\317\234\347\274\243\"`>M\271\023\275\203\200(=\243\246\342\276\276\375\213=1(&\276\335\227\006>?*\362:\262\371\006>\300O<=\202\242;\276 \251h\275\377s\222>\351\350\373\276\027\200w\277\370V}\276\026(m\276\302\233F=\031G(\276i\2022\276T\311)>\265,w>tR\302>\253\031\024\276\013\362\204\275\014\243\200\275\326J\213\274V\211\354=W{t=Y\327\222\275e\017\202=\031\250\266<\333\002\227>\036q\036>G4\020\276\327O\363=\227U\201=\3646\n>c\276\2369\336a\371=M_\001\276V\313\214\274k\007\303>\340\034\337\275\217\207Y?\204\254\216\275\352\252q>\374\226\210\275G1&>\216\352\321=\231o\225=\327\321\032>\302aY>9\257\010>\253\322c?\213\037E>\223U\025\276rs\202\275$\255\230>2\232\306\275y\0169\277e\3771=\3408\343<j\353Z=\026\256*\276o\215\201\276\300\003G=\241T<\277\324\244\265<\266%\216\276\200\177I>\222\273\366\274{\204\t\276\374h\270\275!\304\214>\363&6>\203Y\351\276Y\202\020>\335\231D>\262\032+>\304\337\200>biS\276\300VT>\234\034~={\257\353=\353\017\017?\274Cg>\030V+>\315/\263\274\023\255\235\275\222\230\025>\230}\224\276\327Y\240=\302\370W\276\335\002\203>1I\252=vL?\276\276s\351\275\260\231\013=/\323\035<\351\375\345=H\2370\276\330\206\033=\327 \231\274\325B|\276/OY\276\2665\256=\010\031\325\274\013qz>\304\322\'\276\260\355\'=\342\321K>\231i\026>M\304\313\275e\370o>\274J^<\311\322\315\276\262\017\221>\000e\004\276\036\274j=\"[(\276W\211\367=\035\217\213>\014i\"\273S\200m>,,\366\275\337[1\275O\257\004=Y9\222\275\372\200a\276Uh\201>\027\n\003\276\354\222\262\275K+\017>\330\204\230<\204\373\025\276\231\247\021;)\310\312\275\320\223w>\022;\265>(l\362>\353\rX\276\324\356\252\274\255\335\202\276\207\013!\276qE\022\274\275f\254>r\363q\276\351\035\234>\266\203\367>\002\272\224=\305\236L>O\214\036\277\257\320\200\276\337\326\014\276\315\266\250=\003\236\035>\362\215)<\213F\030>L\326\'\275\243\032\356\275\376\340\230\275H\004f?e\242\013\276\253\225\317\275\2611\272\276\316\021\312>b\372\301\275S\214\231<\261T\364\276\231e\234\274\213/$>\205D*==T\023>=<\335>\255\340\025\275\263\021\227=\370,\212<\000\315k\275\276\341\007\277\274\335\243\275\337O\370=\"\220\n\276\205\254\004\276\035\342\010=\r\3465>\302\222^\276\013\345\020>\377\273d?\372\311\236>\226\264\223\276 N\375=\325\375)>\222N\031>\307\2718\276\351F\210=f\020\232=\216:\n=\rJ\036>\322\000\201\276\271\302I\275&A\217>[\230O\276\td\270\274V\367\243\275)\374:>\331\210\231\274\233\036\272=Vw\303\275\205\317\367;^\033\330>;\212\240>\014\026\026>e\356\367\275\r\260\364=\370\251\335=\335V\310>\252\357Y=\320F\025\277>\311\207<dT\240\276\205\274\036\276vT\006>\022\312\007>\265\326\321\273\331\361\177;,L8>\224Xt>\226\253\260=\327\210\324\276\244<\314<\320c\313\275\007.\202\276Z\327\263\275\333kw?\225\347&>#\265??\357\275\351\276\022\207\243>\305\2061?v[4\2763dV>|\360t\276c\266V>D\203T;\031\231%?VJ\227\276V<\026?m3\203\276i;G\277\272\014\312\276\264\2166>t_\362=\377\247\220>\2220\001\275$i\377\275V\3272>\246\344\344=\202\356\233>\257\'\260\275H\371\211\275*\301\256=\235\224\010>\317\310\002\275\303\332\023<\010Z#>\253\204\275=I]@<\370\2126>E\212\304\274\370\211\267=/#@\276\272\222\313>\377W\024\276i\266\200>\231\200\323\274\"X\232\275\244\232\026?v\341\373=%\032\312\276wGo\276l\247@\276\266\223\003=2g\367=\222\315\n\275,\217\001=\326N>\276\306+\300=@E\206\276\362\242\265=\311\263\252\274\245\230\226>W-\366=\3268\034=\343\216\327=1m6=\321\244\226\275lw\367=\n\371\234\275\240\0079\276OU\237>II\024\277\252\037Q>\n\372\035\276\335\005\177\274\345\301\216=+4\244\276\250\300z:\241V9=\217D\034>\027\r\340=n\227,\276\223@C>&\341\234\275\205w[>b\310\353=\355\366!\276\333O\024\276\001T\016\276Wr\207\275p\205\275;zC&\276\205\n\316<\263\217\314\274\336pH\275x0\036\275V\3706= b\340\274\301D\333\275\331Og\275\302b\005>\300\355\010>\r\207\206>6\216(>\376\265k=-j\202\275\262\271@\276\323\374\017>`Z\215\272\326?\357=/\306\024>bI\225>e\266\233\275\314\341c=\177\217\211\275\312 \340\275Z\377\030?\241ZL>=\371\370=Y\361\277\276#\310\223>\226&\256>\211\2278>X\006\212\275\211\006\t\277\234\'#\275,\251n\275.\374\031?\343\226\001=\353\361\207=\003\261\271=\317\224\335\275\035P5=\254\016\274=\255Q\031\276p\255 \276f!\006=\027\245I=\303M\002>\r\332\372=!\266\336=\221\307\207\276]\031\345:\256My\276\036\254.\276s,P>|7A\276B\351\265>\254\265:>\267z\030>\256\353T>~\216|;\030\020\246=e\370\215>\026^\261>\023\201s=\202\262q\276\306{G=\242Q)>\256\326\237>c\273\204\276k(\271\274`\365\302\276\254\203\207\276n\202U>\343\005\206\275K\2140\276\274\267\007>?\336\337=\252\305\356<\017Yi\275\244\227/=\356Fw\275\260\271%?\203\306[=\331\232\261>\232\340s<\375\253\366;\251Z\316=\034?\331=\342U\032\276\362;q;\023\327\021>\257\007\005\2762~\000\275\255\240\030>J\255\202>\225\023\262>\273\355/>\302:y>\343\212%=_\374\361\275\205\327\346=\200=\024>b1\325=cA\271\275\276\333\335=c\027\006<T\320\223<\233H#>\311\233\004>l\3624\274\3126(>>\013I\275t\354U\275\330\330\024?\324&@>H\000\003=\245\032\000<H-\231=7/\021\275\246^\261\275\270Wi\274\027\263W\275\217\247\221\276  L\274\0347[\275\002.\205=\253\336\361\276=\212\341\276\236Q\034?`&p\277\357\032v>&U\255\276\347\020\271>\242~\236<\235\201\211>\335g\220>\t\017\304=%0U>V\373_>\210^\233\274tq\330>\315\303\300\275\365\250\273=_\346\034>f$\302>\nY\331\275\207\211:>\233]\000\276A\363\307>j\306\225=s\217\250>\255\251z>\364\367E=\024:\337\275|\366\262>XE\272\275u[\200\276s\356\200=b\256\231\276Q\r+\276$\301\r>vGs\2756+\316=\3378p>\361;\'=\335\361\201\275\270L\241\276\373\037\345\276xd\217=[\232\236\275\330\300\302\275\026t]\276\200:p\276A\272\262<\316E~\275\343\256\255=\337X\013>\333\237\357\275\342\200\007=\217\227\245\275C^\013=\242\242\351;\361\021\343=\312D\242;\024\024\333=\275f\033>\367\332\265>\215\334H\277\246z3\276\333\260\226\275Y\021\354\275\001\014(>Z\031\010\277-\036\253\276\022\221M\275\221A\353<\002\373\370\274\271\t\327=\020\035\206>g\317z\275X\242\203\276\345\352r=\307\316\323\275\360D\301\275\242\'0>\016\353\326<\207\247:?\326o\026\276\tA\004\275r!$?\274\0035>}\337\265\276\331\255\021>\036\301\277\275\240\3553\275\021XX\275\342\335\364\2758\035\373;\"_\273\276\225\367\243\275@>/>\373\230m>\225\'\214\275\303\0266>\317\347\270\276&Z\206\276\017\265\244<#C\322\274B:\022=.\216\004\276\322Xm>e[\227\275jL6>\320\026\030\275\214Z3?1{\267\275E\017\216>N\350\253\275\221\214\241>X\332\020>\024\020\210\2765\265X>b\242.>4\332H\275;\220\366>\031\372\266<Jr\253=%\337\327\275\'\246\312\276+\233G\276\027\360\253\276>[k>?\017\312>\263MI>\202{}<\302/\257=\340\305\271>\322\226\271\276\3726\360\274u\027\244\276\213\243?\276\253\354\244\274I\304\373=\2139K=^\r\277\276\356\r\202>\246\213C\276Q\240\231>\177[3\277\242,V\276\224\315=\276,\256%\276\215GB\275\177\242\226>\345\356e>\267\214h\276\247\212\253>m\327w\275\205\364\206\275|\360&\2754\2421?9nK=\354\341\002>\327\244\033>\327\373\217>\237%\300>\261\232$>\034m|=\3425L\276\374\222q>\3348\331<\017\025z>\326#\242\275^\033\262<P&\005>To\035\276\257-w<\373\226*>\337~\216\276\344\317\316\275&j\261\276\260\346h\276M\301:?\340#,;c\0043\274\211\246\222>\214\\\204\275\354\240\177\275/\344\203\276Umv>J\273\303\275)\006\325=\224\317\211\276\267\013\013>\001;\">\217\256\035>Y\266\214=\2458\223\273\335\007(\2768\261\034\276\315\310\004\276\304\373l\276d\003\260=H\237\215=*TD>\007\372:\276`\364\362=\0014\014\276\"\302\323=\245\013\t?0\037\337=\236\367@\276\374\235\213;\317\3701>\215\215\252\276\312\000\361\275!g\204\275\263\301f\277a\200\251=]\216D\273&\243\344=\031&\025>\225\333\021\276\017\274(\276\200\312M>\003/q\275\364\362\024\276k\356\260\275\247\204\036\277\373h\342\276S\306\014?\027\375\224=\371\2276>K>j\276\362\207\233\275=+1\276\370\235\361=\370\025\212\276\244b\234>g\036\236>\\HA\276\313\227\335\275!\233T\276fc\362=C\263\213\275\353j6>\000E\221\2766CZ\275\352\216u=z\203\260>\353(\t>~i \274\352e\007\276\3212\261\275j\313\207\275\263\307\032\275\037K8>;5\200=\316p\031\276Kn\001\277\206T\253>y\325\200>\372\354\007\277\202_\313\276\262\207\037<\272n\210\277\247_\245=\232\017\237\276\307\202\274\275\032\216\220=*\320\341\275R5\t>\310\211\026=m\365\014\276=Q\235=\245\357\"=\177\365a>\003\323\014\276\373n\343\276v\304\346=\304\242\337>\265\346 \276\217\345\233\274\321{\003\276\274\355U\276\223\360\036>6\256\300>\247\202\312>V\3154\275:\304\254\272\003\324\302\276\010vR\276Q5\310\276G\220\017>v\013C\276\246\"\304=\360\204\247=\200\200G\277I\321\251=\037\277\342=\372\2771\276\"A\261\275a\337\030\276%Y\333\276\024\022f>\302\'\006\276Y\3600?\236\003\273\276\267e\263\275\303]\276>Y\200\"?\027\330\036\272\336\331u\277\235\357\327>\357\255(>OM\222>\263\230\356\276\315\200`>{\327\204\275\360\332A\276\373\017~=\036\245\201\273LE\351;\'\364\210=h\205\343\275\265<\336\275\230\\\317\276\211\322\236=\344\303;>\323\314\010>\334M\247=*\255\375\275\264\316\373<\204\031`=\204\373\366\275\tO\007>\255\223[>\017\232\202>\205\204\315\276I\3269\276\3163/\277a\'4\276i\205:?k\314\235\276\024\030<\276#o\342\277\321\217 >+\244\230\272\030\231\316=\233\375C>\t\315\217<\267\313\207>\235\342\204\275\236\204\325<6\266]\275\223\300\370<\037}\334>\230\2141>KX\212>g[9=+\271\263=_\256}\275#qD\274\212-\243=g\274\237\274\200\'\016<\347Z\332\275-\260\207=?t9\275\020*\"\276\037\331\023?[\330\315>\364\254\354>W^\245=\211\361,\277\027\010\336=_\216\214=Ud\224\277^,\000\275Gj}>4\254c\275\023_\004\276\225\353\242\276\265B\r\275\324\275\257=\247\253\016\276>\337\354=z\345\006>8\200\034>\322,>\276\036\275\320>\367\321-\274\257\027]\275\357AE\277\334\014\204<wy^>\276\215\007\276\3331\365\275\26634\275Xq#=\320l\217=a\237\013\275Y\320\354\274%\311\247\273\006\000\206>\206\255z>1*\257\274\026c\004\276L#\374>\004\350x\275\313r)\276\023\310\006>\266H\212>>\000\210\276\204\257\260>{D\020\275e_\251=\222\274\245;\3348\230\276Q\006,\276\022\002\213\276,\016L>e\2053=x\271{=\0017\021\277r\203H>\314A\231>^\362\227\274\366\205\344\275YB[>.V\340<=\341\374\2766\362\r\276\005\023C>d\237E\276;\343\r?\010\312\313=\317)g\276\230x\206>\270\003\243=\352Y\206>\254\347\303\276\305\343[=\363+*\2765~4>\234\023<\276X\241\201=\356\254\034>$\251\257\274\202?\004=\367\220\251\276\321v\001?\234\006.\274\307qC>\274\2038?\026\346K>\371\206q>@h >1\240\270;?\273\265>]\214\215=\315\314\241=\363\260\230\275\"\204\226\276\303\261\231>+\333\262=~f%\277\0317\232\275\375T~>\327\357\031>\200\202\n=\322\351\022=\226\366\253\275\356\331\261\276\363-\204\276\254\241\374=k\007\276>\177L\t\277:y\236=\017L\200\275\035\033(\276e\372\336\273s\301K\275I\236\243\276\027q\334\276\355)\271=:\264\262>Ho\010?\010\n\020>G\347i\276\325 \035=\376}\200<w^%>\376\371\211\275iN#>O\0202\275\236\305\322\275d\353\304\274\213\261\005\276\0373N>\n\374\272=\301\177\233>\345~\360\274\r\362\265\275v\222\225=8\364\030?x/$\276\345\240#>\374\312\354<7\301\010\276\303j\214=Z\016\244\275K\316+>\025\327s\276\265\n\333=m<\366\276A\241\323\276\022\\\003\276f+\366\274\206\212>>RW>>\363\327$?\234\224\024>\357\332\027\276~#\260>KQ>\276\350\2063>\274)?>\240\361\205\275~#\314;\233u\243\276\3671\003>t\366\241=E\260c>\200\016\267\275fZq\276L\252+?\000\335@\274}so:\234\243y\276\222\217M\275\340vU=\222\202\236>\247}\025\273\017N\315<\274\tl\274sA\317>\250\267]=\323\247b=2\2351=\263\001\001?\277\367\272=\232\370G\274|\240\374>\272\315\241=\247\021\030\275\350\275r\274\376\266\314\274\370\035\225\274\236*^\276\206\371\205\274\2420)\276\366w\350\275\212\232\026\276\367\227\257\275k\315i\275\364\247\335<\017\376u\274\311\204\225>\235\310\206\276\235\302S=\340\t\236\276\177#\021=\246\270\003\276\360Nk>\327cn=\360\024\274>R\256\202\275zm\305\276L\340\037<\227\\\211\276\234\007\031\274@\236\204\276_\016\220=\214\240F\275\246\315_>\316\315L\275\215]\025=\'\204\370<d\310\361=\020\325\313>\021b\250=\312B\277>.UL\275\362a\212\276\225\202\014?\210q\007\277\354\240\007>3\r\243>\230\325\202>\005Z\344>\306\222\034\277\332\326\222\275$\330u\275\3157B=\323~\231\276\343\014G\275\0074\340>\252\342k\274\364?\025\276h\205\000\277\007\362\226=\265\334\265>;\263/\276\315l\233\275\037AC>\004r\205\276%X\235\277GHV<\'\n,\276Z\005\232>9\020{\276\232;\245>\304\020Q\276\377[\246>t\355l\276C\225\241\272Q\327\002?\230\370H=<\177\002;\026\017M\277j7<\276\301\240\250\276\010\355\251?%]A\275\372\351\233>\013v\013\276\317\266\323\276\336\235\214\273\317\251D\275\027\266:>\227%\264;y\351\351\276\311\272\016\274\345\364i<\003\260Z=3O.\276\262U\257=\360\257\213>#\255X\277q\3638>\366\376:>!\222_\275c\'\314=\206\237\310\275\317\352\271=>\313\240<d/\211\276\320\274\312\276Yb&\275OL\342=;\027\370\275\300\311\205>G&\204=\255\227\003?\323\235\363?\350t\022\276\020k\233\276\372p}>\320q\237\276|\\\322\274.A\272>y\327\221>]\006n\276{\360\014>A\366\244\276\277\250\016\277\t<\237<\335\201\362>\3568,\276\310\320\216\276\034\257j>i\233\222\275z\223\356\276I\210l\276\315\277\004=`\005I=\010\013\374\275Xm\265\276\303\230\364<^H\277>\233/\221\276E\343\212>\232\233\036\276\343\224e=\014\215\335\275y&\320=\017o\326?\320\346\245\275o\264\347<\250\021K=\216\346f\276\302\0318\276O\270\227=7;.\277d\250\305=wc\307\275\213\305j\274Bx\211\276\256\363\234=\272\247$\276!+\306\275\206\374\327\276\327\1775\277\341\2076=>a\245>\355\267[=\t\333g\274x\254\017>\252\336\024>]`\231\276c\337\330\274\274=\353>\034\273\t\275\031\216~\277!\354\370<\262\205\026\276\245<\223>\016\343\017>7b\004\300\n3.\276\257\r\355>\256\273A>\360Z\026\276\304\r\365\275\372P\313>R=\020?\200#\001\276b\000H\275:Wz\276?gP\2770\303\026\277\345\'\301>`w\240\274\016\241\261>\265e]\277*\306\204\274g\0054\276\241\026\361=l\375\370=\320\3254>~\331\306>x\010)\274X\261]\275\'\267\304\276hl\000>\021\036\326\275\256\024\215>b\267-\277A\322\002\276c\300\212>n4\210\277\0326\255=1\344\331=\336xx\276\340\311\303;\305\324\356\274\327\223}>\363\251\033>\321\342\036>\343Eb\275\"\004P\276,uJ\276}\005{>\273\376\265\275\325\014\033\275(h\r\274\317\'\341\275\177\344I>7oc\277\334\345\306>L\340s=\213\333\217=Y\224j\277\022\036\010>ODH\276\270\220\362>\223\200}\276\365\220\212\276n\\\357>8\331\013\276\373\'\301>f\272\002>\321\312\246=\0246\355=\014\3750\2761p:\276\254\332D>\022\341\273>\033\243\313=\002\317L\274\3350\221>t\325D\276\277\355\217>\333E\217>\324,\177>\324O\374>y\022\020\275U\367x\277!\272\277\277D\222\017\275\005)\262=Z\203\036>\215h\247>\333\t\232\274\2236\212\276nU\014= \202\023\276-H\261\275\'\325\332>\331\300\355\274\034=\250\275\212\r\346=\302\263\221<8\245\027?\223\303\t?q>\357\276\350\253\037>=\243r>\014\016\364\275\264\233\316\276\354t5>m5\036>\2640\305\275\221\325s\275\231\260\217=\342\266i\276-\350\220\275K\204\n\272G\374\027>8\303\336>5\010\204?\372\300\217=|}\264\274\371g\331=\315\206A\275?/\026\276\024~6="
      }
    }
  }
}
node {
  name: "decoder/conv2d_transpose/conv2d_transpose/ReadVariableOp"
  op: "Identity"
  input: "decoder/conv2d_transpose/conv2d_transpose/ReadVariableOp/resource"
  attr {
    key: "T"
    value {
      type: DT_FLOAT
    }
  }
}
node {
  name: "decoder/conv2d_transpose/conv2d_transpose"
  op: "Conv2DBackpropInput"
  input: "decoder/conv2d_transpose/stack"
  input: "decoder/conv2d_transpose/conv2d_transpose/ReadVariableOp"
  input: "decoder/up_sampling2d/resize/ResizeNearestNeighbor"
  attr {
    key: "T"
    value {
      type: DT_FLOAT
    }
  }
  attr {
    key: "data_format"
    value {
      s: "NHWC"
    }
  }
  attr {
    key: "dilations"
    value {
      list {
        i: 1
        i: 1
        i: 1
        i: 1
      }
    }
  }
  attr {
    key: "explicit_paddings"
    value {
      list {
      }
    }
  }
  attr {
    key: "padding"
    value {
      s: "SAME"
    }
  }
  attr {
    key: "strides"
    value {
      list {
        i: 1
        i: 2
        i: 2
        i: 1
      }
    }
  }
  attr {
    key: "use_cudnn_on_gpu"
    value {
      b: true
    }
  }
}
node {
  name: "decoder/conv2d_transpose/BiasAdd/ReadVariableOp/resource"
  op: "Const"
  attr {
    key: "dtype"
    value {
      type: DT_FLOAT
    }
  }
  attr {
    key: "value"
    value {
      tensor {
        dtype: DT_FLOAT
        tensor_shape {
          dim {
            size: 16
          }
        }
        tensor_content: "\344\336\210=\236H+>\372\304\360=8\302\274=\22295>\367{\024>g7\033\276\250s\006>\215\013\032=\263\005\264=\n.\210>\336\207\357<c@\216\2751\0242>\347:\217=\227\253\026>"
      }
    }
  }
}
node {
  name: "decoder/conv2d_transpose/BiasAdd/ReadVariableOp"
  op: "Identity"
  input: "decoder/conv2d_transpose/BiasAdd/ReadVariableOp/resource"
  attr {
    key: "T"
    value {
      type: DT_FLOAT
    }
  }
}
node {
  name: "decoder/conv2d_transpose/BiasAdd"
  op: "BiasAdd"
  input: "decoder/conv2d_transpose/conv2d_transpose"
  input: "decoder/conv2d_transpose/BiasAdd/ReadVariableOp"
  attr {
    key: "T"
    value {
      type: DT_FLOAT
    }
  }
  attr {
    key: "data_format"
    value {
      s: "NHWC"
    }
  }
}
node {
  name: "decoder/conv2d_transpose/Relu"
  op: "Relu"
  input: "decoder/conv2d_transpose/BiasAdd"
  attr {
    key: "T"
    value {
      type: DT_FLOAT
    }
  }
}
node {
  name: "decoder/conv2d_transpose_1/Shape"
  op: "Shape"
  input: "decoder/conv2d_transpose/Relu"
  attr {
    key: "T"
    value {
      type: DT_FLOAT
    }
  }
  attr {
    key: "out_type"
    value {
      type: DT_INT32
    }
  }
}
node {
  name: "decoder/conv2d_transpose_1/strided_slice/stack"
  op: "Const"
  attr {
    key: "dtype"
    value {
      type: DT_INT32
    }
  }
  attr {
    key: "value"
    value {
      tensor {
        dtype: DT_INT32
        tensor_shape {
          dim {
            size: 1
          }
        }
        int_val: 0
      }
    }
  }
}
node {
  name: "decoder/conv2d_transpose_1/strided_slice/stack_1"
  op: "Const"
  attr {
    key: "dtype"
    value {
      type: DT_INT32
    }
  }
  attr {
    key: "value"
    value {
      tensor {
        dtype: DT_INT32
        tensor_shape {
          dim {
            size: 1
          }
        }
        int_val: 1
      }
    }
  }
}
node {
  name: "decoder/conv2d_transpose_1/strided_slice/stack_2"
  op: "Const"
  attr {
    key: "dtype"
    value {
      type: DT_INT32
    }
  }
  attr {
    key: "value"
    value {
      tensor {
        dtype: DT_INT32
        tensor_shape {
          dim {
            size: 1
          }
        }
        int_val: 1
      }
    }
  }
}
node {
  name: "decoder/conv2d_transpose_1/strided_slice"
  op: "StridedSlice"
  input: "decoder/conv2d_transpose_1/Shape"
  input: "decoder/conv2d_transpose_1/strided_slice/stack"
  input: "decoder/conv2d_transpose_1/strided_slice/stack_1"
  input: "decoder/conv2d_transpose_1/strided_slice/stack_2"
  attr {
    key: "Index"
    value {
      type: DT_INT32
    }
  }
  attr {
    key: "T"
    value {
      type: DT_INT32
    }
  }
  attr {
    key: "begin_mask"
    value {
      i: 0
    }
  }
  attr {
    key: "ellipsis_mask"
    value {
      i: 0
    }
  }
  attr {
    key: "end_mask"
    value {
      i: 0
    }
  }
  attr {
    key: "new_axis_mask"
    value {
      i: 0
    }
  }
  attr {
    key: "shrink_axis_mask"
    value {
      i: 1
    }
  }
}
node {
  name: "decoder/conv2d_transpose_1/stack/1"
  op: "Const"
  attr {
    key: "dtype"
    value {
      type: DT_INT32
    }
  }
  attr {
    key: "value"
    value {
      tensor {
        dtype: DT_INT32
        tensor_shape {
        }
        int_val: 8
      }
    }
  }
}
node {
  name: "decoder/conv2d_transpose_1/stack/2"
  op: "Const"
  attr {
    key: "dtype"
    value {
      type: DT_INT32
    }
  }
  attr {
    key: "value"
    value {
      tensor {
        dtype: DT_INT32
        tensor_shape {
        }
        int_val: 8
      }
    }
  }
}
node {
  name: "decoder/conv2d_transpose_1/stack/3"
  op: "Const"
  attr {
    key: "dtype"
    value {
      type: DT_INT32
    }
  }
  attr {
    key: "value"
    value {
      tensor {
        dtype: DT_INT32
        tensor_shape {
        }
        int_val: 1
      }
    }
  }
}
node {
  name: "decoder/conv2d_transpose_1/stack"
  op: "Pack"
  input: "decoder/conv2d_transpose_1/strided_slice"
  input: "decoder/conv2d_transpose_1/stack/1"
  input: "decoder/conv2d_transpose_1/stack/2"
  input: "decoder/conv2d_transpose_1/stack/3"
  attr {
    key: "N"
    value {
      i: 4
    }
  }
  attr {
    key: "T"
    value {
      type: DT_INT32
    }
  }
  attr {
    key: "axis"
    value {
      i: 0
    }
  }
}
node {
  name: "decoder/conv2d_transpose_1/conv2d_transpose/ReadVariableOp/resource"
  op: "Const"
  attr {
    key: "dtype"
    value {
      type: DT_FLOAT
    }
  }
  attr {
    key: "value"
    value {
      tensor {
        dtype: DT_FLOAT
        tensor_shape {
          dim {
            size: 5
          }
          dim {
            size: 5
          }
          dim {
            size: 1
          }
