node {
  name: "x"
  op: "Placeholder"
  attr {
    key: "dtype"
    value {
      type: DT_FLOAT
    }
  }
  attr {
    key: "shape"
    value {
      shape {
        dim {
          size: -1
        }
        dim {
          size: 16
        }
      }
    }
  }
}
node {
  name: "decoder/dense_1/MatMul/ReadVariableOp/resource"
  op: "Const"
  attr {
    key: "dtype"
    value {
      type: DT_FLOAT
    }
  }
  attr {
    key: "value"
    value {
      tensor {
        dtype: DT_FLOAT
        tensor_shape {
          dim {
            size: 16
          }
          dim {
            size: 512
          }
        }
        tensor_content: "TE\341=0\024\002\276\n|\364\275\034\250\003=Qv\201<\243\303\352=\225\260&=\337Dt=\3205m\276c\002\215>H\371\256\276J\311\025=\354u\245\272\336b\365\275\024\364\373;\225\357\005>\0230\221<\030\243\013\275 $x\276\225\271\352<\024\314\211\276\025wp;caq\275\302\360.\276=y\035\2762\025\001\275\202\246S=.\014D=H^U\276E\262P\274\310!\r>\346#\327\275\306S\377<\237/:=\247! >c$6\274\037\363\323\275s\357.\272\313\005\370;%\336\231\275{\213\025\276\330\244\301=\235o\345=O%y\275o\206\250<\254\264/\275\372\303\336\275\333\315\373=\311<:\276\20696>Iy\331<\340\260\337\275\027\244\237\276\376\3047\276\306eC<(~\321>ib\352;\345x\330\275\274\"\271\275,\252\241=\342\277\363\275\023\213\255<\246{\374\275A+\354\272\343\003\347\276\345.\200\276A\202\034>\311\315\220\276!\321\232\273\006\231\304\275\313n\031\274\034\373\032=\007\316\t\276\202\212\312\274l\240\265\275\237\204b\275/\266\n>\0106\374=d\222M\276\232\006\351<\033\003\273\275wT\031<\007<\240=\021\275\246<\t\037^<\202\t\024\2758\374<\2764\252\212\275#$K=%\234\201\275\250;\257\273\241\223\357=\262\002\007\275jXX>\\3o\275\325\375Q\275!\307f\276\254\231\220\275\335w\307=\034\202=\273\331\326\027>\345A\312<\307#\342<&\362\265<\216\304\367=\227n\254=\306\230\242=R%\377=\317\335\302\275\247\374\252=\333\323e\276\324Ma=w\347\267=\221\235\372;i\240\201\275\317\016?\273\315\325\"\275\331\274z\275\255&\000>5\250\031\275\210\271s<} \243<>\004F\275\323I\267:\273\347\357;y9\335\275\002j\226=\277\273+=R\205q\275\343\226\273=\332\\?=\036\341&;8\2633\276\254\223)\276\333`Y<w\362\245<5\021\230\275NC\222\2753D\020>1Z\221\275\245\370\027\273&z5=\240\364\312<\016\274\231\276\031(\200=\304\356<=F\230\206>A,\377\275\003\\\205\276\347{M=T\313^\275\2346\235\275=\231\317=\003\245\017\277\256\332(\275\024\332\266\275\301<\300<\005`!>\360\214B\276R\"\355<]\233\301= Z\221\274#O\337\275jU\035==\005\004\275\323\370\272<J\227\313\275\241+\322\275A\211\327=\323\001\277\273\301e\301\274\250\342H\275e\275\206\275\316\237\315\275:\255H=\211\212\221<\230\215\246=\216$\017\276\027\227\263=\373(\360;\206A\242=g\027<=\315\013\r>:\004\005\274\314w->\276\323\246\275y\345\250\276\273\003\010\276\310\001\036\275\222\244\217<\314\231\366=O_\232\273\351M\371\275\272\237\347=\262\023&=\361TM=\210v\020\275,\253\350\274\022\304\227\2766\274\010\275-\320\034=*\010\313=\371\244\372\275\352+\201\276l\035\026\276!!L\276\216\224z\276\244\006\032\275\304&G>\3668\374\274\320y\202\275eQ\211\275\260$\034>\223\356\336\275\342\303~\276=\023-\275\243\200\"\275\365;<=V\025\331\275jD\003=\233\371;\275\021!\327<\301\322\203=\013g\212\276\007\376\246\276\221j6\276\233\tz=E\300\367\274\013\262\221=\253\224\341\275\300{\204\275\025\276\326\275\233\333\013>\210\261S=\005FH\275\t82=\305\373\025>\336:#<\363\246\232\272\356\222Q\276\261b\246\274\334F\260\276\213\310\220\275\367\215\227<\031\260\241<\265%\202={%{\273\013-\364=\272\336\340=\356S\r>1\"%=\350\271]\275\024\323\367\274K\360q\275-\262\214\275K\024\366\275\343\345\270\275\203\372*\275E\354\005>%\253\202=\353v\001>\266Cl\275?\340\246\274\301\372\223\275?\343\025\275\211\374\251\275?\373\203=\240\032]=;Q\352\274\210\266\230<B\241\232\275\037\240\n\276\354t9\276)eC=\252xG\276\000q\r<s\256->\266\013E\275L;\344=\307\000\253\276*o=>}g\236=\254z\260\275\246\2111>\301|\001?y\325\004\277\275\2609\275y\357\030\271\010\337\002\276\233\031(>{\010|<\356\027\240>\252\222\222<\237\250<>p\224\002\276\256.E=\351u\220=\213\322p>\344\261\217>\266\303W>\025\273\317=\027E\273=\273\325]\274>\256K\275\366\207\303<J\244\371\275\272\035d\276\345\225\337<\355\2425=\341\0004>\030\020\222\276\345\216%\276W\357\267=\347\244O=^E\254>\004\270\211=\2477\243>\361\334\314><\035\342\276\315\363}<\304\021o\276\037\361\261\275m\r&>\266\247\t?\273i\323\275\034\n3\276\243\256t>b\227\253\275+\367/>\313\"\302\275\270\221\246=dOu=z\020\330\275\363QI\276\200\027\232\2750 \310<\371\336\254=\234\020\201\2767\300\360<\352^h\2753\3274\275\337L\205=\243W]\276H\210\035=\221q\257\275\274\224E\274\300\203M\275\244\260\3549\023\025e\275\355(\210\274lI\324\275\267\241\201\275\265\241\321\275/\215\357\274\363\353\n\276\177\032\265\274w\320\242=\242\251\324=\360C\273=vcg>\301\2242\276\311{<<\n\257n<\244\224\023\277\t\377\332\274\366\335\320\274U\257\r<\212\203b<\353\244\337\276\010]\034:\242\201\257\274\001C~\275\007E\335\275ac\037\276\274\272P<\347\277_=\017\022\326\275\204\007s=\257\'4\276\010~\035\276S\222\306\275\367LM>\r\257e=\340\376P\276=\222\260=\305\216\312\275\025\210\000\276r#\331\274p=>>\305\354\035>j&L?\036\231\310<t\017H\276\000\333\005\277\354{\032\274\270p\341\275U\037p>\245\2242=\325a\003\275\311\324\014>\360\342$?N\211\250\275\023\025h>I\275\276<\256e\033?\354\260\376=\024+\300>:\257o>KL\326>F\316s>\032\361K\274X\217W>M\372V\276\351k\253>\222\256a\276D\342k>\341\272\227\2741\034\307\275\205rR=\335I\034\276,De\275\365\361\374\276,\002\374>\014\302\361\275\353>+<B_\270\275\215rT<d\024S\275lu\246=(\311\221\274\007\313\000\276\256\226\320\275\366\016\003>t\311)>X\374\026\274\n\0348\277\\\345\020>\343\177\364\276-\244\014\277\363\030\222>\274\245K\276\207\245\234>\034EM>\253\312\3419u\253l<2IX>0\001\267\274d0\350\275u\364\025\276\344\373M\276Ch\236>V\336k\277OW\037=\222h\234\276\215\337\037\276O6\332=\224J\223\276\235hO=\025q\372\275\321\3413\276\276I\233\277\255N\263\276d/\302\276\275\016\024=\244\332^\277\251\3750\276\300k\317=\305hq>\376\363f>\257\377\270\276\004M\273\275\244\246\206\275\333f`\275?Y\347\276\344\305\232<\327\246G=\233]\357\274\022\002\233\275\367&\023<uJ\020\277\261g\234\275\253\305\007>K\207x\276z1\247\276\317\370\223>\354\302A\276a\t\307\275o\022C=\247\253\255\2760 \005=\245\217\243\275\266\264:\274\204\344z=\336\344E>K\t\251=,RB>BH\261>\215\200j>E\216\370=\256\370u\275V|\024\276\342\323\201\276\3058\277>\265\362\265\275\307\315\231\275\344\247\257=\213\210\247\274Nn\213>\262\032\216=\006\014\252=\330[S\274\0007N\275P\351\005\276^\272E\275\037\211-=g\207\374<IV\360;\264\023\304=]\306r=\326\346\324\275G\347\247<\371\354\'>\364/\375<=\224/\275i/h=;\013G\275l\207W\275U\006\037>&\321\3749\2755\322=\371\221V=\034z\253\275\262q\306;\005d\005\275\323<\033\276X(\201>\257>\032\275Y\037\004\276\327\276\372\274w\024\276\2753\347\241=i\221\253\275\001c\227>\3755\273=\255\271\265=`\316\260<\032\271#\275{\233\016=\331\rg>p`\255=\2141n=b\'J>2\234=\275\247\207\364;A7{=\300\325\230=\013\374\256\271qz\035=\350| =v\007\335\275\327t+>\314i\360<\'K\223>oj\247\275\360\377\251>s\220\241>VUY=\316\261\236=\243j)\275\325\035\217>\022#\002>=\202\033\276\353\\G>\344\277p\275s\241\016>6\264\311\275\341\327\347>q\274\334>\250\315\317\275X\025\323>\347\030\223<\254\252\327=\307<0\274\241\335\366=\272\t\020>/\206\016?\227\205\316\274jz\234=\226\243\216=]\277I\276\320-\333=+ \036=:\304#>\227\245\023:F\253\341=\204-\000;eq\215>\035\360\252<\334\330\025>\3366%\275\3676\260\275Y\200E>\242m~\275\303&\020\276\371\346\315<\336*\021\276\215\227\204=\251/c\273\374\235\227>@?\340\274of\315=\320\375\3219\021]r<-\363\364\275+67<\352\022\303\275\010\253[\275\266rx\276j\370\256\275\225\025$\276\027\313=\275\216\330V>\202S\334>\374\206H\275\312\323s\276\204\225\227=EF\364\275x\333g\275\241\016}\275-O\251\275J-\030\276\322\260\235>\352\307\230\275\025\335\025>\317y<>\020\375\350\276Pj\001\276\034&\240\275\340\247\325\273\257\0370=\202Q\033>h&^\274\270Y\262<\216\t$\276v\3361>H\354\210=\355\351\301\273\025S\212\275\003\032\027\275S\350:=<\302\304=I\007\312\275l\317\037=;\3055>\356@\302\275\330\300[=\262;\005=\200\353\037\276\357`\2569\372q(=\226\274\213>\211\205\242\274\033\334\202=\374\263\347\275\000\246\364;d(\206>\255\300\234<\235\250\254=~Xr=:\203\033\275\201@\275>\231\372\036\2744`\305\275Q\324\251\275 r\240=i\311\034\273\030\247\267<5KO>\215\tD\275\261\235\220=\001\003#\276n6y=\360(\252=\325gf\275\302\251;>\020\001\257=\306\374@>\337L\014\274\303\211(\274r?\300\274\222\272;\276\342\223S\275\006`1=\272\346\r\274\247\031\225=\3536E\275\356\253x\274\017\307x\274\276\272\262=\"\347\265\276\263\344d\274\275\207\223\274\004b\367=K\271\275=\3564e>\026\230\323\274\003y\212=\3354a\275\203\244\236\275eg\326\275\211\'\213\274\010\n\\\275\212\370\320\275\330K6=\233\320\267<\244\3136\276`]\227>\034\022\275;m\'\220>\276\030s\275Sg\364\2751M\362=1:\036\276\363G{=\377\025\226>#\347\351>v\307\332\275\227\353^>M\316\331\274\302\331Q>v\016\247<I\346\306\274\214tf\275@\200\014\274\n\344\330<M\027z>`\361\030\276\212\377\213\276\227\275\320\275z\277\010\276\014\217q>\\\330f\276\372\307\331>\202\323\236\275\0034p\276\361\3610=\0215O<Q\361J\274\303\017\230\275<\376\237=\355_\010\2759\305q>E\303\327\2759V\277>\330\257&\274}\271\037>\020\354\014=\323\311e\275\003\242\246\276\242|\256<<`\225=\203\252\245\2759\3231\275IC\r<\005\177\255\276 \261\352=\016g\242\273\277\240<>\324\2361=\020\302\254=\265\002Q\2743)\001>\264l\206=1\240\317=\202\tk\274=V\215<\227\341\226\275g\251\256<\212Sc<k\n\022>\326\343j\275\315G\255=\243\235\325\273\243+\261\274#\330\277=\324\274\245\275\364)\313\272\320\224\330;\365\010-\274\376\212\277\275\236y\r>\261\264\320\274\023\231\024\276=o\267;\341:\266\275l\352\272=\265\275\213=\366\254\331\276\306\327\224<\335\215\260\275\226\355n\275\031\r\231<\211\327L\274\027<;=\333\233\240=\323\352\013=\236\032\002\276\251\353\002>\304\335\360<L(\346=hsz<\224k\242=X\211\205=K\320\220=\316\203>\275\236\325\324\272(y\230\275\227\315p\275]*\231\2756\t\223<\374\023\223\275\357\255\306=\211=\013=\365?)>\212T\230\274\217Qk\274\254B\263=\027\022#\275%XL\276\024O:\276\256\266$\276\022\255+>\332>(\277\010\243\265\275sd\321\274@\030\210\277\245\270>=o-\005\276r\"\233=?\010\000=\203\nK\275\252\201\250\275.7\365\275\231E\235=p O<\262U\033\276W\344\021>y \306;k0\026\275\230ZX\275\033\314+\271\025\335\300\276\241\373\261\274\177\352\257\275\000s?\275\211\025%=\' ]>s\263P=%%#=\033\304\260=\313u$\276\323\225\037\275h\306C\275\213\004\321<\230@\255=\021\366\207>\363\253\'\276\254h\300\275\376\r\211>\241\367\034>\212EN=+\022l>\254{\266>\333\201(?\262\250x>\350\013\317>\343\265+>\363\317\300=\220\271)\275({\265>LZo?\350a\374\274\215\340e\273\332\003\316>\313r:\275\317Z\215>\035\360\201>\275\243\004\277\362C\016>\212Y\204=6\3633\277\021\220!\276I\223c=\353\242\370<[~S>\341=\201>\254\377\255<\207p\236\275K\224\r>=\3535=\303\010\244;ED\t=7\373\214>K\376a=0f\226=&J\007\276\313\"\270\275M\371\r\275h\324\326=Cu\327<T\246\215\274H\210\n>\212\3064<\014SW>\254\315\233\276\177\210\374\274\271\322\014\275\277n\032>\321\006O\275\255Vi\2754\\;>\036\006\225\274:N\217\275\347\321\204<\266\205\000>\311#\213=Z`\211\276g\276\274<J\003~\275\027\364\261\275|\235\256:\255\307\t\273[@#\275jA\332\276U\345J\276\212>\342=Y\032\253=\342\353:;\220\246x;\0279\312\274\3778B<\004\331\r\276\253*\021<\3205\223\275>\226\215=\001\350\313\275b\373\220\275K%v\276\275\351!\276\025\023n\275@I\t\277s7x\274n\331\236=>+9\275T\031Q\276\024 \210\272\254\215\'\276S)\346=\342\200\177\275F\314\355\273\tUU>Lf\302\276\333O\267=R\3241\276\234\036\334\276\032\207\016\274\265(E\276UeI\276\303\256h>\3632\026\275~\177\337=\314rK\273\253@\\\277$\230\340\274\231/\232\276\307\227\313>\317\214\261\276\351\273\031\27583)\275M\241\303\276\272\211\233=\031\347]\276{\337\251\274\372\215\343\276\'\300\244\275\007\260#\276<\210\357=\3630\027\275A\212\253\273\317\374\350\275-\357(\273\357\315X\276`vF>\277\2635<\177\276\217\276\037\363-\276\353`\021>\241\376\364>y\223Z>M0\356=\366\030N\276;\353\245<\026\210;>\212\016\200>v\237\341\275\341\266\235>f\021|\274\303\265\322>\001\336\304>\275\r\365>\216z\335=s\353\345>\331\1772<\035\0243?\304\360=>5g\200\274\354NQ>3m\363=g\313\253\274&\342\227=>(\013>\326\335\211>\034\221\224>\212q\251>o\177x\275\303\272\237\275\353\021\006>\277`\332\276z\026G\276\327\222\317\276\021J8\275\033\303\n?W\313\276>\236\255\001?\274\016\353=g\220\255=\243l\344= <\031>4f\004>F5@\276\343\300\022\276!\223\020\275:V^>\330\375\031\276\235\350q\275\372\330\254<8\340\375\275\014R\004\276\341>\005>_\252\250<x!\372=RL\r>\032\036(<\252g\202\275\016/+\277\261\033b>\236X\315=\276\340\234=\017\330\301=-\340\244=\303\006\203>\025\255\253\274\337\367\221\275.j\360\274\301\017\016\2767u\004>\223\332\212\276\322AM=\013\252\232\275F\036\367\275\026\373\035\277\354\213^\275\323\203\006\274\004\304;\276\017_\013\2766m\311;$\263\004\276\240\253\313\276,eN\276\360\217Z\276\305`;\276\"\320(=\234D\356\273\034\260\212<\371\016\340\276N\362\302\275\3704\244>4d)\2755B\226>\211\006B?mY\247\275\n\024z=\267\376\214\276\352!\245=\207I\353\274r\220\216=v\020\203\276\354\316*\2766\026\367\274j\376J=_\347\341\275\214)\215>\263\360\322>T\030\332<\023\251\276=\341\n\036>1\027;\276\250\241\023\275\'\217\273\273l\232s>\0328z>P\267\000\276\332V\333\275\350G\260\275\375\005\"\274#\025\267=\377r\276\275\270\215\010\275\022\347\202\274m\022\t>\002\260\010\276\264Z\303\2757\036\316=\340\213U\276\\\253]\276\343\217t\276\342FY\275\266k\370\2751\326A> s\215\275\343\021 \276\360\031\326\276\347\231\356<\264\226[\2755\310\236\276\370\252\275\275\264\222\255\276\344\257A\274\277$F>\345\344\025\274(\031\013>q\303\263\273\264-\016=\331\253\300\274\211\352->\372\362_=[\334\330\2752\264\252=\342\374\243\272\204?\005=\003\222\375\275)>\026\275\364gA\277\252SA>\345\374\032>IXM\276,\222\205\2761\270\'\276P\273\013>%\322\t\276h@\227\275-\365\266\276\244L\254\275\322=x>\215\323\343\2751\0240>5Kh<\'Z_=w#\271\274-\2126>\201+\201<\307\033\367\276\023\272a>Q\345\370\275I\302\354=\016/c=Q_C>\356U\346>\035\355H>\253O\347=\317kJ>\337r\252=\333s\344=\006e\024=\013T\342\275\r\356g>B\260\230\274.\200\331\275\031n\304=\263\251\n>\210\034\255\275\n\206n<\245\357\224=L\203s=\320\263W<`\330\205=\250\370\221>!\255\256>>k\203\276\352a\010<&^\341\275i\377L\275?0\365\274\377\"\307\275\375\203s=n\252\270<G\305\341=\034EF>\306;\021>0vS=\234\000\243;\253rt?\364o\027\276\333\242\013\274\342\203\323<\201\331<>Y;\t>\020\r\214\276V\203\006\276\260X5>\023\360\206\275\200\373\224\275\257\022\220>j\3530=zR\037\2768\370(\275.\3363\276oi<\276\232\317\355\276\215\020\033>\247\330\214>\302\266\217;\311\021)>Tv\210\275\326).\275\'\266\303\276_\'\222\275\022^*\276\000`\246=\027\272\250\276\372p\020\276\323\277\360\275\200\017\217=\010B\200\274po\307\275\313\323\372=8\326\216\274Ecp>\301\371s\2768O?>\000N\231=\263\331\010\275\304\252\355\274\201\2078\275\310\0023\276\\\354g\275M\311\002\275\234H\001\276m\366\375<u\302H\275\t\354\344<H]\236<X\345\253\276@~)>\327\244\260=G\356\266=YF\356=I\266R>\256\322\252<\\I\305\275\376\264\222\275\\n\354<\335,\235\275\244\236\347\2758\007d\275l\003\341=,\217\024>t=X\275\013\0144\274\331\003\227\274\367\346\n>7\310\261\276\0175m<+\276P>}B\226\274\245\356\250<\221\203E\275\017\264h=\334%\203\275E]#>\215o\225>Bm\010>\3537\264\275h\371\023>\263;\210\275\343\373\307=\223\203\243;\226\366w\275x\236\036\276O\310p\274\346\337\241\274Jv\321=]\177\">\375\271==\200T\241<C\204}=\030\316^=\317\032\025\276\221lf\274\350@*=@m\233=\031GF<\037\352\337\275\010F\017\275\214\3459\274\314\226\003>\257B\261\275x\013Y=,\014\274<\346\005\206\274\357\021^\274\360\202\">H49\274\202c\353=0r\340\274\264!Z\275\250\365v\274@1s\274M\307f\275\316\225<=\323\375,\275,\352S=\274\354y<\337\300\207\275\217y\006\273} \341\274\324{\325\274frZ>\330r\211\274E\324x\275}W1=\224\256-\274j\2713=X\'\273=x\254\265\274\020\0176>\342E\344;\331e\017\276\023Bw<\251\252:<\037V\200=\255\224\207:p*-\274\237\224\245\275\220\010\221\274\\\314\000=ef*>\333{A\275c\377\002=\333;\235<\027\326\031:\"\026d=\245\264\225\275\323{\270\275\002\022\205\275\022lw\274;V\226=|\017\321\275\346 \035=\243]\224\275\274u\374\274\355t\304\275\355~\237\274\036\264\333=\352\370a\276\232p@<\322\300,\276,\025\243\275>Y\030\276\013\277\211\274\346\207\310\273&\267\001\275\034\3158\275\337\254\260\275\004\315u=&\204/\2766Q\220\275(;j>U\"\026\275FT\260\275\rQ\225\275\313{\013\276\361\006\260\275\356B\245\275\007\256\310\275\303\331\010\276t\206\006\274\242K6=\245)\023\276\271\367G\276\034\035&\275G\206\205\275\230\004\024?\010\001\001>\255\210d>\252z0\276\324cL\276\324)\344<\213@N\274\021\340/\274i\365:=\257@\263=\251\352\253=\211\014\237=U\021f\275\035\225\263\275sC\"\274\007h\020\275T\205\023\276\362\357\013\275v\030\021>\225\346\026=\230T\375\274\207\004q\275\261\313\217\275\000\237\022>C\357$=\234\023\235=q\266\302=\r\254\214\275\272fY>\310\254\271\2744T\217=\246\235\267;4\307\212\275^rM>!\301C\276\n\023\025=\357\315O\275\003n,<\321\234\350\273\322\270\337\275h]k\275M\374\223<\320\350~\274\222\351\'\276\323gr<\236\266\220\275\261\032\351;\373Ci\275Q\344\266=\265]<=@\310?\275t9\221\275\377\361\331\272\201\233\212;x`X\275:O\036\275\253\226\001=\263\351\261\274\330\r2=\214S\376\274\344\027c\275\306n@=\300\326\263=\243\321O\275\250\212\271<\036\343\'\274\n\027\331\275^\003\375\274\264N\023=\204\212\227\275[S\304\275\306j\347<\333\337\357\274\232\030d<hQQ\274\002\223j\274\276\300\000>Rd\262\275)\361\251\274\261A\315<\343\264a\273\313\367\356<T\241\004?!\225\265\275J\223\261<\010\330\364\275\223\242`\275;\013\204=\355\345\034\275\345\240\274=4\263$<\374L\336<\250\026-=\310q\341=\364Y\250\275\267$\330\275;\270\336=\026\027\275=\237j\301=Rt\334\275\262\0234\276\370B\365=O{\007\275\267\016\212=\\\306\024\275<|\251<\016\375F\276\025\251\001\276j\347\344=)\026T>\333\243\207>\036 N\275\255\333\234\275\332K\007=\374\315C\273\032I\\\274\355\301 \275\227\302\010\276\020\270\020\275M\201A\276\320\240:=\242\361\"\276\033\346\022\276-\231\255\275\310\377\316=&\251S\276\217\036\'\276.9\022=\304}\213\275Sz\n>\t\017-=v;Y\275\177\177U<\356B\301\275\221\311\303=\264g\245\275\261B\240\275Mm\204\274h\275U\274\235V\r=\002\341\370\275T\267!>N\036\205\276\370q!>\217\227%>\253\004\242\275V\220\">\017i#\276\256\232\351=\334/\206>\345\321\242=h\316\306\275t9\256=@g\346=S\371\034\276+d\251\275\237ng\276\214\367%=\370c\236;\343\223\234=\205\215\026>\315\203\036<f\010\212<D\317\340\275\033\200;\276\375@5>$\307\032\275D}\275<\311\344\023=\363m\034;\035nz<\361\201\275\274a\273*:\324%\033=\271\266\003\276\312\346\"<\255Z\361:\010\356\237<w-\251\275\204\362\263=\316]\220\274\221Rr=\000\212m\276\013\231\331=\261\255\243\275&\204\\\275\325\003\213\277\031\302K\276\232\016\304=\327\357\357=a\270\006\275b\351\033\276\r\2427=\027v\212=\026W\242\276iH\025=\016\030\177\2756s\321\274\360\346\371=\014z\336\275z\267b\275\332\240\202\275l\344B>\373/\274<B$\350=\273\254k=w\327\376=9&\211\276\202c\020=\346\203t\275I\364k=\357(\207\275\326Q<\276\004\206+\276\330\314\026\276\326\373\212\275\005\355L>\031\'!\276\234M\006\276\330\304\326<7\214.\273\013\372\254\2757\0018=@5\207=\324\232\300=\366\211\314\275\374\205\244\275\013\222\343=\207\373\216\274Yu\244\275(\341\270>\272\334\001\276\363\r\360\275A-\205>\221\244\342>\3411\262>\204\325\245=\301\224\265=d\304\303;\220m\010>jk\r>?\355\245>\334m\366\275:^]>\0039\220>4y\201>\314\350\010?\003%J\275\260\224\000<0\325\372<\321\"\017>\351\315\311\274\210S\r>\025\036<>\260C\323\275\373*U=\325\307D>t%\372=\022\224\310\275i\260\312<\376\360\260\275}\327\372=B\376N\276%*\003>\243\202!>\357\246\366=\031\262\204\276\024\227\334\275U\205B>/?\341<\017\327\242\2755\325\355\274\330\027/\276Y\261\'=|!\030\276\233T\024=\267\370\335\274P\315\204\276\274v\204\276\325i\010>\\\272\'>\257|\031\276N\307Q\276\000\023\013\276\216@\342\2745\000\262>w\245\n>n\323.\276\253\036\330=y\2735=\222\303<=\352.\275>\202\264\336\276?cV\2752g?\275*\3239>\236:\223=\326\214\317\274S\2125\275\300y\"\277\207\217\035\275\376\3762\276\254\256c\276\312\035x=K/\007\274\226\320\020\276)\353\222\274bm\027>j\363\367\275\031\003\245\275T\273\355;]7\215\275n\3226>Gn\223\274\n\306\234\275T\326\\>\014\261\201<L\200\236\275\221>.\274k\273\365\275\321\337\247\276\225\001w>}\374\254\274\201\326\021>a\344\200\275\2142\003=\251\245\327<\\\020\326>\340\003(>\r\024\026\275\247\214\001\276{{\022\275\370\332\210\276\3608\332=\375\205Q=\240_\363=(z\024>Z\r\027=:\317\027?Tu\r>\363k3\275%\220\373\275\267\032\r\275)\373\035>f\272\016\276\356\243\250>yh\217=8\337\t;M%\002\276\323\375\021>\211Q\240\273\325\005@\275d\217\266\275ST\237\272A/1\275\025E\032\2760\352;\275wA\365\275\241\033|\275$$\311<%\177\221=\347-\373=\270\307\341\275\346\350C\275\360\2357\276*\237\262\274\355\2668>\320M\242>\322F\235\275\242\320\274=\333\231\254\275\233\213\226=\245J\005?[\305\003\277c\230\217=\300\0145\2748w\033\275\"0\241\275\372S\356<\270\263\234>\302\026\206>\027\261\372=\"\336(>-z->\210q\023>\233\037\013\275\027Q\364\275\2037\344\276\261\373\242<\211\025\267>\233]\225=\263\374\341=Yc\215\275\266\034\220>t<b=\262d\261>x\037\021\276\335\211p=\204\002\001?\250\324|=\216\360#?\021f\001>\201Uz\274\200\366\302\276#,\275\275\352\336\357\275?\326`>UW\303;\341B\017\276\325\200\245<=\324@>\257\030U\276%X\010?\255\320T>\360\246\034\276\275\037\n=\370\243\311\275\345\3375=\'\016\262\275\310\021\013>^\323\026>\221K\004\276\213s\370\273d\t\004\273\337B\340<\310\235\177>>\216@>\234\254I\274\277G\223\275\305\337\n\275>\353y<\313\211`\276\244_\206<\246\340\201>\212\t\266\275:\333\265<\0072\200=\356S%=\014\032C=\263\377*\274\nJ\273=\222\225\237\275\001T\021>)(i<\333\302\340>\365Gq=/x\266>\032\237\271\273\272u\200=y\265S\275W\2150>\371\330\017>i0\212>\177\211\017\274\327\333\307=\205\307y\276V\365\301\274\331\017\315:\3401\272\275\336\255*=\326e\342\275\267\337B=\370\363\256\273,H\240\275\331TY\274\037\224\226=W\341 \276\327\305\t>\255\347\316\274\236\177\253\275\236O\264=\203\223\371\274\334:\021\275\256\314\033<3\277x\274>\202\200<K!\300\276s\274\200\275\016C\252=\314x\261\274?5q=\0260\036\275Y\237;>\236\373k>0\034\221\275\025\331=\276\261\n\213=\353\362\251\275+\370\r\274_\232\354\275\3274\336\274m\034S=\200$\367\275\036\007\275\275\330x\004\2775\227\331=}\336\333=2,V\276\270\212F;\254!\001\275\006\264\370\275\2525\204>.\030\214=V(\330\275\371\211\300\275\232^\006\276\350\005\t\276\037(\215\276\220\236e\276f\233O\276F\245\311\276\307-\033>\264j\255\277\034\325\352<d\371\250<e5d>d\203\327<\304\347\010\276\344\316\232=%A\341\275\211ya>\007J\375\2740I\344<\036t\202<\273>\223\2760\253\005\275\31419>\375\037v>mU\324\275L\276\356=\375\252\312>\367\2256>Q\025\216\275\0057\037\275g\004\303\276\345\344\205=\305\257*\276:\306\305\27511r;\207\214\020=\356\312^\276\034T\037>o\203\245<\212R\260>\302\3251=\204\326\354=\227\204\215\275\253L\360=\255\246F\276\036\243\033>\354K\353=\245\022\320\274\3015\024\274!#\262\273\305X\225=M\323F<\312\2258\2758\302,\275\326^x\274\256\223k\274\323\314\313=\273 \215=\210\251\316<\025\365\376\275\032\321\002\274Jes\276\376\357\370\274\306\365\265\275\030\256\035>C\354\022>\222\2326\276\330\224K\276\370\303\214>0\023\245<&\300\310<2\236\246\275\310\252\022\275\262\311%=\0278\241\276n+\311;\257A\275=\017}\344\275\"[l>I\324\201>\352g\261\275\341\252g>x\006O>\004\226\240=c@\225>%7g\276\367/\203>\364\010\300>\364\210\243>c\233\310=\261\277\330\275jI\003>g\377\342>\034*=>\330\244L>\3117\307>\346\226\226\275\230\016\032=\024r<>p.\330=\016\340\312\274\250\324\311>\0220\236\274py\021?\255\211\357>\202\001\240\275z\353\333=\313Oz\275\221\322\267>\367\252\007?l^(>9\213u>\032\272\331\275\363\021m\2767\277\215>\014\373\301=\320ve=/%\312\2740\257\302<\311\324\243\275\2107\030>\330\004)>\336o\247>\364\375\321=g\355h=\337l\261=&R\026\275\000\254\366=)C\355\276\273X\271\274{\377,=c\010\033\276`\207\352=\357%A=\212$\210=\317/\242=Y&\351\275\203\320\033>Y]M>\257\276\225\275\005\007\234\276\020\263\356>TZ\351<pDu\275X\201\033\274;\304\313>I[\306=^#W=&8\202=+\2434\276\026\352n\274\300\367\312=$A\302>a\036\210>\206$e>\004B+>\301\355\002=\366\234_> \255E\275\304\036\224=\206^\245\275\344\376\233=\333\024\222=u\212\240=t\013\014>\000\372^<\326\204\200=\177\240\245=\353\267\245\274\225\331=\276\312\035\305=\347\266$\275\244\324\241>\231\346\254<T\273\236\273J\331\003\275\240\270\037\275u\010@=!Y6>W\343\r\274\024\341\177\275Yf\001\276\017=\250\275U!\306=)Vm>n\3757=u*\030\275\303\240C\275gY\310>\374\342S=*\322v=\256\304\220\275_\013\212\275\225T\316\2751\270\223>.9\200=\322\024\030=\366/\324<@\313\210=\'\356\236\275\317\315\364<\227\346\034=L\311/>\236\335\354\275\304]\020\274\340\241\276\275\207^\276\275\220]\003\275\355\221\030>\006M\366\275$0R\275u\347B\274\330L\033=9\316\025\276\030\225\013\275\223N\252\276\017\024\234\2754 ;=8x\315\275s\337\316<4\217\321<2\244\271=?\033\002\275\241~\276;\304\t\016\274\023\331\303\275:1\211\275\323\027e<\302\n\027=\0023\364\275\212R\202=x\357 \276M\341!>\200\\\232=Zl\305<\301\277s=yy&\275B\032X=\242wB\275\021\330 \275V\021\306\275\240l\363\274}+\037\275\275q\030>\363\300 =\024\306\365\275\342\003\216>.\327\377=B\362B=\315S[=^H\264<~\356!\273\327\030\202\276\331\202\270=\302\017\335=E\033?=pO\212>`_\230=\353\221\032>\332\226\203=\262\300\023>\212\035\243\275&\326I>\t\330\"=\232\244\252\275\000\224\254>\234Q\002\276\021\270\245\275\036\322\014<\363\001\215\273\367\205\224>y\334\3669\225y\021>\254\331\211>\250d\232=\273\265\333=\017\237\210=i\200u\275\342\246\254\275Uk\250>\311,\014\276\\\223\305\275X\310\035\274\312wt<\277\254\027<\013fL\275^6\001\276\211\337\245\275\236mz\275\376\257r>\023\000d=\246\255\232\274\016;\307=p\320\337\276S\214!>\215\337\032>]\271[\275s\314`>\223N\364=k\024Q\276\002\376\366\274X\237^\274\373{\246\275\037\247\347\275\260:9<\264\200\'=b\370$\275\355\317\320=6\020\001\276b\374h=\245A\301\276\365J[\275\255\376\035=8\361-\275>\214\030>A\221\024\276@\232{>1^y\275\315\037\214\275Pp;\274\ns\236\273\374>a\275\0060\002\274y\3036\275jU\220<#\006\010\276\r\021 <O\357\274=\317/l>\276[\035\277i\002\315\274\340\230\273=\342A\260\275(\236\336=\244\331\377\274S\350\304\275\212\226]=\014\363\007>\262\002\263\275X\244\204;\214\316\243=\316\323\r=\262%\366\274\252E\211\275%*\213<\301\177\207>\241\263`\275\211\'\201=\327F\205<\352\357\000<\333X5\2750%4\275\217V\017>\341\033\367\274z\217g\276B\377a\276\347\207g\275\035I\n\276\205j\003>\243\027\361\275\232\200\020>\013\016\213=]h\243\275j3\230=\350~L\274\2025\302\275\236E\267\275\234\272\326>O\373\240\275l\022W=\236\340s\276\340\377\250>U\347G\276\004\362\022\275W8h>\231J\n\275_\340\344=\264\2302;\216R\335<\304xE=E\025\246=\2646]=\177i\r>\0355b\275\254&*>n\243\275=\332\324\332=\210I)\2743\324\233>\267S\345<\023\242\254\275\321/\007;\361)r=#\226\362=\350\360\243>\257dz>\026\271u=\326\205\226=UH\r>\206\351N>\367\037\265\275\036H\301>\301\334\023>\347\023z>I\3705>\241\010\206>\300\260\364\276\271\000L\275\004~\253\276(tu>\271K\\\275\273\326\224\275\tw\013=N\034\226=\273\317\222>r0~\275\316\326\025>\245i\265=4,\305=xL,\276\341\227T>ob\267=R\312\272\276\204%\354\275\'\000l;0%\274\275t\203g=>$9\277K\024y\275\361\005\217\275;q\353\275#\226\363<\025_j\275\022Q\315\274m\321\215>7\230\230\275\2704\"\276\271-\013=Wx\205\275\221\010\004\276\310fn<\034Q:>\260\315\251\274\002\262y\274q\256\267\275\036\314\341=\332-+;u}V=Y\357\365=g`\370\275\342\334\314\274\\\027j;\2013\266>W\357\207\275\324\320\244\276\2236*>\374[\345=\252\317\324\275\315Rg\276\253\220\r\277\241b\336\275\006:@>\327I\331<\037\336\013>Ex6\2756\253\346\275T\347\246\275y\\\004>\351)\327\275\303\376\274=\343A<\273s\200\030\275\332\270\310\274\331G\267=\254\370#\275\270\316\026<\243\344D>\201\327\235\275\213\342\206=\236$\207=\356I\227\275\005\211\222>\007\326\213\275\373\217\017\276]\356`>\242\005\224<\341\350\351;\276\'\352\274\211B\244<\260\206%\276n\312w\274\013\263\204\276\006\215#>+d\320\2720\374W\275\272mT\276\203\036\341\275#|\214\275I\244\030\276\321\rD\275@\247\031\275m\275\263\276\225\237\022>\224k\007\277mOf\276\370\r\035>\301\312C\275t\237\342=\265\237\007\275\000\315\037\277\001h&\277\306\271.=\206\367(\272s\003\035\276\330c\272<\265\364Z\276R\3552\275\361{|>C\370\376\274\316\252+=\001\n[\276\341^N>\373\031\335=\342J\314\275w\200L\275\202\022\217\275\023\273P\275\213\346\305\275\006\2430>\233\020\263=\010\253\361\274\2503\235\275\255A\306=\322f\232\274\363xR>\374\264\346=\025h\335<6\3076\276\253.\325=\362\247\014=\033O\223\275\366!\313>\261\363f\276\207Yz>\260y\177\277|r\200<@U\267=\nx9>r\366U\277\234\037\202\275\312n\262>\323a\302\275\344\\\360\273\224\327\262\275\312sY\276\023\361\225\276\201]\302\276\202\333\222\275\351\224\266=\263\363\200\274u\031\257\274\033f,>\312\252X<nJ\353\275T\270(\2772\225K>g\271Z>\240\273*<\322\253\005\275\365\313\370\2759\216\313\275\353\343Q\275\024v\231=2\\\232\275\246\277\244\275X\204@<\277\315:\276\310\362\006>B\250\236\276\233\364\316>\265\362A\277\332\376\000\276\340[\220;\243~\236<9\377\227=GS\265\274\214F\210\276\021^\320=\312\233k\275\202\353!>p\254|\276\334T\034\277\332h\267=n\322\013\276\037-\224\277\333\234\020=\360\252W>\316\326f>\205\346\005\276\361\203\265=\300\332\344=\260\316\003>\274M\353\276\007y\247=\201\351\025\276\356PV\276b\373\350\275\313\006\306\276H\203\374=\216o\025>\031=\335\275\357\265\235\274A\275\216\275\335h\330\276\0000\2077\326\016q\277\004\323\210\276\322m\200\276m\262A=\276\214?=\375\343\352\276\"a\325\275c\023\373\275\032\301n\275\376-\330\275k\204\025>\026\212\331\277\036\373<\277j6\031>\373\243\221\276\334\317W>,\355\263;\310\233\"\274\253\270\340\274\304|\311\275YM\202\275\314\212\256<\022\221\202\276h\374B>\273\274\253\276\375\0254\276\315P3\276SR\204\274VHO\276\366\231\225>\272\315\350\275\t\337\233\275G\356\312=\343\035\227;+\343\270<\372Q\202\275?\276\223>#\304\264=\331,\205\277E\006\352=\034q\353\274A4Q\276\373\236\333\276\014\ns\274\230\025\231<\272\212\020>l\322\\;\322\232\240\275\020\310\256\276J7-\277\005\354\236=yt\317\276\362\321\202>?.\035\276\256x\225\275\254\'i\274\003\357\300\275\364\256\213=\215\345T\276y\010\036>\314\341\210\275\275\007\027>\224\375\000\275\272\310\022>}\260\224=\033\0338\276\034H\213>\204\263d\275\030W\261=hZ\'>\247r\341\2753\017\245=\340C[\275\375\3440>x\205\270\274P \237\276Y\274\272\275\224\035q=\374\363\003\275B^\206=\'D{=\343^\347\275j>\224=\022J\034\275\027\374\010>\366\260\227\276\307s\321<\215\273\335\274^\346T>c<<\276?\333\"=\260\215\262>\370\355\212\275j\343&\275\373\2408>*v\265\275\r3\215\275\375A2\276\265\312,<m\234o>\252\261\340\275h\304\344<\352=;=H\374\\\276\023\024\027\276\267\035u\272/9\255\275V\333\361\273\350\017\254:v\357a\275\207\263\210\273-\016\005=S\316\001\276\373\330u\275\376\031\214=\304\"\017=\307Y\013<\225Q\230\275x:\271\275\255\344\240\2750[\235<\322V\017\275\025\365\007\276\347x\312\275\343\037\376\275\301\026N\276\306\301?<\212\326\005\275\321h\t\276\030\014Z=\271\257\361\275M\313A\275\t\274\035>.E\237;<w\237\275\245NR\274\036>J=\010\334K=\220\314Q<-\227)>q\016\227>\373mM=ra\354<f\316\361<\354\025!=\2124\001=\034r4>w\\\332\275\226|\177=Cc\013\276\200\361M=\246>\224>\017\016U\274\257\336]>\301\365b\273\2006w>8N8\276djD=\361\\\344\275\340\001\013\275(c\000\276\231m\237=\002\370b\276\267\017=\274W\272\204\275\035Ws\275\322!\306\275\213\023\342=z\326\020\276\r\362\234\276\215{\226=\221\263\301>\257\325\222;cpf\274\350<\r>\320c\303<l\235\225\276\317\024\303>O\014$=gY\207=\362\226\372<\374\003\345\275&\316\334>N\371j=\360[(\276\021\311\035>\032V\371;\206\277\244\274Ev#<Dx[\274\314\006\230\276\324\270\266\276}\'\224\276\344\343\r=\023\244T\276\362\324\030=n\254\003\275\030\244Q?\3313`\275&\325b=#w\217\275\021:\034\276\031\356\330\275V\263\030=\031\317>>8\t\246\274\334`\350\274Q\001\222>\217&\237=&\235\266=%\256\343\275\374\356&\276\022\036\036\276\006\237\221\275\000\312\304\274\255^\262\275\213:\006\275\262~L\276\347\253]\275\017\313\301\274RZG\275\202\370>=E]\001=l\r\003\275\211\007\340=\232#\022>\352v\025=\324\360\030=\225g\325\275@B\217>\327\356H\276.mu<\253x\255=5\341R:\030m\010\276\024\273\006\274\206s/\2754UZ\275\237\212\r>\036_#>\201\351\203\275AK\376<\264\373\r\2777\201/>\244\234\241\274\260\252c\276O\004\344;\t\266\200\275\235\252\274=\277\030D\276\324\273\236=\274\025(\276\352\254\034\276\201\261s\276\366\371\235=Cm\203\276D\245\032>\366\237/\276\240\017\243=~\037\222=\266\275\'=p\331\025=C\311\223\275<\205\261\275Dl\245=\274\314\277=\327\2716>e\031\271=v\255\217=\016\215\234=\353\371\000\276W\212\365<\235Lm>X8\370\275\010w\215\2756J\327=\245\217\350\275L\302\201>\324j\017\276\314@\262\275\211\r =\242\227\002\276fF\023>\220[\354\274\321\204r\275)t\207>l\251\214>[\220\313<T\324\377<\224\032\001\276i\332\032\275\207\\\246\275\336kb>Ss\257<\316rh<\274_\301<q\250\005>q \354=Hn\276=o\317\211\275\024\252\247\273\374\332\n>V\224\272\276\323\021\263\276\230\\$<|\272v\276\374\303\026\275\215\315x\275\373Z\214>\237\324\177\275\361\211\365\274\364\001\314\275V\225S\275\221\203:>\340\246\'</l\357\275\243{\237>\325\300 \275\333\233P\276\215\0375<\273\356v\275=\352,=w*\211=,\377n;\220u\036>\030\350\203=\364\317\270<\222\201\001\276 l\334\274\262d\207=U\'\016>\370\004\333<\245\\\343<\316\364\216\274\305\016\006\275\031Z\304\274\3527\254>\260\002}\275\3232\250<ASN>\3253\360;\361\254\024;~\256\037\275f\357\210\275B%\334=8\275\036<\211Pf>LX\016=\3013\302<xd\375=\214\314\220=\310\353n\276\344\2535>d\240)\275\321\301\350=Sh\375=m\255\352\274\316\027\000>8\316Z=\267\251\274=/\026.\276\242u|>Q\265\253>\223m\252\275\331\232^\274\037\315q=\277\t\014>}\354\314\275\376\342\361<6&Y=f\371\335\275c\221v>1l\240>^1\035\276\037\332\213=\240\2503=Rb\310>?\377X\275\315\245\324<{2[\275L\032\367=\t|4>\265{;>\035\316D=^\330\026\274\256\243\223=S\301\021>\326f;\276&\246j\275wM\212\276\360v\030>(\251\333=\035\004\013=\200=(>\365\361T\275\332e\3409\240&\257\275\214\302\371<>-\210>V\304\317=\202\037v\276Na\314\276w\036y\276\311\337\027>\242\374\222=\006\322\222\274/l\005\277\233_\352\276L\243\244\275\342N\261=(\371E\275,\364\021\275\226\264\342\276\273\026\250\276l\356\336=\303\3033\274\202\325\333<\336\223Q\277\026*Z<\375\235\017\276Y\034\013>\337\304D\275\325\202T\276\360\001\303=\033\345\207=g\234q\275i|E>\017I\n<Fy\335<\002\302\247=\213\3564\275\351\322\023\276\237E$>\263\245\350>\350\315U<a\373\374\274\220R\272\275\241w\002;\3261\204=\236\020\251\274\035=\246\275\240\377\010>\303\232\334<\326\275\203\275\372,]\276=\004K>N\344\304\275F\213=\276\221C\231\276\243\025\r>@\264G\2764n\342<\326q\027\276_f\035??\023\347\275\216\035\231>\260\270\351\275\214\352[\2753&/>\024N\005=\304\330\027?{\"j=\337\346\213=S4\305=\022:h=\010\211\343=\334;\007>\214\375f\275\273s\036\274\203E\333=&\241\252>\030\212\010>%\340\326<\257\021\t>\021\230\243>\350\261\210>4\235\261>\231Z\237>\231\005\023\275J\204\350>\313k\002>w\010\372<\036\343\271\273[\372\231>\325?<\2741M\213=/\330\304\275a\021W\276\353\313{=\000\305\177=7y}>\223Fm>~\260h;M*+\276\217\036\236>\336\307\232\276z\2313\276\356\210p\276sD2\276\315-\206\275A:s\273\301^\024\276A\315\335\276M\324\r?\n\350\230>\214\276,>\320_p\275e\2647\274\332i!>\223\301\301;\302\344j\276\021\244g\275lu]\274\325\344w\276\220\222\242\272\247\272\016<\374\276\242\275\021|\007>\315,\304=e;\024\276\303\232|\276\024\304\010>\330\304g\276*\352\234\275\325aY\277a\341\204\276\261\007V=\\\254\207\276\024\242\345\274]\256\246\275\257\2426\276\014]\223\276\037\243J\275\210\342[\276\254\301g\274\250h\n\276\356J\314\276\000\330\343>Z\263\204>\016\243$=\354\322\222\276\246=L\276\001\323\t\2768\322\035\276\360V\377\275\204\354{\273k\377U>\01373\276\311}M\276L\324.>\241\223\302\276id\277\275\363YL=\311\023\327\275\204\200t>\221!\376<\247\020 \275YW\022=\241\255C\276\347\221.>\006\242\376\275t\362\212>\355\353\000<i\203\014>\366O\014=m;\355\274F\023\350\275\310>\034\275\304\365\227=0\200\351=mBZ\274\017sX>\235TW>\005\233\004>C\310\000=\312\367`\274\235v\240\275\241\357\316\274\233\223\314\275\016\371*>z\027\217\275)#W>\236\226r=Jn\216=cY\306\274\270\364\333=o\356[=\240\014->i5b\275\035;Q\275\376\332\227<\371\025{\274\252\237\252<vN\371=\243)\270=G.\225;\330\331\243\274\023\022\213>Qh\222<D\303\237=-6\206\2755/F\275x>\"\275\376)3\2766\234x=\247\004\240=(]%\276\260\232,=\274\200\036>z\301\007>\331r\021\274\323Vu>\221\237_;%2\353<,_\014\276\257\024\022=\301k\"=\022W\321=m\367\002\276[)\313\275=W\275\274\315\336\331<\033O\303\274_\334\375;`\005S\276\325+\355\275\"Q\307=h\250\311=\002\216#>\276;j>\303\032\030\2764j\030\276\226\200\"\275\206\312\207\275\240NW\276YU\">\2511Q=lQ\356=\214\345%<\033\034\313\275\360\226<\275\362Q->f\337\022\275\341\250\273=\327\315i\275cW\303=\373d\025>\215\215\201>Y]\320\275\211\027\177=\370w\\\276\007\251\261>\335r\367>V\304 =\336\330H=4\307\312>\005\033\\>\300A\024\274\013\020\021\274\207c\312\275\367\257\321=\202\375\246\276\270,\253>\201\367\342>\002\030A\276%H\025?(\031\205\275\220\004\002?\227\240\"\276#\250\225=\364\311\277> \215\220>?zV>7\272J>\005\374\026\276v\276(\275D\250\264\275@2\206\275\204\365\334\275\332\0017>9\211Y\275\270Jw=\203\371%>\260uX>\350\026\025>e\302@\274\327\202\225\275\263\216\354\2733\321Z>u\310\005?\r\017\247=#=\235=\0224\321=\\\357^\275q\371\200>\200\224$>\023\345\225=Z\336\031\275\244\274p>7\207a=t7\010=\276v\274=<\305M>\324\332U\275\254\217H>\220vu\274\371\340\225=\324*\334\275\343 9\275\006y\215>\273\317\342=\254o\330\274\235\310d\275y\177\033=C\255}=x\330\240\275\255g\264\275\323\255\'\274\2374\235=Y9;\275\353\036\220\274\370\336\375=\210A\243\275\241\242\262=\213\240\031\275is\013>\000\242N\274\221\310\225=\342\346\315\275\253\010\215\275\304\005\315\275s\304\311=pKp\275\275\223\233=Ds\301=\336<T\275<6L=\252\341\303>\233\036\266\276\263b\337\275{F\231=\324\211\367\275P\031\317=\216\324#\275\014\252\374\274Q>(=\221;\003\274qo\275<)\327\224=\236*\360;\003\264h\274:\026\020\276\233\036\233=\207\263\245\275\363\315d>B\243\233>\255\252\257=\304\354f=\177\014\204<0\201\333\274oL\365=\251\250\252\275\305\027\005\274t*\214<tq8\275kmg\276\212:\212\276\"\004\263\275%\223\202\275\237\350J=&\345-=J\352y\275~\200p\275\026\244\257:h}}=\262\003\341=!\364\351>m\267\240\275\220\0005\274zF\021<\341r\243>\335au\276o \370<\037\216\361>\302r\243>t^\022>%\022\017:\303[_\275\211-\002>o\343\325>-\227\307\275\367\327e=\243\340,>\213\243\262=izG?\256\225Q<F\356\346=\257/\364>\206\010\276>\252.I>\303\337(=B\272a=%\020\243=.\321\301=3\002 \276\t$\324<\221\020\026?O\222D>W8\002>\334\330\003>\276;\013=\356\304\006<\342\307\265\276s\320\003\276\364\255\365=m\221O>\250\265\345=\372a\207>\351\366_\276\031W\023\276S\017\206=\303\"\363\274&\216\330=\333\030\201\276\rOt\275\t\\\177\275\333\335\016\275CE\026>|bc\274nUE\276\315[2=\370\340:>56Y=\362\003C\275\214g\221\274\226\222\250=\333u\311>\276**=\314b\200\275\225`W;\3406\273\275Y\020\275=\020\026o\276[\307\226\276\216\016\264<2\212\024\276\224\005\233=\264\272\302=\231\017g\276[!\367<C\210\342\275\213+L\275\244\206?=\032\375\205\273\236\003\r\275\202\021\275<~x\002=\267\273q=}\261\212\275\207&r\275\243\257\206\2751\334\351\276q\240\025\275\272\221A>\206\376%\276\255F\036\275\363\204\360=\227;\033>bK\203>\266\237\010\275:t\235\273\2576\300\276\243-\027={\322n\275\224\272\344\276\361\376\254\275\237\241,\276)\000\013\276\205\300/=1\343\276\274uO\226\275\"6`\275F\276\276\274\216CJ\2752\026c\276;\037N=\207\325\300\275\350\245\267\275\001dc\276\305\033\336\275H\003A\276\321T\212=\232~\271<\236\027\235<\361\017g\275\261\367\031\276\331q\214\2758\251\344\275;\370\352=\261\216\002>\364CT>\201\234a=Qp4\276p^\242\276b\002\303\2759(\217=\326<9=\037}\021\27542\006=L\001\327\275\237\364\262\2769\355`>\210L5>+\215\343<\304q\221>\250\223\234<\372e\r=[om=\310\246\024\275H\245\331\275Q\231*<#;\237\273|\361\n\2766\001\002=\265\330\232>g\307\314\274\3425\205\276\205\211\256\276\346\316\352=\327\225\004\300\210\206c>\377\036\036>\360\204\200=\237\235\t\275=e\r>\337\267\023\275\314\352)=bt\220\275\013\320>=I,Y\275\033:\361=\365V\202\276O_\014\275\207\204\036\275\356\250/\276\324\217\355\275\370*Q<\3419\362\275\034z\330=\326K\273\274\327\375-\276\350\267\204>b\206(=ze\036?a\204\256\275&\226\326=\224h8=\306P\001?\371\016\227=\270TU\275\303q\220\274W\244\006=\007\333\207>u\314\t>\264\325:=\002\306\234=\265\372\220\274I\223I\276NU\035=\360\252\322\275e;%\276\201\351\014=\346\314\305\275S\r\272>\260\275\365\275~N)\276\033\321\225=\323:\335<S@\230\274\232\350\247=%\310^\275p\370\243=6\024\367<\375\"\344=\234\334\210=O\016*\273\362\370\366\275\221b\"\275\032m\002\276\301M\233>_\342\'=\327~\314\275\322\234\037\2754\341N=J\235\246<\035\322T>2e}=%3\r>\033\232\006>\340d\002=\205~\237>\3267\272<\311\270\007>\302Y\251>\220\376N<\312(P\275\000\004a\275\200Cv>Z;\017>\344n\321\274H\350-\274\253\267\367\274\211X6<<!\236<U\242\013>s\254E\276\004O\006\276\r\305\264=DL\375\274VH\003\276\271\210G<\'\226\333\275tP0>\030\226\014\275\315\242\'>\257\365\372=V\313\207>\n\302\303\274\2459\033=\222y!>\240\376M\275\303\315\036=4V\002=\031\363!=q\235\376=W\225\347=\r\032k>]lo<}\220\261=<\003\227\276\272\216\254\274\212\320\036=\032J\221\276\006l\355=\362q\344=9\2466<\272\027O=o%\323\275\036\245\225=S\305w\276c`B=\037b\036\274#\035\310\275\355b}\276\325(\372<A`O>yj\t>\316\333\017\275\'\2305\276\017\033}\275;?D\276\016\\\212\272\312\352\231>\234\217\n<\2118\322\273\215|\034=7\212y>\206k\203=H\304+=*\035\265=\267\037\010\276oz\210\276\306\231\236\274W\0360\274M\263\310<\332\330\363=fVQ\276+\036\323<\254\225\337=W\007\t<\021\212\217\274\234\004\321\275o\032\001>\3222\020>\364<q>\233=\277>\237\360\376\275\243w\371;\261\267\274\275/\tJ<\213T\'\275\253\230\207;\037\223\233\275\341\342\220>\rb\001\276\356>\215=Eb\212=<\002%=[\363\363=lA\031\275\005\211I=\333\316|=5_\216=%\224\'\275\"\003\224\275C\225D>f\3674=\n\254\005<7\245W\275|^\216>>\202W;I\036\021\2764\220\226=\312\366y>\371jj<\206eZ\2774V\010<\364A\204\273\242J`>x\311\216=\014\r!>\352\307\220;\261\'\002=\250\031\363=f\300\032\275\261p$\2760M8\273d\270\357\276&I\227\276`\025<>\271\325\026\276\332\030\'\276\356\221\250\275\333\030\367\271\005t\217=2\353\215\273\363\203\031>@\200.=-\373s<\376\204y>zC\003\276\307xa=\000L\235=\361\021@>DI\250<>\207)\274\301\t\215>\\9&>>\204d=\256~D\274+\355\302\275\013\376r\275\013\276U=\203u\316\275\226\337E>dY\276\275J\341I\275\353\023\267\275e\224\214=\244\004\265\276\230\025h=\n\016\025>\336\221\235\276\324\275>\276n,\353\276\257\324/\275\215M(<\353A\020\275\222t\345=\360\316\253<\231\353\234\276\315\023\216=\342T\n\276\212\333\303\276\244W\372\275\307\013\337\276\326\231\271=a>\327\275\226{n\275\002\221\234\276\341\363\206\275b\366\300\275\310\033(9\224\202\274<\025\230&\276\241\214\363\275\303\360\324\275\324\331q=\243\317O\274\335$k\274\216^j=>\353f>\365\200\245\274\003`O=\035\016\243=\364\035\274<q\242\215;p\252l\275g\370\374=\244\340D\275\306\213(>\366\332\255>J\202,\276\254z <\215\272\307\275G\261C\275\034\314\347\275\350c9\276\340\210\016<\035zt\274\372m(>\315\223W\276.\270\306<C\254\206\275\204\t0<\326\312\254=\371\037\274\276\004#X\275\311\220\343\275\\x\252\274\273u->\356\317:\276&=-=\276\210\200\275\006\366\354\275|nV\273\331\032\000\274O\323\240=.\307\361=O\201\035=,\205\027\276#5\275<\177\021f\273\367\356\262=eWp\275\241\200\021\275i\027e\275\237\266$>\233O\335\275\231\2404=@8\241\275?4!\275\036I\365\274M\250\365\275\335\223-=\356\026k=\317\376\241\2757\3074\275\214(\036\275S#\353\275tg\371\276\214\033\377\275\000\375\246=Z\3108\274\234\332\207\275SGT\276DH\254\276\204\337\0019V\226\373\275\232r]\273A\027n\275\035\035\"\276\005\325\377=\233\314z<\215\350a\273\353\205\273\276\021 \014>\360a\'\277\304}j\276\225\247\006\276G\0270\275\225pV>X1\263\275:\355\254=#X\272\276\273*\376=[\331\223=&\330\310\275\236\305h\276\306\327\235=T\204\370\275\375\332\\>J9\301<\037\217\230\275ROQ\276\373\233\031=e\245\277\275\321\023\222\276)\356\327\276\334\316\374=e:\204\276\351N\020>\370\332\252\276C\204\r>\257 \271\275\277\347h\276\322+\240\276A#\265<\347\232\276<\025C\344\275b\375\237=\323\276\'\277\312\252\301=F\021=\275\234,_\275\265^\357\274\222\005.>\272.\273\275:\025\216=z\010 \2771\031`\2769\200\220<\373~\246\275J\246L=\031M\017<\005w\025\275\260\355\337\275\332:\224=\2170\216\276\305b\256\275\027\200\340=VZ|\275\350\225<>\324\000\274\274\300\310\377=\3645\002>\367\353\222\276%\316v=L\237\315\274`]\004\2766\267\372\274\335\235\305\275\361,\200\276\016?\327\275\321\177\020\276/\275\375<\2007\016<\211\021\n>v\322*\275WT7>\304F\240\275SR\224=#j <t\031\261\275\314\276\237\275\351\023-<\332\303(>n5\223=\244\005\n>\326\002\017=\215\3664\274\351\353\317\274\355\360\031=\'\340\005\276\271\002\207=\214\317\312=\251\215\251\274\353\217\001>\333,\326\275\231. \276\213\367{\275\022V\322=\305\220_>\327\256\027\275\013\206\251\274\216\276\327\275`\232\341=\025if=\014O\227<#\177\225=m\333\264\274\020-\367\273\024G\250\275\206\025\346>0^\271<\306L;\2750\t\"\275\325\220\340=\033\016Y<F\245\347>\367\023\231=\024*[>]D\262<9\031V\273\256I\314=N\361\026\276\232;\372\275\315\261\321\274\326\365\004>m[,<\226S|=oB\234=\005\303\342;=q\210>\254\010\266\275\220\001>\276zN\000\276\211\220\330\275U\342\240<\270\345\275=\224Pv>\357\331\367\275\007k\r\277L\352\261<O_\323<Gc\227\275T(b=&\260\233=\275\267\314\274\270\036V\275\267L\270\275\316\255n=\034\017d=\203\312O>1\300B\276\031\217\275\276\217Sg=M\365c<\324X^<k\017D>8\377\333=\344\272\314=\315\262\205>\326lV\276\262P\016>w\207\253>Z\204\224=!\272V\274~\277\016\276\023\351\215<\306\006\345>\217\030\030\275\207\200\242\275\217an\275\211\263\337=\276\260\014=^z,\275\301\010\215>\244V\004\275j\\\266=\236\216\235\275\317\034\222>\000AV\274\362b\\=>\271\314\275\355s\030>!\036\"\275C\0160=\264n\212\275\026\206\333=\r\350\241\274+4s=\202^X\275\304\371\247\275\005\0168\275a\034g=\270g\257>\307\366\004?\336\205 \274\2326\002>(\235\253\273u9\354\275\222\321\016>\202ee\275\311\303b\276\344\277\300\275a\217\320<\352\371\035>\357\236\363\274/8\217\276U\376}<n\302\206\275O\200\366=g~\267>\352\267G\275\366;a>a\330Q\276\247\301\230>\325(k\275X\202\265>\211\346\206\274\370\362\023\275<91>\227\240\215=\373*]?\010\026\313<\313\332\242=c\tv\274\346\365\337\274\233\247K>\206\262i>\'\235\352<\030g\331\271J\215\367=\r\034\272=v\027A<\202\032\220>\375\025C=\006~\355>>\315J=T\t\210>\026\320\033?\317\371\372=\213It\2763\035\261>30\233>\217\271>=1\346]>,\236\037\2718\035\020<\376\351\210;\227\314\373=\272|_>.g\251<\323\317\261>\363\347\363>\253\211B<\275\220\227>^$\014\276@\002f=r\266\273=N\326\2079\246\311\242<\242\245[\277ov\014=u\220\217>\266\374\264;!N1>a\241\220\275a\276+<)j\225=\326 g\274\014mz>\224\255E=]]\307>\010)\373\274\300|\346>\240\222\226<hN\022\276\252\261C>\027\363\364\274\331C\376\274\013:\323>\010J\005>\020\013P>\311^\245>P\250$\276\371\226\275>X\r\337>\251\366{=\265\340\265=\213\361q\276\262\026e\274ZT\337=MW\203>Dcs>\000C\224\274\336\361\340=\210\342\234><\225\023\276\361M\253\275\'\"1>\330,\201\276\220\213\013\276G\305]\276\200\005\207\276\307\t$<\343\346\005>\004E*=u\n!<\316l6\277\373r\333>`\215\355=\242\\;\276\'\241\237>\205\201\277\275\022\254\016\275\342a\367\273\322\247\231\274\'\354+=\261\245~\274I\265\250\275\030\374Z\275VEO\274\024Xj=p\374-\275\223\317\211\273\317\374\303=\2268q\275$4*<\nG\243=\3431j\2755\360N<=\361\213=K\036\374\274A\020m\275\364\324\252\275\014\234\221=,p\010\275\274\326n\275\\\221i\275\024y\255\275\317\371\223\274c\312\210=\330\275\251=\352[\331<\020?\036\275C+\302<\224\3736\275\246\201^\274\202\272\300\275|\317|\275\270 \203\275c\245\222\275\372\"\270=\t8^\274\341\272;=\240\036X\2743\346Z\275Y\277\357\274\266\272\346\275\024\336\212\2752\276}=^s\271=\321\377\227=\031\310\345<\230?\313\274a\223\230\275\215\360\n<\005\251#=\355\205\212=\203\246A\275\002\223\321=\322\215\341=\346\326L\275\247\264z\275\206\210\332\275dy\356<%\220\200=\337\001\263=\336,\260\275\0360k\275\001\034\301\275\336\017\312;\247\221\210\275\352P\315=v\233\003\275\341E\335\274\335\366\260=\256\222a=OG\245=\307\255\272=\207G\260=\351^\254=\310I9=\204)T=`\346\232=\364\257\241\275\313\013y<#\023o\275L;\225=&(\245\275\255\230\303\275j\302\201=\223s\350<:\3120=a\261|<\031\223 ;,\221\020=\"b\253\274\216Q\344\275\351\262\"\2758\322G\274\314\221\231<VTg<\024PC=\324?V\275\201\272\233\275\035i\226\275\333F\223\275\311-\275\274\'\242\225\2759\373\205\275\321%\267\274P\274\007\275\212B*\2732\311\372\274\254\306\245\275~\234\337<\270x\330\275\032\370;=B\037\006<\355\003\332<\'#\237=\333_\335\273\202g\265\275\t\234\t=\010\370\334\274\237`\266=#5b\273&N\276<TO\026=\300V =t\376>=\252\354\241<\3352n=\020\310\027\275\274C\033\275\205\347<\275\306\367\200\274,l\024=\353\366\300=6\003\225\274\360b}\275\362p\263\275e\245\276\275@1\374<\326\222\213=\336\302\214\275-\310\230\275N-j<\321\260\326=\3552\250=\000\233\000\275\007\020\207<\027\354\213\2755H\235;\272\356N\275q(2\275\242l\255=8R<=T\343\225=Yq\250\275\372\263-=\361\314J=@\245==~R\216\275<\265j\273\332\205\230=\221\303\244\275>\265G;\033\204\251\274\264\004\212<\265\254U\273\215\300\200\274#\261H=\274\301\020\275W\271\276=\273F\256\275\2344\211=o\235\226=\026\236\315\274ae\235\273e\355@\275\367\251x=\226\267f\275\356\223\320<\324.\215\275Uq\204\275o\200\007\275\340\340K\275\000\305K=\n(<\274\344tt<\006\375N\275\023\030\006\275\374\205\274\274\032G\304=i\335\236\275\031\222\251=\032\023R\275\317\r\340\275\362\r\020\275\010\300\257\275\007\261\251<\203\222\224\275T0?\275,\316\236\2753]\032\274\334\033\014\273\202\334\205;U\3405=\2600\213=\254\244\202\275\275\201\346\275ED\241=W\317J=W\242I;\222\204\"=\313\233o=c\006n\275PP\350=\304\022g;\212t\027\273\357+\227\275/\262\023\275\307\370Z<\311\226&=\205\014#\275\367\346\266\274\027\251\\\275\021\370\016=+\345A\274\217Q\003=S\251O\274_n\374<#*Z\275=we=\036*\342=\373\276\034\275\030\030\253\275\337f\220\275\003\036\233\275s\014\271\275#\021h=)\261\331=W\223\003\275\312\347\371<[,\253\275\1772\312\275\326\001j\275\254\357\315;x\343\332=\201\375\207\275\"\236\357=\367)t=\3704\225=\017,\270\275\023\223\251\272\007\'q\275-Ps<D\020\023\274\'\003\270=\364e\227\275\225\221#<*\255P=1\355<<\2152\030\275\217\000\002\275$\013\227\275B\301\263\275\010\303\"9\2766\007\275l\204\016\275Dz\321\2754\177\331\275\021#\332=jx\330\275*\027\375\274\375YC=\211%\037\2758\"\322\274v\261L\2751%\366<\215E\024\275_(\253=\233\327\205\275\324H\205;\247\241e\275\227.\355;X\2223<^\333/\275\374\231\031=\036\033\311\275\210\310h\275X)\315\274k\341\310=$UP=\361r7\274\377\233O\273\244\200\305;\234H\021<\242\004\271\275&\n\322<\231\2355=\rc\260=\346\032\214\2745\311\303=\200q\304\273\376\363\353\273\002\341\264\275\217\227\020\275&\254\226=&2\322\274D4)\275\023\314\000=\017\331\254\275)Xf\275\276\310\277\275\031\350\214=\213\303\344=\367\264\260=\'R\321<\326\231\322<t\271\005\275*\241\321\274\260\216A\275\231\276\252=\000\210\246=E\n\210=\035\215\005\274\024\326\231\275\303\324r\275.\244\303<!\376\271\275$\204\350<j\340\214\275\3013\270\275CV\305=\327\311?\275\337\312\005<@=\226\275]=\227\275\210\234\302=[\342,\275EL\201=\373\375\360=\242\352\256\275\360\217\"\274\233L\304=\017\2374<6\322\230=\'\241\270;\210\247A=\224\262\246\275\033\237\257=\202e\235<\026\013V\275\262-5=\376\200[=#\212?;\263\233\213\275U\036<=\376E\177=\2141 \275\346\363\230;\375\226\212\275kA\250\275\271\336d;\212\377\262\275\263\0213\275K\027\220=-`*=\324}\220=:\267\230=\3500\262=\332\201:\275\226\213_=\346\345\266\275\377\250\362<\266\021\377\274\223Zg\275\331\331\336\274\303\r\010\275\032\225D\273\367\241\242\275\326!\225\275\2439Q\275\231^\200=)a\207\275\030\370\263\275S\233\353=\327\216W=\274q\352=D\224\264=*\003\253\274\207\350\240\275~\203\220\275\234\256\327=\324l\232<\205\200\221\273\352\256\350\274z\236v==yt\275\n\007@=\267\263b=\322\244\037\275x\032\222=\000[\254\273\246\3131=\323\224\257\275Y\027P\275\022\204\230<\375\330S\275\331\375\234\275\317\355\301=\327\235\n=\207A\377<\223\220\312\275\321\344\313=\2279\234=\207a\004\275e\231\345\275\230\230\275\275\007\337\230\275\247\247\021=t\"\213=sa\233=?\025\026=\336\327\326\275\326;\353<a\357\343<\025\360\273=\361\360\237\275\376h\241=`b\203=\017\007\336\275\r2\332\274\3069\306\274\304\204\233\275\024\347\204<\005\246*\275@d\216\2750/\231<M\353\234\275\252\004s=)\016\210\275fE\220\273\355k\266=sf\270<zD<=\314\345\256\27528\317\2747\237\262\275\356\305\310=h6\323\275\233c\320<\312\375\251\275\260\306\233\271\314\017p\275J\331\225<\327\362\310<\357\265>=\304]\315<x\350\r<?\301\016<`=\212=<x\317\273\256\013\006\275\242\001\367\274@\034\235\274\270\213\306\274C\222\253\274\003\245Q\274\375|\252\275\340\317\304\274\n\030\223=\373\356+\274\002\325\235<E\206\\=\321Y\253\2756$\206\274\211\242\257;\365\240\322=\264D\034\2755\234\t=\333.\252\275\275\035\031\275\242-\236\275\225X\305<\363\357\350=\357T\177\275S\341h\274\240\321g\275\360\374\336<3Pw8\037\034\332\275d\315\305=,\367\t=40\277\275\207\257\330\274f\005\305\275\024\004l\275\261\356\223\275\024\3669<\330\3439<QqX\275\\w\204=\211H\264\274\257\357l=\241&\205\275\364\256\221<&\305G\275\n\323\231=\365\322\013=\306\021\251=N\262\257\274\311V\244\275\252\235j=e8\246\275\271\207\265=i/{\27553A=\\S\002\275\363\330\245\275\030[\227=\312Y\252<\034k\216\2747\033&\274\025\332\203=\'\014\024\274;K\334<\340R\203\275\034\254w=~Py\275\326\265\257<!\177\227\273\370g\224\2746\334\016\275\\\342B=\372\216?\275\306n\207\273\212rE\275\034\365\246=o\024V=\336$\027=\321I\232=\2526\243\2754\003\312<K*\033\275\3408==\355\330\202\275X\316+=r\3045\275\234n\243=\010\314\266<\320{\233;\'\321\305<k\347\212\275\363\006\233\275c\337\314<Y\327\263=\220+\n;\213\200o\275\237-\316=\352 E<a\003*=\264\345\036=cN\354;\337`\264<\244\371\346=\300\n\300\274p\332\344\275\251w\000=\367\235\243=\253b\331\274\273]\233\275vf\177\275\363\261\341\272\027w\020\275#3\227=L\235\250\275\377H\016\274F\234\315\275\023G;;E\336\257\275\371\211\245\275\2133\346=\377\220\373<\335\007\304\273\2770\351=\343\304J\275D\225\200=&\203Y\275p%\002=\261^\t=\226\265\273=\371\214+=v{\252=\016\254\250\275\377\"\253\275\265/\244\275\274\211\261;\361\326\244=V,T\275\312\221p\275%\345\313\274n\246\300\275\203\207\236=\331g\300\273CZ\303\275\252i\243=\030S\036\274S\356\256<E<\264\275\000\206m\2757\0175\273\337\220*=\0309\035;B\020\252\275\330a2=X\025\032;\216l\274=P\336d\275\022\267\241=\240\264\314=\307\231\242<\212\t~=<Q\027\275\307x\277=\314\355\252=\267s<=K\334Y\274\273\355o\274\277?\241<\035] \275\2216\240\275V\024q\274\027\030N;I\014\235=\t\353\231=\322\331m\275\323\312]=\264j\014=?l\243\275\324\036\005=W\355\204\275\300\'\255=$0\342\275\223\037\005=\275\305\022:\237\270|\275\031\335\241\275?\270u=\323t[\275%\203\331<\243m\257\275\016\257\342\275\332\026\215=0uW=\322G\337\275\275\225o=\373\214\210=\220~F\275\310c\013;\246\025\020=\357\3053\275\\\211\204\274Re\206\275.,]\275\312\327\035\275\274\336\343\274fm\230\275\2462\232=\tP\275=\365R\212=fJ =\232\333\211=/\221,=\301\241\216\275\270\026H=a\210\230\2757\036\231\275U\356\212=\225\030\262;{\037\336<\366\347\230\275\234\367\246<\031E\004\2742\3244<\'\331\200=Yu\215\275X*\347\274\017#\212\275\212\373\266=3\336g\275`\330\242\275\202E\206=\r\035(\275\352\330\003=0\304\302=m\236\235\275\010\333l<~\276\314<f\376\234\275\227\252p\275\021h,=E\215\213=\300\226X=V{\216=A\376\035=L\223M\275\345L2<>j\033=\342q-=Y[\303=5\372.\275\246$\323=b\324E<\224\r\277=%\027\200\274\013\264\215\2717m\257\275\t\365\025=\377\306\026\275\313\327\214\275\027F\223\275DLq=\203J\214\275\265V*\274\372\034e\275\251\212\344<\351(A=\247\353\220=\362\037\372\274*\315_;J^\231=\273\276\023\272\361\242 =\354\212\243\275wO\254=r\306h=\273\354\217=\273\032$=)\013O\275F\247N\275&\314\031=\362\005\234=p<\017=\327\337\'=\027,\242<\272z|=]P\272=\023?\343=\253a\357\274\273s\213\275D%\316=\006\334\033\274\2170\223\274$\245\322\274\256T\247\275\333\321\236=\301\273\360=\317\231:=\322\"\233=\363\356A=\206NV\275\0016\221=cx\311=\337U\231:xj\274=\257\344\234<9LK\2750\t\224\274\n]\200\275\301\\\245\275\177\263|\275\177W\331<\364;\270\275\323q\216\275\264z\002\275I\017\261=5z0\2756\321\216\275E\201a<\275\325\215=X\216\225\273_\030\361:\027\361)\274E\250\220<\\\303Z\275G\2025=\235\r\"<\"\274;\275\2346u\275^\356\'\275|\3521\275\270\312\025=\267\260g\274\370\245\200\274\247 G\275M%\247\275et\000\275\371f\246\274\322\341\270\2755\2767=?\200\251=xP\211\275K\340\254\274\223\233\003\274\314\273\353=\005\334\'\275B\212\272<\352\332\206\275\253G\356\273\t\327\311=N\016\001<\375O\004<4\240\302\274/}q<\\5\005<4e\241\274\231\243\201;l\013\227<W\260\306=\2735\242\275gDv=\331\341\005\275\325\030\340<]\271L:c\302\030\275\337z2\275\241\325\317=$\237\347\274#7\362=\366\347b\275{\t\027\275\345\256\205\275\305\023$\275j\253K\274D}7\275\006\3228\275^W\022;\321d\030=&\255[=Q\276\324\273\272\rq<@\343F\275<f\232=O6]\275\230\026y<\215\271\264\275\231\\\361\274\352\351\342<(\362W\275)\357\275=\314\320\312\275k\343\262=\343\002\351=x?\037=3,E\275\026\350*\275x/:\275BN\311\275\332<\241=qHG\275\320a\243\275\3453\205=G|\264\274\370\355\n=x\022\327\275\306\2263\2751:\313=ot\333=\331\372\032\275\204N\022<\3164\256;_\200\226\274UG\310=\007s)\275g\313\301=\273\003\311\274\373UG\275\204r\364:6\3143\275\037\301\270=\030g\305=\233r\215=Z?\214=\242+\225=\235\371\304<!\311\253=\326gn=\250\376\352\274\014,M=l\334\035\275\221x\377;\216m\226=\256T\032\275x\211,\275;\263|\27355\031=\206\256\213=\301L\222=m9\246=q\374B\274\r\034i\274\235\356\303=\357\013\307=\226\237u\275\3137N\275\230\tN\275W<\313\275\201\030m=\314\350k=\023j\014=\254\213D\274\024\352\311\275\227k\233\275XV\341\275\014\010\214;W\n\034=3\311\005\274\227\313\326<e\370\213\275\250\013\257<&\244\334\274\301\211/\275\377\177\342=\236\357\222\275t\345\300=\220P\265=\324[j=\320\337\257\273\255\327`<3\221\320\274\273\240\223\2750\240\002\275M\224\240<M\352\232=.!^\275\266\350\313<\207,\313\275\033\330{\275.\027)\275\017\373D\275\314\3058\275\363x\037\275\265\026\377\274\262\241\221=\326\016\177\275\211\2701<\0047F;\003\3242\275\211?\353<cK\347\275/\330`=*F\235\274W@\327\272H\022\321\275\316\317-=\265n\231=\331\255\316\275\003\2446\275\021\014\274=mq\333<\374\014\223=\333e@<\010\377W=\361\320y=\364\320\211=\353\247\321=\366\342\200;\304(M\275\302u\322\275\231\020\253\275Q\275\261\275\205\362\266=\323H0\274\344\026\210\275\216\203\256=\262\275\256=(>\211\275\343\274B\275\260\331\246\275\254\251\211=\'\372b<\365\223\301=h\213\230=\336\361\033\2757bk\275\207\252\233\275\217\014\317=T\337)=\306,%\275\"Wm\275V\307\261\275\251\027\002=\334y\353\274Jx\327<\272(\364<\314\354\327<\265\305\236=:\340\232=\231\336\223\274\021r$\275\320\000\224\275\021\262\233\275\353\n\242=\237\327\216\274L\000,\275\347\370\013=r\222\244=w\211Y\275\023L\t<\260?\206=p\233\232:s\344\332\275K{\355\273n\003o<\375\020\277\275\006e}=\340\325\312\274\'tL\275#\367\202<\303\277W;\231\216\265\274\225\344\201\275\260i\314=\236l\353<b\345\270\275\266T{=D\007:\276\225N\225<1\374\353=\375\357\002>\003\026H=K\256)\275+\300-\276\331\360\273\276\310%L\276d\345\223\276\026\350\235\275\243\304\324\274\242\215\261\2752+\252=P\324(>\221\372\206\275\332;\276\274\272%6\275\201\0212;\003Q\336\274\010\303+>\221~u\275&K\016\275t\370\221=\254\274\350=^i\263\273\312\325\261\273#u\321=\204s\016\275\000w\005\274}[\224\274\034\277\266\274\220z\215<\305\231\216\276\240\024*=\tb\216\274\016~\006=\252\026\347\275\034i\220\273\036>C\275\365\372\201\275\373\300R\274\210\n\310\275\234\rF\276\034\257\207=\326\034c>9\2329>\003k\250=\350\274H=\235\254|\277\\\236,\275\255\364\022\275\027\251\030>:\273\030=\n\355\253\274:\271\334\275\376\331\202=\225;0<\034\320\347\275\021\240|\2758\3169</\251\314\276s \226\276\332!=>\t\360/\276\305\300;\275\034\316\004;Q\005\221\275\365\314\356<\256i\346<\312\227\203>\377dq=\266M\016\274\265\000U=;6\017>CAq\276\3038\211=Z\276\236\274\377O\227=\225j<=.\350k=\354\235\261=G\307\r\276\234\324+\276\304\r\323\275A\351\205\275\032\177\345;om\221\275\206 \025=\350+\275\275L\276?>Q\355\300<\270d#=(\253\203\276k\271\033<\221\000\266\274\355\214*\275\014\024\000\276&\226*=\231kQ;\305\"\344=[\234\333<\356\t\353=\t\207F<\362t\344=\014Yf\273UFh=\202\236\267\276\313:r\274\310LM\274\350\304\"\275\332\327,<Z\034\271\275,\274\204=B\354\213\275iGd<=\232\356\275;_6=\303\221\037=\206\302\327\275\364\371\324\275\356;<\275f2\271<\376\326l\275\326X\330\273\340\312\264<\034\250f\275\240\034\005\276\035\246\226>\212\351\002>\205\t\312\275\333\177/\276`\272\275=\221$I=\224EI\276\035+\251\276\364\263\270=\235p\366=E\314\207\275,\324$\274\256\226\370=\r\330\252=\037I\026=&4u=L2~\275\\\2005\2755\247\210\275\032X\023\275\021\334&>\017\216\001\276\177\247\245\276\035\341|\274\006\024\214\276\363\344\210\276a\tc\274\033l\242=H\325\030\275W\001\260\275T\213\310;\"\247\374;\234O\327\275\265l\276<\230)\023\276\007\3118\275H\351r>\3321\201\275\275\010\222\273N\246\250<\030n\332\274\r\346\004\276\370\326R\276.\'\226\2755\333s=\276\003\006=\016\224)\275\320\'\324=\376,W\274\034\337\277\274u\353+\274\2562\231=\326k\244\274G\3649>\336u\227;\333\263\222\276\\1\306\275\211\3725\2750\024\310\274:\322\213=h\352\332\275\233\321z\275\346\242*\274\226c\221\275V\322\361<\361\r\223=\263)r\275\361\323\223\274\005v\001\275\361\352\276<|\327\214\275\324\374\244\2757\024\004\276\363\361\206\276\327\014.\276n\343\207\276\372n\000\275\276\220\220;\307\336\253\275\207G\\=[\340T\275(\002\260={-Q\275\031u\301\275\301\341\222=\204$\206=l2 >>\025\231=`z\255<t\336o=\035F\276<z\3039>/x\212\275\274\"q:\037\233\306=\006y\200;\300\007\220\274mDw=m_\r>7P\n>\034\314\031\275\\$\211\273\016o\024\275(\3454\275\023\241\235\274\334\267\317=\313\253Q\275\3642\264<Xd\203>\314\255\371\274Iu\374\2758\303\352\273\203\353\262=\364\206\243\275\326\037\205\275\r\317C>\374\t\246< ]\212=&\005\022>\207\264u;\216\003`= \223->\030lb\276\2624\310<]d=\276\026\337|\276\262(\214\276j`\377=\312\274*\277\005k6\273\265\232\360=}m\200\276\301*\010>\334\320m>\373#\214;M\021/>I\016Z\274\222O\225=c\323\212<\352\007\241\275\335hZ\276y_}>\025,\316\275\332vB\275\265:\333<\372\374&\276@\251\312\274\024Ya\274]\222\306>\261\327\334\274#T\357=\366\221Q\275\235\311\251<\337\331\353\276\265}e>\367\213{\275\024\251\341\275\203\264\n\276\300\372\205=e\270\202=\233\365\256\276\373\242\227=\355\366\322\275\246^:\276`$\002>P\231\246>\374\352\235>\216\210\205\276^\036\374\276\003G\375=\352H\261\273\214\r\210\275t;\354\275 \350\261\275\037\r`\275\247\013\270=yD >\261\301\234\273\361f\024=[%\244\275\327\270\252\274\'\322\240>\271\027!\276\363C\316\276\232\352\024\276\245\3043\277&\217\272\275\033LX=\3158\022>\255\224c=Fgo=9ly\2751^\352>\266\'\255\275\\t\004=\223\004\212=\025D\210\274\324}1\275\000\204\265\275\350\343t=>TR>\272\242O=\n\002\211=\253\024\360=\215\204\235\275\215n5>(\322y\276\264y\260\275\373\323\212>\363\365\365=\025 \332=\366 \206\275d\303\036>2Q\032=\237\353\205\275\321\236\217=\223\377\227=8\001\316=q\031\001\276\'\362\013>\tm\020>a\220P=:\3405=\275\344\215\274V.\252\275Lg`=\330\\\025=.\274K>\373=->\036A\353>b\346\332>\255~\034>\263\010\035\276\033\003\211=\354\241d\274\022\035?\275\330\354\354>8\2545=\263\r\311<\353l\326<})L=\0329\035>)\247B?\331\310\221=\253\374\331>o\241\202>%<\316<\261\264\300>\031^q\274\233\030\367\275d\362\031>\031\304O=:\327\343>XB\311;bFq\275\342\256X>\242\226\242\275\010\221\201\275\010\372\227\275\267\313\241\276\334\020\272\275\263H\"=\357i\234\274\013\237\336\276\230\023\222=\256\325\217\276\016Q\370=f\n\241\274M\033\203\276<\207\251\276\234y\261>a\004\367<N\246\346\2751\317?\2776\377(\275\206JP\2772B\271=\222\355V\276\n\260/=\271\361M\276\301lF=\013\302\002=(\007\264>\213A\232\276L\005\263\274\263\243\373\2760ZN\275\252\361\271\275\255\310]\276\254\264a\274YE\027\277Jlz\276Y\024\333\2740\325\023\275-\376\317=O\367\341\275\t\210z\275\023\203\276=\345\320\246\274\001\tD\275`\342O\276r\3202\275H\277\010\277\342Z\221=:\'\245\275I\241\304\275\004 r\276\354\3338\276p\302q\276\314\032\263<[\2243\277\001\2359\277\346\270q=l\341\260\276r\t@\276+\341\233\275\241\003\'\276\256g\245>Ko\"=Tu\201\276n\020\256<9]:\276\342\2477>\230\317\346<\027\262A\276a\341\352\273\006\266\351=\022\023\312>M\354\203=\256\"\235?\037B$>R]\224>\231*\275>?\356B>3|z>\240y\221\275y4\366\275V\321\233=;\265C\276\312@D=\366H\240\275\260\333\025\275O\347\337>u\265+>Oo\323\274\001~V\274\312\314-\274\366\246\007>4\036\304=9\2360>\030\343_\276\355\"\362=%\324\327=R\333\016?\3468\025?(C\000=\027\3737>_\"\031>\014\333\304\275.8J\276=\346\375=\216\252\031\276\244\223\014>%\272\020<<\033!>\377\301)=&\031\357>\370\026\213\275\313\315\301\271-|\257\275b\374\207<\352\363\030\275)\244\r\276\266\035(>\005N\321=z\031\216\275\360j\311>\0136\241>\344\213\362=\277n\321=\0307\241>\323\262\261\275\343\257\256\274\343\037\016\275\354\021\215>.\231\362\274\376\265\177=\306\036\213<\273h\203\274H\335\263\274\\\000\016?w@\r>\2225\003=\214\202\220>7\310\327\274\025)H>\037\242\226\27383:=\256\346;>\3558\336\275\325\227F\276\236\332\352\276\244\272\267<\265\3052\276%w\245>\002l\351=\"M\"\275\341\006\'>\231\364t\275\210>\253\275\010\314\206\2749\352\315=$\263\033>$:\230\275\326W\270=kF\265\275\303\365C=9\323N>\024\252&>~\031\026\276\261\221\243=\033\342\371\275\375\244\254;\333\225\315=\340\266\353<ej\003\276\237\273\272\274\252$\304;\201!\216<\262N\207>6=\220;sa\r>\366\221\232\275\230\234\362=\306\027\264=\326I\245=G\022\033\276\332\222\225>\263\033\211=\302j\317\2742\245\244<\264\003\234\276\270\243\004\276\037\347\265=\327\002\013\276\275\036C>\227\245,>[\225\367<\215\002\002>\277B\312<\227\306\247=\r\350\003\275\212jL;\"E:=\255pn>\240\216\2767\021\314\027\275\355=$\276\'\022\364=\355\316\355\275fz\034\275\023@\252\274{\312\235=\037Q \273(\255\337\274?W\332=\244{\361;n[\204=[E\003\276\342\240h\275s\366-<:ss\274\337\240\263\274\311\330\253\275\361\317\334=4\263\220=\335R\224=\304C\326=3C\305<\374V\016\275\314\221\304=\201\342K<}\277\'>\256\366/<`\203\324=\345\"\"=\361\010i<t\350\211\275\274i\236=\3676\206\275&r\275:Z\202U=\311W\220=V\031\334=]\221\337<\035\357\255\273\366^?\275I\352\001>\254?\224;O\020\321<q\324\371=\211\374\253\274H\243x>\204+\007=\351\303$<\013C\235\275\251Z\377\275\033L\005\276\033\n\323<\252\301}\274\243\034[>\301\344\264>\343\314\004\276\007\371\244\276\034I\250\275\232\025\325\2765\217\306=\352\220\035\274\257Qt\274\356\361\034\277\364gJ\2754\240\\>\211~\021\276\236\245\025=\262y\003\277\264\230\320=\253i\307=LF\265\275F\255\026\276\256_t\274\277C\361\274n\3315\275\'gt\2750w\304>;f[>1k:\276\031k\323<\007\343+\276\327W\346\275#\342\206\277\234\356\366=\317\022\233\275\370t\301=\014\205M>\352\337)\275.\242\274=\344\034\022>\264p\031;\037\\\367=\214*7>P\371,=\013\001\300<m\343\007\276J\3377>U\n\313<`\350\002>\202p\244;\0135];\337\375H\275T\243\267<T\313\034\275p\365:\276y3T\276Nl\226\275\327\332K\275\"ch=\345\224\340\275\353\347\032\277\250\322/\276\037+\271\275\313\327$=\204p\204=\230\246\014>|c\016>\327\371\303=\014\321\236=\302\322);c\317\274\275%\250\373\275\226\274$>\346\036\020\275G\253\010\274H\217\207<\0260\302=\222\205\214=\033\354\002>\344\353\244=B\332\347=\255\276\244\275(\356\t\276\361\234\260\274\367\210\232\275p0\273=uf\241=\267\032\205=\005\204\203\275\230d\312=\361f\355<F\264\001>0`V\2755m\016\275\234\322)=\370\330\337<\320\273\273\274\242\035\261=\363\222\340=RQo>\201T\221\274\nPm\274&u\213\275_b5>\366\250\006>\200J\317\275\237\267>=]A\010=\350\363\231=\266\351\306=\203\264\277=x:\312\275\360\365d>\330\010K>e\207V=\367\274\246\275\323[\264=\346\022\226=9\337\010>aLU\274\255\273\204>]\017->\217\034\210=\275\335\233=)<\244=\311\273\240=\\\225\214=\366\325X=\377U\226\2746\2321>B\373\034\2777\353.\276Ns;\276\326\034+\277L&\205\275X\260\032\276b\234s>\014\215+>\273c+\276%f\213\275\270\310Q\277Y\016\307\275\003\345\225<\364S\222\273\311e\225<6B\006>\213?l\276\356\373Q=!\032\214>\331\232\177\275V\245\244:\335\357\214\276\206\221\034\277\317\230\262<\343\245\260=\205\0058>b\003\247<\367CJ<\347\002\212>\244\336\324<U\366\000=\347\366.\275]\262\221:]\260\343=\205\245\211=\322\360\251\276\306\242\337\274\314\374\213\274\362\377\016\275d42\274\316\372\025\275U\242\001<\361G\371=n\316/\274\307\320[\273\030a\220=\317\203\251\275\374G*;6\366X<\231o\327\274%\235.>\363a\350\275 \214\352\275\357\247\031>\316\020\234<|\210\334<\346\027\331\275]0\332\276\277\355\255=\231\362\373=\243\017\005>\374\240\226<\241\252h\275\206\221\265;l\266\211\276\262\034\030=\363/@>\237\217\321\276\242\255\262\275\243\245\304\274y\214\002\276\324\207\217=\361\232\233<\026\311\016=\273\177n\2756\374/\276N\001&<p\306\241=1\211\327:\t?\001<\342\0050\275\344\251\360=H\240\237\275,\273`>2\337,=\300\313$\276\204d\002\276g\206t\275\356:\256=k\322\030<\037\000.>\222D\215<`\'\200=gy\311\276\314\356(>\220\014\372=C+\020>\314\253\261<O\322\226\276q\003x\275z\361u\2750\357\333=\023^\247=w\205\273\274\017\271\022?\367\325>>\253Y\014=\362i\001\273\007\221\313=u\'\313\274\014\201\367\275\366}\207=\021cR>\202\360\3729q\216s\275]\346\301=\234\024\351\273R\357\323>\031(\250>\210\341\022=\233\256\374=\311\006\355=+\025\220\276@\313\023\275\275\244\224\275\006\373\205=\270.\330=\303\252\256>\373\334\244<;E\276\273d8-\274\342\313I\274\245\001V=\363~\370=\214\351\207>\211c\316\274\005\266\014\275?\353\223=:\327\020?\331\336\255=\212\340\302\276@\265J\276Mw\240\275$\352`>9\266\253>Dg.\276\314=\357=\373\376*\275\307 !=u\262\225<K\233\364\276\205\n\334\275I\242v\274C\321\265=\354xJ>\350\321\202\276\246l\265>\344M6\276yA\207>\355\337\266\275Ba\014>\010\023z\275\031\372\307\275\273\336Z=\245\372\324=\3571\t?\027\016\">\257gA\273\275\251\022=\257k5=+\346\311=\021D\324=\226%\341<|\312\004\275\343_\312=\230\245\256=,\302\365=[W&>^\330i=\276\370O\276\177\313\217=\256\234D>\002\032\217>g\246\240=k\"\255\271\336\003\275>\265\234\323=,\024:=\235\224\335>\225\032\336<rM\321\274\210\2269>\337\264\221=6\254r\273_\'\236>\371]<>Vy\037\274\217\225K\275\343\235$\276\223Sn>\255\336$\275g\216R==\2406\276tb\365\275\321\257\235\277\334\240\253<\020v\233\275\265D\344=\330\227\217=\201(a=\375\221\211>\240%\202\275\331\232N\275\312I\237\275\220\2269\2753C\215\276\347\376\337<\020\325\t>;\266\346\276\374<!\276\037<\323=X|\256\275\304\251x;\274\247e\276\311\372{\275Eu\036\275\342\247\233>V\316U>\355\267O>\261\000\207=\315\352{\276!\006,>;\317x<\237\303\327\275\357\220#>.\030\314\272\277\372A=|9\233\274\301>b<\240T\245={aV\275\256\257_=cj\314=+\027\256=\003\253\026\276\204\217[>\311G\245\276N\205\002\275n\022\331;\206\352\241\275rJ\021\276\254\004\010>-\331\310<\312\035#<\323x\037\2767\210z>0m\315\275\314\247\352\275\227\'\252=\200:\023\277M\331\025\272\270\210}\276p\262O<\201O\002>\237\2743\276\340\010\221\277^\241\001=\311g%\275\025U\325\2766\331K<H1\265\275\322N8\276\372\245\353:|\376z=\233&0>\3036<>\243\220->\247\177\344:5\262\337\276\304\034\205=Y\213Q>\251\021\336<k\265\273:+^\020>\2631X>9\n\363\273q!*\277\367P\352=\275\256\355\275-\255\250\274\200P\203>\370\241]\275t\375\373\276\205\335C\274\255\016.<8\350A=KU\001\276I\201\312\275\264\302\256\276\204V\312\275\362\305\263\275\256!`\275\220\371M\276D\270\032\276\211\273u>\033\021@\275n\241\'>\322\311\022\275R\316\005\277\324\374p\275\334\350%\275\037a\347\276\345\216!<\027\207F\275M\343E=\347/\031=\244X\306\275a\027`\275a\215\371;\353\373\372\275Z\256\020>\010\375\225\276\331\031\377=\t\363\325=Es\352=3\377\275=8\003e=\227q\353\275i\317q=\332\222N>5\023\376\274\230\364i\273\330O\353\275|\212\021\275\327\0350\276J\267\337=\006\215\277=\252\356\024\275\210\2769<m\202&>V\234\345=s\261\031\276u\256F<\373\213p<\3339\305\275\315\023\326=v\331\376\274lA\330=5\007:\275\277\251\037\274~@ =\004\231+=XQ_=]\274\005=\211u\301\274O\356\237=~\356E\276\220\276\201\274C\350\203=\013\035\351\273\004Sk=\\\213.\275\231\266\333=\240\007\315=\260\345\355\275d3\206<\350\271N>t9\316\275\027i9\276S\013\223=\357\251\017\276\216\001K\275\371\334\027\276\2517U>c\310\263<PI\265=\225\303\301\272%Z\242=\034\'\236\275a<\202>B\031c\275\256\"b\275\354\344\370;\235\235\020;\346\"n\276\310Gb\276\254\033\214\276[n3\276\233\236\n>\213\004\225\274\251\244F=\237I\013>\313\314\355\274\305R\243\276\0316\217\277\014\223(>\000\207N\275\'\256\274\276w\361\336\275s\036\016?\241e(\274\345\276\014=Uh\321\274a\3161=~[\225\2757\344!\275\213!\216\275\326\361\n\276\251\366\320\276}\237r>/\352\351=\030\2214<\270\3104=\312c\221=\370\2634>\316\204\332\275Y\315C\275\366M\201>(\267R\274\240\263\370\275N\211\210;;\032\234=N\320\257\275\237=C>t{\022\276k\201\023\275\305\273\325\275\355:\240<\023\031\270\276\356\2563\275\365g\016\277\2762\303\274\316_\n\275\307\317\256\274\363\226\257=@Fl\275]x\263=%\252\023\275\026\323!\276\371\221c=`L\230\274\220\310?=\237(h=}\032\315>\356\177\006<`\032e\275d-]\276[\330\267\276\207\240\\\2758\343\335<\020u7\275\215\305@=\300$\323\275\224q\314\275s\2359>\376\006\355<Sqe\275+\014\000\275r\273\024>\2379\332>\224h\245;(\307\372<\321\006(\276\272\317\244\274\233\024\320\275\023\212\312\275`j\016>\340\1771>\242&\r=~}\035=\227\360k\276\232\201J>|\033\200>&\335\264=S\2662>t\320\346=\203\220P\275\305\001v\276\275\223r=\305E\033>b\342a\274V\226\013>\275a%\276\234`\231\275\022\342\371\275\3167%>\017N\021>\360D\300\275\377\243\222\274\nA\366\275NKX=\230\233\035>ubS\274\331$\311\273\233Z]=\370\210\231>1\261\207=\351\313\273\272\214\320y=\326\343V\276\257\232,;\023\2224=Y5\267=\235\316\245\276\222\315\326\275Sc\013=D.l=Z\201\254=Lv(>\233\003\305<5\202\226=\324Q#\275\207\252$>e<a\276\211\\)\273\334\263\276>[k\361=\230\'/\276(<\334=v\010&>\246\010\375\2756\366\210\275\334\374\244\275\233\307\300=M\033\306\275\301\334\303=\304\377)=\372zb\274\201\022\\\276$\366\310\274\221\301\346=@\332>=/\266\222>\275\256\260=jz\"\275\256\341\222\2755\005\330\274\206v\241\275\353\025t\275Y\266V<\326\220\247>*$N\276\206\312\031\272\"\0147=.\307\353\275~B\360=\335\214\303\2757\020\010=\270\273\257\275\365!-\274a\330\316=\313Bp\275W\3539\274\024\233Z\276\272>^>%\266,>\336\336\335\275\301\332\244\274\201\300\333\275R\357\364=\024M\013\276\341<\'=\302h\242=SZ%>J],\275\211\2430\273\236\205\347\274\365\307\302=\216(\362\275\177]D=\307\206i>\3679r=\022\235\252>+K/=c\210\016\276\321\335\261\275@DD>\"rL>\355y\313<\340zn\276e+\334\274cy&=/U\360\275\366#\036\275\020\031\236=}\345f\275\024W->\367x{\275\260^\271\275\023S\030=\\~(\275L)\234\275\347,Z=\357\323\000\276}\022\273\275\351U\266>\377\336(\273\242y\010\276\355V\204\274H\202\202=O\010\010\275\224\223\242\275\324`\250\274\201\204z\275\265\325\\=P\355\274=\313\360!>\021\350\256=0\334?>\354\206G\274\204\366\206>\252J\226\275\260s\221\275\370\216\035>p\034\022=\261\323\265\276\205T\260>\034g6>\333K\n>\306/\271=cu\236=E\014R>\243\232v\275\000:&>\023\335\210>\307*\242\275O\340c\275\251\255\326=\211\304\356=\362\210\352>1\006\337>\303\"F>\203\305C>\306\257\026=\251\212\332>\236\371\250<\350:\027\276\030|5\2769\265\003>\272\227\255>o\334\307\274\240At;\025E\220<fv\333=\237\340\317=\271\312\344=u\232\020>\366\374\305\273Y\220\002>B\261[\275\032x\204>\031#\022\275T\331\312=\312\357\r\276\036\352\224\275\332\206W>\373U\255>\220#\250\275tk\302\273\206r\265\274i\"\270>\213<8>\230\372\036>B\306\035=wZU>\220\\c:r|E>O{H>6\004N>\376\017;\276\353\231-=C\303\t\275v\302\332=\224\261T\274\2122k\273\202{\360<!\257\225=\002\230Q>\322#\006>\246Pw=\2443\006\275\341\352|\275\300&\350=\n\207j\274\332\354a\275\327\036\222\275\317\242\317=\210\021\263=\347/\232=\027\000\264>\271K\024>\1775\026;\3445\265\275\330^W\274B\017\006;W\211\265=\271\216\030\276\304\325\264> \207\306>orj=ofE>\340\033I>\305\274\330=G\311\001\275\373\t@=\214\016\365\274\377\244\264>V\021\366\275\331\006\001=\307P\271\275\t;L\274\222\010\316<\322A%>[\345A>8\260\224\275!7c=t\022\005\277\324\275\003\276\177\226\361\275\306\312C>E^\351\276X\002%\277Og\271=\270\276\245=;f\361\275\324\2570\274g>\321\275P\300\371=\270Q\034\275\305F?\276\202xi\275\004\346~=\213\250\205=\240<\277\274`7\313\275\010\272\007\276\215\r.>\257-\207<U\204\342<\262\326d>w\034\025\276]\364\026?\261\001\216=\022\303C\276(\376I>\315\201\n\2765a\216>U\376t=\0228\364<\245Y\">1\267D>\364\237\257\275\\\231\">%<\017>C82\276\264S\304\274Z\301\014\276+=}>~\202\177\275\270\204\371\275\t#T>|2\300=)R\363\275\226\330\010\277l\234x=\014,\303=i\307[=\275tq>i\236\261=\242\003\251=\243\253\003>i\232\270>\253\231W=\357\037\034>\215\313\\=\212\025\037\276y\t\202=\307\321\304>AQ6>C\236\204>\240\001P>\274\273^\274\224\245W\274U\274\017>\340\236J>/\3430\274\024\214\226=L\335\n\276\370.c\275DA!\276>\240\275=\337X\270\275\251\347\267\275\331Ch>W\3023\276\366K\242\275\215\026H=\262\236\271<\350S\370>\034[3\275\266\263\225=\177\270x\275\305}\216\275p\256\024\275j\226\210>r\220\324=\330\017b=\307!\362\275\367\013W=\200v\">\327\313j>U\203\365=\336Y\363\275\263\270\027==F\242>^p\223=\017\r(<\310\264Z\275\265KX\276\316\004\255\275\373\3555\276N\\\021>\025\304\314\273\274\372\227=\316\246\242;\254k\262\276Z\305\030=\326\367\026\276\023\270\205>)\227J;\357\210\257<\370\274T\275\235\010\314=\017\307Q>\333y)\275\375\206@>\236\024\206=\201m\206=?\275\025>\324\'\351\275\\\232\250\275\315\2756\276\007\353/\275\3473\266\275\211\"{\276\017\264\234\276\\\307\\\275\265ih>0\021l>r5X=\351\322\337=\004\240\333=\350\027\236\276\330\023\2678\245z)\275\375u\222\274X\033,=\321\rp=\223\357\225=\000\230\235\274|\364\261<\270\021\321={\301\211<\371f\244\275V#\r\276Z\242\002\274\326\350\365\275\324=\257>2\024\342\276\317\005\233\276V\273\220:l$\315<i\225]\276\362\242\222\274\240\235\220=\301r/>r\023~\275\337\270\\\275\373\177o>\375\374\227\276\346\305\203\276\310\352q>Y\351\245\276\323\275\'<\212_\270\276\365\033\264>\016r =\327c\004\277K\027h\276Z\267C\275\260\333\206\276P= ?/\323\277\275\302o\255\2750\250\313\273\331[\345<Bt\257>hs\310<\217P\323=v\330\330\275\016\244\362=\335\374+>\321T\216=.q\013\276\256=\310\275\211[\256>\223\315\223\277\210\351y=\004\004\266\273\346\217\231>\266\230\252\275\'\223\227\275\313\207(<8\233\247\274]\373\261=\002\300>>\\Q)\275\340(:=\006\272\006>VjR>\224\354\256=J[v\275N\024_\275*\207\323=w\\]\275\323\r\024=p\371\213>\251\226l=\275\004\210=\344jG\276\273\367\203\274\362\217\220\275\r\340b\275\311B@<\331v\305\275W\264\217\275\026U5=eq\224<&5W\275\264\243{\275:\362M>Ye\243\274\231H\276>\274$.\275\370l\177=g:\177\275 \337o<\311\216\354<i\324\331<\252|y=\004\260\274=\256m\027\275\353B\263<[\312\202=\307K\277>#\377\036\277\356/M:T-\023=\214\021\236=\014\3236>\016_G>s\335s\275k\235d=)\325\">at\223\275\362\377U\275\275l\202>\235\t\025\275\232\302\310=\214\002\235\274\0230R>\261J\201\274\367\214\206\276\262>z\275\275\353\335=\034\352\006\275\200\256\'\274x\370<\276Li\226>\313\332\004=\r;G\276\230fd\276H\235\227=\347\245\202>\370M\031>\010\274\217=X\253B\276\236\\\262\275#\000\245\274\n\304\242<\201\211\345\275\035\356\264\275\206\374!\276\007\030\225=\227+\252=-\201B>\230\267\236\276\227c\203=\226N\030\275\033\204~=\325Y\316\276u\262\243\276\223\r\024=\344\350\334<\335\360\236=\021\216\025\275\002jn\276X\264_=\342G%\275\2008\037>RM\">\375\365j\277\222k\006\275\311\336\244\275938\276LQ\342\276\362+\231\276j\350\332=U*K\275\305<\020=#\217\\>\216\236\201\276\363;\005<\004\031\343\276\334\035\'>\371\007\251>{QW<\3001\007>\264W\261\275\301E\364\275\006f\363\2750P\026<\r\250\216>\025\255\r>\224m\264>\367\217\"\276\221\227\010\276{&\\:\213Y\035=\331&6>I\260)<Q-\235\274<z\244\275\234\322\326<\215\354\300=F\367\317\275\235JE=\025h\361\274\0374\322==\312\342=+\261\000=\336\213;<\316\352P=\255Y\216>\304\273\"=\234\210\213;P\361\324\273b\271\313:\247Z\237=\326\010\234=\315\2022\276\373\356\246=%Y\376\275O*\264\274lD\273<#\214P\275\242qH=:\227\241=\361\237\013\275;\177n\275\2732\255\275\332\255X=\200m\252\275$\037\324=\253\333\247<\237\303\276\275-m\021<\200\271\254=i\273>\276\323\232\247=\"\0162>\226\336#\275\222\001R\274La\237=\211\366\005>{\246^>\350\220\247=\266K\240=b\247?\276\316I\030>\357~L=F\306\262>\214\306\272<\005\214\256\275\254gS=\035\004\361\275!\007\010\275\267g\321\274u6\n\275\224\212J\275\235\257\017>\010\317\024>\246J\t>\237h\220\275\356\227\002\276\363\3401\275.\374v<\252\273\374>\250\365\240=\363\323S\275\002\331}\275~\310@\276\016=m\275\321\302\307<i\243J=\337\305@>5\247$=\251{>>,\243\222\276\306w\206>\026\261\342>~!\275\275V\013\243\274\354\025\365\275\350\275@\276\310)\320<F\352C=Vg\221\275-\364\261\276\271\025\202\276w\332\010\274\355\355\357\275\263\224\202<\200y\274=\300\272\215=\030o\000> \347\234\275av8\275%\226G\275\227N\345\275Q\203N=\335A\027\276\262v\367\274K\321\267>\244\302\204>3\344\005\275B\210]?+-U=pv\266<\231\231\351\275p\370\023\276\034\234\352=\211\036\307\273\202;f:b\243B:\264\224\332;\271\272\t=+\203\307=\336\310\004\276\202|\302\275\007(Q\274Jdu\2758m\273\275E \235=\344\026\255=\"\354n=\274u\035\275n\026\376\275\034\252b=L:\021\275\000d\277>\266\370\356\274S\347\210=\256n\014\275a\355\340>T\306\355\274s\250\372\274\202\267\025=\267\334\217<\017\322\223=\272(\325\274\372}\304=f\272\242=\024\025\235=\021[<\274\253\373\275<^\367\013\275\261\003y\275\001\276M=MQ\344\275\314I}>\021i\027\276NE(\275\354Rr<~%\'=\311\313\255=_\213\352=\026\037N\275\256\221\305\2749\364o\275X=.=F\032G\275\351|\267=W\334\343\275S\r \274\344d\033\276\005\352B>n\312~=r\2461=\324\033\245:m\240\022\275RsZ=\337\010\267\273\267\235\017>\377Y.=\200tS>\350\231,=\006\352G>>8A\275\327+\010>fA\205>1\367@\274g\270\344<\346\242\236=6X8\274\017K\256=`\236\0077\245\330\243;\274\300\271>p\334\300\273\271\021p=w\206Y=v\200?=\232\255\236>\265~\005\272\306\300\246=\322\345u\273*X\215\273\330\211\257\275l\326\345=\\\202q\274\034\000c>J\316\'>\036|3>z(>\275D.T<\302\307W=\244\241\037>\003\342\310;\010=!=r\225\016=\206&m>)?\226=D\347\033>K\023G\276\035\325Y>\251\355\263>L4\271\275Fk\372=O\327\001>d\'\t\276\204\245\240\275\022^\025>\277\031\270\276\016\356\322\275&\346\370\274\201N\021=\303^\315\276^\202(=\306)f\276\363\030\214\275;\3040=\2203\230\275\223\005\272=\r\212\315\275\214\323\252>|S\033>\233\220>\276kt >\030Q\201>F\177F\275&\202\341\275\313\304\t>.\246\354\275\306\270\331\274\316\361\357<\374\222d=O\357\004<\364\002\000>\305\270?\276A\322/\275Qa\212=\027%\000\276\2741\002>TrJ<q\022\223\276\004\334\303\275\231?\261\276$p\305\274\336!>\274\266\026N\275\\\\\030=\300`\204\276\262\334(>\261a\020=\3566`=;\3613\2751\243\226=\310\347\377\273\030\364\340\274F\265\n\276\254\211\202\275\271\277\207\275\325O\322:zP\007\275#\215\202\275\233\022\231\275\014#S<yH\351=\310\272R\276xU\216<]\273\014\273\201\332\310\275\300z\247\275\210\225\266\275\375\352k=z\364\351\275\225\354\246\275=\201\022\277\313\0318\276\344\376\323\274p\337b\273\303\000\377=\027\303\272=\020?\204\274{\"\t\276\310\212\031=%z\013\276\242\'O=\244\343\307=@5`\274\324\311\271;3mH=\315\253\235\275\335\324\256>\212<w>\267V\371\275J\370\366=\223C\332=\350\032\223\274\331\005\036>2\007G\275\375\370\370=\006\320\376\276\357\211\215\275$\372\221=>\004\320=\004&\230\275\004\244\334=\331Y\323<\206\034\364=\232@>=)z\320<\375\342\014>\027=\267\275\234|\256=\343V\303=_h2=\245\222\006\275\375>\031\275V\005\270\274\352w\227>\223\364U\274X#\014=\207l\036\273\231\226\267\274Y{o>*\363\277\275?`\304<\327\351\323=\330\221 >\342\272\257\276\254\357\027\276\244\017\223=\223N\333\274\222\377\351\275\314[\363=\005\310q\275T\216\331\2759\337\324\275B\355!?\324x\303\275\363\201\234\276\260\211\216=jZ_\276\332\247\340\275)0\315\276Ms\210>\360\375,=kUm=\203\230\032\276j\235+\275\353\352\024<\325m;>U\326\202\273&\224\354<\206k$\275\233\034\371=C\264]\275D%-\275X\300\330\275\204\005U\276Q\343v=\332\245\250\275X&g\276\257\273\005>\333\273\236<`\240\225\275\330\261\231\2758\345T\275t\262\274=\353\216\024\276]~\361\274\370\211\032>7Q\313=\3666\211:\326/0\275)\3231\275\255\363T>\315\251E\275\237\242\277\274g\3131\275-\3356\275\033\267A>&\217\365\274\373P@\276\251+\361\275\223\3621\276N\315}\275\244\237L=\214H\n\275\203\253\204<\33610=\263b1;\016\210\007>\367\241\243<\307\353\016\275\027\215\275\276\365\252e<\236l_\274\206\225\246\275\213\312\t\275E\357g\275\nW]=\363\270\254\275\000\263\232\275\362\343\236<\270\361\231<H\336\212<\022O\320<I\'4\275\211\320\325\275\032i\022<\1777\211=o\324\002\275>G\215\274\357\363\341\275\2113\206\275\t\350G\275\204u<=\274\307\344\275\017:\255\274EP\304<[\306N=\306\312\027\276\300H\225>(\004\265\275gc\225\274P\315\325\276d^\342\275\355l\220\275\240\035\270;Z\301$>\242\220)=/\206\277>\306\304P>0\240\004>\330\022\361\275y\247\203>\004\243\306=.\333\231=\340\026\233=(d\311\274-$\022>\331\022\317=h\354\315<`{#>\300_\002\276\316y\347=9\210\351=\361\361\344\275\030\r\370<\306\231\r\273\334\263Q=\313C\352\275\205>\375\276\201\364;=l#w\274\202\207\226\275e\357\361\276\323\241\253\276\220\360\347\275\256\335\352\274M*\327\274\347\203\353<eI\005\275\313\202\024\275\031Q\312;\317=Y\276A\227\021\277n\177\002=8?+\277\262\354\222\273\350!\317\276j\332\371<oK+>\201\002\332\276\3406@\276)\367\256\275\271\361\003\275\374\203_<\261\252\372\275\227&s\276\314;5>\014\322\005\276L\362E=\260eT\276\213\333\212\276\3100o=d\355\351\276\262\024\364<;\370\014\276U\3669;\247\232\374=4\305/\276\233\016\256\275\352F\220\276\267\016+<\031\310\247<\020.\204=\255\241+\275#\006^\276\323\237\325\275q\377\001\275Z)\237=?\326\210;\310\276\221\275\246\236\326=\252\375\245\276 \353;>Z1K=\262\023_\274$\363l\275P\255)=J\r\322\275\301AV=\313\351\360\275\335\372\261\275\232\307\333\274\354X\315<\231\373W=\313\020\272\276\356\327\203\273\361(\205\274\342\022A\2761PR\275\342w\033>q\217(>\345\\_\275\230O\256\276\337\034\021=\215\2536\275\232D\207<\320\346\212\275+\216D\275\234\034\270\275\303\030\313=9\225I=\274\375M\274\234\313\241<\374\266<\276\257\022\210\276\262\260\324\274\377\"\235\275\261\021\t\276\013T\273\275\260(\204\276@\336\013\276Z\255\313\275FA\365<\263\312\260=\360\276\317\275\243\246\311\275) \245\276\007g1=\365\002\305=\362\217\025\275\373M\214\274\215\365\211>A\206s=\366\326\023>\302\213\210=\004\325a\276\036^\224\276w\312V>lQ\263\275\010\274\267=T\026\004\276\031\034.\275\005V\271\276n\375J=\370)\013>\305\264\030>v\002j>\034\314/\276&\334\204\275\273U\026<)\362\265\275\302J\206=K\026,\276<\233\303>\355\332\201\2766\252\317\2755\273?\276\026.`<#\334\217=\271\315\223=Ap\306\275W\300\214\276\377R\207\276\"\"\242\277v\3743\277<\333\253\275\261QW>3R\002\276;\272\270\275\234:\272\275G\265\007\277\n\0207\276\247\227\326\275\243\244\326\275\335\t[\276\331\226:\275\243\253\251\277>\313\347\276\304\245\332\2764%\212\276\314\027\306\275\027\037\252\276\210\271\200\275\007MN\275\022O\034\275\210.\211=\341\222o\277\314\027\312\275x\313\331\275j\357\006\276:2s\275\377\267\n\275\014?\237\275\260v\224\275\247\263\\=\025u\203\275U\026\014\275\263F\217\275\353\306\"\275\271\227\250\276\344\355==\201\323\002\276\257\363\376\274\344#\245=\350{\345=\212\341\211=/\\\361\275\335\367o\276\334Ia<\204Z\272\276\253\356\240\274\373\373\252\275K\217\224\275Mv\367\273p\243\301\275\342\337\034\276\022\210B<Rk(\274\271[\002\276\367\005\201\276\207\362I=\225D\234<=\243x\275\337\231\211\275,\347}\275m\304\242\275;\020\n>Kc\201\275P?\313\274\207B\377\274\266\355\204\273S\201\324=\334\325\313\275\374U\t\2756I\004=\034>\006\275@\344\250\275h\322+\276\021\216\203=\345\202\362=\254\n\246<\253\316\322\273~\313\242\275\336\356\254\276\370\356(\276\203&#\276\201\327]\275@\374\001>\311]\254\275\226\220\262=\037\323@\276\352\031S\276H!\023\275\033^>\274U\014\256\275\375\363\033\276i\202\034=\324\325R=\242\372\202>e\234\010>\301\2015\276\306\027\234<\233\035w=\212h\244>\023\320\016\273&\357\225<\370</\276\202J\332\275\033?\346\276S6j\275\230\333y>i\357\206\274\227\263%;\202\217\342\275\246q\256\275\207d\340;\017\260\213\276\016\372\210\276\035\006\370\274\266H\021=\303\253\005\276\341\3243\274Y+w\276\342\215\352<\245\036\341=\005\nG\275\3565A>\206(\351\276\013\344(\277\224?=\275\212_<=\223\321\247=Z\243\213\275\340C\267\274\366mF=\236\211\353=G=\216\275^\271\317=hJ\234\275\310\275G\276\376\371}\276\261\211#>\026\371)\276\031j\224<\216\324\333\274\377\350~\276\250\000<\274\\\203\342\271;h0\275\"o\r\276\344\007\010\277:\340\345=8)<>\024:\202<H\232\005\277\017\363]=\177x\241\274\325\223\222\275D\301_<\211i\363=\223e\347<O\026\356;\356V{\275\266\313\217\275\314e{\275\034PQ=\330\376\321\275L!\307=\211\320\324=\377\334\005=\365I\253=\267\002f=\250\375\316\275\232\177\306=o|5\275UZ(\275e\237\210\275ms\272<x(\307=\003\335\227\275K\035\003\275!\301\275\275\213Or\275Z\202\225=\300\272Q=\222A\241=\3042\034=]\021\t\2753\356\023=\335\030\217=\245\255\241\275\316\303\200=\262b\311=\177\277\372\274O\017\254<\300E\016\275\'Yl9/\340\223=\266\340{\275.\177M\275\343\017i\275\335\254\251\275a\236\321=\355\210f<\251\270\240\275I>\224\2751H\034\275$\310\030=\345\352(\275\314\327\302\275\036\312l=t\211N\275\360;\321<\226\036\236\272\216t\230=a\261\022\275G\221\246=\316q\340;\227\3034\275\265:\357<w\\\207=|\035P=F\237\324=\224\177\205={\251\014=\302+\226=\365I\235=Qn[<\210T\014=\270\313\217\275\327\245\273\275)\250\303\274\231\215\252\275\226\307s\275]*_\275\326\221\245\274\360\355|\275\0070\212<\370\2218=\356\322\026\275\235\026/\2758[\227=\013Z\201<\311\036\005=(3\004\274\266\213I<I\213|<\217\365\345<C\025\255=;\231O=h\017\214=7$\357=2\320_\275\377\300\343\275c\221\224<kW1<\216c\231<\355K\004\275\303\030A=J\341F<\342*\262=\242\033\257\275f\031\235<\357\340\271\273\2379\223\274\256\250\274\275\222q\314\275\335*\245\275\\\234\221<;C^\275\373\352\246\275\016\252+<\003\276\033\275\277\245\n\274\347J\266\274\325\306\276;\017s}\275\351p\226;wo\215\275\216K\301=\340\274\225\275\026\020~<\255\212\013<p\230\255\275\276\220L\273\006\307\312=\315\266\262\275\247w\215\275m<b<\206\235\303=\031\361I\275T\033\262=\233e\177\275\361R\251=\266\234\037\275\257_\270\2759*\205=e\312\322\274\267\316<=\024\344\'\275\321\352\315\275)\276\260=\256\251L\275\001E\320\273|C\240=\343e\337\274`h\222=\336G\242\274*2j=\265Xi=\204:n=n\351\227=\251\233d\275a\324\232\275\336]<\274\007\261\372\274^x\026\275k\301@=\021\347\351;\023\014\207=\211\020\223\275t\332\302=f\235T\274\355\277c=y\304\366\274\023\371S\275c\030Q\2754\326\236=jt\261=,\310\343=x\334x\273_q\214<2\025\271<\014\330\333\274!\346\372\274\213\356v\275\360S7\275\017\334\204=\364\270\260\275!\323\247\273\355\371\253=>\261\263<\327\311==P\"\036=\021\234\253\275`?,\275\007\024\024\275\217I,=\230\237\321\275\322lM=\r\213\224=A\310\221\274\327\323z\275im\371<\226m\216\275\275l\321=4\ru=\017\230\247\275\207\221\326\275\313\252\226;\357\304\335\274&\277\251\275U\'\202=\204\225l\275p\361N\275\334\235\205=Vkk=L\375\275\275Y>\201=`\354\037=\227j\017\275P\231\201\275;g\242\275\315\017\250\275)\035\020<\r2\216<\266\221\246=MJ\271;\265>\307<L)\334<Z\360r=\324\276\233=Gn\306\275w\313Q=F\314\237=\346\\\373\272\203\336d=24\035\275A\202H;kg\244\274\371[\035=(/Y\275\226\324?<K\374[=\177_\024=\271\243\275=\270\374\211\275\366[\263<\377i\255\275\351\250\325\275\200\027B\275.N\312=\014\"\017\275\327\216\317\274\327Q\272\275\322\252\240<\372\264\220\274S\312\231=f\315\344\275\315\315\345=\371tM<6\276\234\275\221B7=\360\033\253=Z\337\010\275]\302\317\272\225j\211\274\324\216\255\275\325\023V<\321 \301\275O\323\300=mu\004=\272\336\271=\276lY\275\301%\254\274{\010\016\273\020g\244=U\366\333\274\216\374\235\275\230x\313;\322\'\230\274\307\261_\275\005\225\335<\331}\362\274\225\371,=i\266\t\275\245\236\226=\344\025\336\275\307\326\001\273\345\325=\275\343\024\231=\272\275\345=\302fe\275~4\320\273X\265-=I\350\340<\303t\241=!\241&\275e\207\204=\252\325.=`~v;\372\333\273\274\360J&=\377\272\033=\250\323r=P\241\333\275\030\023\'\275\237\200\313=\355E\301\275\230#\254<c\017~\275\006\364\265\274\021g\250<\310\030\275<\316$\252\275\305o\251=\355s\213\2752\033&\275\362\377\267;\246F\034\275\001\234,<d\020\323\272\320\202M=]\0072\275A\006~\275\006\342C<\356-\363<\227\253\016\275m\0371=fi\325=\326\337X\275*u\243\274;\270\327<\346/\314\275\313\231\256\275\305f\001=\373\245\257\275`\336\231=}\035\256=\033\0237<#\325\267\275\210\300L\275\276\346\306=a\017\t=d\347\222\2757\211j\275\240r\362=\226\006\250=\240\005\224<\210 -\275\216\220]=l\370\245=\341\311!\274\326\231\345\274\206\305\254\274\313K\014=\354q\316\275\271\224\243\275\365\204\304\275\362?\325\275x\260\003<\325\202s\275\354g\002\275\245\311\007=\021\236\264\275\201\223h=y\255\t=\232\3746=O}\256\275\227#\013=4\274\202\275\033\205\273=i\377\235=\210\233u\274\255\367\004=\366\242C\275\020\221\317\273\234w\334\273\023\216\335<\017\340\235\274m\360\220=\034\"\223:\264a\232\275\345C\305\275P\331\276=W\253*=4\024\305=^\327\224\275b\367\262\275}\214e;\374\037\222\275\316\205t=\235\021\243\273\231\210\255=\357\301\263\275(\317\330<,\312\t\275\001\t\'={H\277=s\372,\275L2\272=kD\233<)\247\351=hC\272\275\377\302\251=z\365\317\273\0272\223\274\315(\250\275]\230\312\275IP\233=k/\"=*\314>\275\217\350\274;\322\240M=x\342\206=\274l\230\275\357\226[<\2553\231\275\373O\233=~x\004\275\365\022*=a\237\320=8He\275^\267\243=\333?\333<\'\364\324\274\272\306\311=\265lQ=\202D\246\275\246\352\232\275c\335`\274zGi\272\335h\245\274\214\277\254=4\006\306=8\202\220=\316Us=\201\376\002\275\274\202\323=C\237\243=\316\013~=\t\332\244=T\3767=\030\244P\275+\246\222\274\215?t<\036\232Z\274\216\030\310\2738\334\376<\327\250\267=w\027\245=j\245\263=,P-=\364,\224\275\351J\252\274\231\006n\275J\326r\275\275\007r=\265z\263=\nh<\275\343\'\320\271\337=W=\t\243\032=0*\247\274\325\201O<\317;\332=\363L\275\271O2\321=>.p\275T6\241=\305\312n\274\"\325\220=N^\260\275Wp\356<,\305d=\237\336\215\274p\360\257\275\374\027\207\274\017\005&=5L\024\275WY\324<wH?;\300=c=\035)\207\275\034oP<6)z\275\201[\323\274\213\270\236;r\352\236<8\245\327\274\034\206\300\275\231\253\232<\204\214\204\275\022\032\217\275|4\237\275\003\211\233=\351\257\325\274\264\303\013\275]\013W<\267\224\324=h[&<:M\272=\351>\215=\024et\275\321O\371<\"\300\200\275`\330/=>~l=\2005L=\027++=\352\370\026\272|{\311\274\252\'\215\275\3642\221=\036\002\020<\347n\251=\020\315^<"
      }
    }
  }
}
node {
  name: "decoder/dense_1/MatMul/ReadVariableOp"
  op: "Identity"
  input: "decoder/dense_1/MatMul/ReadVariableOp/resource"
  attr {
    key: "T"
    value {
      type: DT_FLOAT
    }
  }
}
node {
  name: "decoder/dense_1/MatMul"
  op: "MatMul"
  input: "x"
  input: "decoder/dense_1/MatMul/ReadVariableOp"
  attr {
    key: "T"
    value {
      type: DT_FLOAT
    }
  }
  attr {
    key: "transpose_a"
    value {
      b: false
    }
  }
  attr {
    key: "transpose_b"
    value {
      b: false
    }
  }
}
node {
  name: "decoder/dense_1/BiasAdd/ReadVariableOp/resource"
  op: "Const"
  attr {
    key: "dtype"
    value {
      type: DT_FLOAT
    }
  }
  attr {
    key: "value"
    value {
      tensor {
        dtype: DT_FLOAT
        tensor_shape {
          dim {
            size: 512
          }
        }
        tensor_content: "\206\270\254>\341;\371\273\253\267\267=\236=\267>\023\227\363=h\371\201<#T\024\276\355\226\027>\376\317\361>7.l\276\230U8>?\377\245=\361\020_>!\301\r>\035\352\300>{\244a\276\276K[\275\274\300~\276\021\005\210\276^\222\022?y\234\203>Q\211\320\274\020\035\223\276\217\3352\276AW\257\274\305\376Y=a\221\022>sra\275\333\333\341=\236\000\014\274\024\301\225\277\341\341\230=N\001\222<\223\307\240<\345\241#<\005$l\275\276\214\002\276|k\332<\315\246 >u\250\363\273\226\271\017\2758\206\215=\240U\207\276\361\".=\342\370\036\274r\031x>=\262@>\t \\>R!0\276\n\235\022>\2603Y\276B\317\307\273;4\322\276x\212\024=\350\n\311\274]\n\254\276\326\203 \276\230.\022>V\2748>\313]\200\275\327\030\002\277\032>\020\274\222\257\206\276j\316\231\274\326\025\242\276\345\314>\277\211\333>\276k}E\276>c\223>g\t\253=\251F\312\275\211\305%>\301\304\224>\327\240\256>\361{:\274\273E-\275\323{?>\005\215\363\275D\242\202>k\020\030=[.\264\275\212\2667\276|\273\231=a\t\244>\214\217\361\273(\350\023>\'\315\250<\244\345\'\274\177\016\006\273\001n\027>\236.\324<\221\373\317\276xV\205\273\317\210O\275\350\315\021>0\002s\275Y\260\233\276\017\326b\274)>\224\275)\326\367\275\353\375\260=+\301\200\276\244\301\220>\2146k\275\333\263=\276>\326@>\237~|\275#\232\254\276\253\277E\274L\371u\275\334\255\202<\317qO<~j\206>\274\372\020>\303\r9\276\255\020\353\273\003J8=\251a\033\274\207\360j=\243\272\010\277\354O^>\355\326\004>v\351\337=\262\267\362\275\323vQ\273+\315\'\274\361\007\242\273\006\217\255\275\371\262\214\276\331G\020>\224\255\024>\206\341l\277\023\357G\277^\307y>mD\014?/\213x\275\304\360\311\273\260\235c=\036\352\202\277\225\326^=\001\256\225\275F\027\204\276\377V\205\274\3706\271\2751\t\244>\312\004\211=JX\237;x\031=>\335\365\273<\266\204\013?\272\007\347<\025\244\000=1\247\027\275\220\260\331=J\325\272>\376\2745>\375\305\225>9]F\275\317p\211\277\364\001\341=2(\251\273\302 \220> \rm=\026@\344\273!\025\224<|\'\214\277\250\364\023\275\246]\303\275\265\"\231>V\036\201\275\311\214*\272X\207R\274\022\341\376\276\302>->>\276\023\277\257\213\333\273`q\321=\007\353\302\275\351c\002>9\356\323\273\324\300\006>;1\260;9\243\201=y\234\344=zH\002\276RQ\327=R\001\001?\310b\205\277/\326\002\274%\321\010=\206\231\270\275\253\0001=j6\004\277}\"F\276?)\263=\007I\332=6i/\274\3253\361\273\246q\376>\312X\344=\201]\277>\206\016\203>\320 \007\276\265\217\256>\206\364\367\276\356s\374>\240\343\364\2754\013\333\273!\252\316\274(\212\311\274c\220\204=\235m\037=\025\366n\2757\311Q>\334\340?\274$G/\276]\221\003>o\022\345=}\245\367\274\247\374[\275\265/\201\274y\302f>l:T>{\214\207>\274\351\024\275\006\200\005\277\240y\013\275+\356;>\013\222\204>\236k\023\276\220X\300=i\2501\274\330\215\207\275\346\177M\2763T\277=K\353\013>\344\227T>\362\206;\275\347\312\020\277/1\314=\3409\221>\270$\005>q$c\275k\022\262=\256\323\213>\000\337\270\2759\213(\277\t\266\276\275\320\276\026>:S\351=k\313k>S%\317\2755:\310\275\216f\t?o\016+>\356n\021\277\230{V>\242\365\321\276\301t\202<\244]\037\2775\033\203=CU;>\205\026z>\201p\357<\3203R=W\325I>\t\351\233\276E\257l\275A\350\340\274\255\237\335=H\375\261\273\320\351\206>\253\014\377>\213\373*\274\323;\273\276d~\t>\355\372\253\276\010\212\026?\322\323\303\276h\021\277\275g\250\261>\213\022\035\2767g\316\273\033N\305\275\360Y\r\277\301\267K\2751\232\331=\210/!\274\344S\036\275Z_\027\275>\177\216=\376\235Q=Q<!>\267\345h<8H\313\271\355\331\232\273\231\272*\276\17721\277\320\244\325\276\267*\026\277\3123\231\275\351\272X=\342\315\022\274\233\022\224\275\365,\304\274\252\241\306>.\334F\276\255\022\343\275\0326\337>\031Qp\276\r\240\n\277\nz\267\275\341\321\202\276\357\352\360=i{g\276#=\\<\207_\200\277\350U\235\276\361\010\241\272\201w\321\276?w\000>\374\036\271\275t=U>l\227L\277\265\223\354\273\270\274[=\270T[>\215\225\231<?02\276Fkk\273\354\335\031\276\017H\353\274\204I\256>/fe>\205\310\014>\257I*\274\221#\277\276\262\203Z>~\355\272;\345GG\276k\346\221\274\304\\t>O\261\177>Tdc=\310\241\377=\t\323\310\273\361\177\020=\201Ly>Z\216\221\276\202\322\006\276\225\017\031>$\361g=\227\354\372\275\356\212\375>\265\027\230>}<=\274\311(\310>\002\014K>\353\350\327=\241w\242>\030\331\254\275\224\037\003\277\330*\254\276C8\224\276e\367\024>\00742>K\274\356\273\213\230\005\277\266e\366=\314\271\230\273IG\013\274\215\'i>\023H\311>D\353\331\276\267/\311\276|\324\352=t\222\356>\311\344\276=8\370\204\277(g\331\275\237&\245\275Q~\014\275\024\020\022\276\233\212\343\276V\261;=\0025\274\273`\037Q<\032\271\237\275\302%\003>L\0231>&\242\341\276\221\"\312\273\365\362\013>lA\216\276}\024\207\277\2320+>)\233\336\276\375\3156>\247\333\035\275\304\317\252\276;8\027\276\301\201\364<\241\016\252\274\202\210\343\273f\2531\276E\352>\275\201\225\036\277\025Y{>\354a\023\276p\330s;4-o=U{\024=\027o\361\276\366\366\313=\201\353\206\276\"\\Z>\304E\251\276\377K+\274b\230\236\274B\230H>\022\006\315=j\013\\\277/sR\276\207\305\354\275\210V\225=\213\3511>\340\223\037=\':R> \257\323=)\3551\275\2124\254=\014\362B=\000\003p=o\222\347\275\313\244\034>\345@\017\276s\351\013?]\224\\>}b4\277\003\335$>\277.F>aC\363\276\347\373\027\276\037~\003\2760\001K\276u\356t=\315K\r>\364\375K\275\304|\375\276\265\017\243\276\3553\023\276\002\034>\275G\236\221\276\252ey>\330\321\204\275\335\017\266>dH\023\276\177p\242\276Dq(\277\347f\004>\266\376:\277\272\315-?2O\325\276\211\030R\277\030\t\355>/#\233\275>\241\211\276\205\266;\276C\027w>\n\254\244>\212\235\363\273\301\366d\276\205\267=\273h\3276\277\"9n\276|/\203\275\265\375\266=\275\035X\274\310x\244\276\006\233(\277Q\340b=\016\020\253\276h\220\216>\362\3667=\000/\340\276p\215(\277\202\312#>_p(=K\241\226>BH\253\274\237\234\035<z\331\025\276\364\335\213\275\305|\355=\222\t\017\277\352\214b>\006\353\207\276$\3157\276)\217\301<\330X\001?\212\310r\274\327\330Y>\022Q\220>\336\312\013\275\373\221\261>\352\351\343\274\240A\033\275\260\242\216>\367\210[\276\335M\371\2756\2255\275\n\363\203\277"
      }
    }
  }
}
node {
  name: "decoder/dense_1/BiasAdd/ReadVariableOp"
  op: "Identity"
  input: "decoder/dense_1/BiasAdd/ReadVariableOp/resource"
  attr {
    key: "T"
    value {
      type: DT_FLOAT
    }
  }
}
node {
  name: "decoder/dense_1/BiasAdd"
  op: "BiasAdd"
  input: "decoder/dense_1/MatMul"
  input: "decoder/dense_1/BiasAdd/ReadVariableOp"
  attr {
    key: "T"
    value {
      type: DT_FLOAT
    }
  }
  attr {
    key: "data_format"
    value {
      s: "NHWC"
    }
  }
}
